"""
Orbit Wars V11 — OODA-L + Offline RL hybrid agent.

Base: V7 gold-standard spine (duel-aware opening, restrained FFA tempo).

V12 additions (on V10/V11 data):
  - Embedded MLP value estimator (15->32->16->1, trained on 55 replays, 86% CV acc)
    used as a soft position-evaluation advisor in target scoring.
  - Multi-source coordination: allows 2-3 planets to converge on high-value targets.
  - Vulture logic: pounces on planets weakened by inter-opponent fighting.
  - Winner-calibrated parameters: lower reserves during expansion, bigger minimum
    fleets, and more aggressive multi-launch (based on winner vs loser replay analysis).
  - Consolidation posture: brief defensive mode after sharp frontier loss.
  - V11 policy scorer is trusted only in post-opening duels; ladder data showed
    it hurt 4-player FFA target selection.
  - FFA behavior stays on the V10 heuristic path; local tests rejected an
    experimental stall-breakout nudge.

Architecture (adapted from the Julia OODA-L framework):
    OBSERVE  -> parse obs into WorldState, cache fleet-landing forecasts.
    ORIENT   -> build Context: threat map, capturable targets, leader, reserves,
                value estimate, vulture opportunities.
    DECIDE   -> priority cascade with multi-source coordination.
    ACT      -> invariant firewall validates every move before emit.
    LEARN    -> within-game 3-strike memory + failure classification.
"""

import base64
import io
import json
import math
import sys
from collections import defaultdict, namedtuple

try:
    import numpy as np
    _HAS_NUMPY = True
except ImportError:
    _HAS_NUMPY = False


# ============================================================
# CONSTANTS
# ============================================================

Planet = namedtuple("Planet", "id owner x y radius ships production")
Fleet = namedtuple("Fleet", "id owner x y angle from_planet_id ships")

CENTER_X = 50.0
CENTER_Y = 50.0
BOARD_SIZE = 100.0
SUN_RADIUS = 10.0
ROTATION_LIMIT = 50.0
MAX_SPEED = 6.0
RAY_EPS = 1e-9

# Decision tags for the bitacora.
TAG_EMERGENCY = "EMERGENCY_DEFEND"
TAG_INTERCEPT = "INTERCEPT"
TAG_VULTURE = "VULTURE"
TAG_DUEL_OPEN = "DUEL_OPENING"
TAG_REINFORCE = "REINFORCE"
TAG_SNIPE = "SNIPE_WEAK"
TAG_PRESSURE = "PRESSURE_LEADER"
TAG_EXPAND = "EXPAND_CHEAP"
TAG_STOCKPILE = "STOCKPILE"
TAG_COORDINATED = "COORDINATED"


# ============================================================
# VALUE ESTIMATOR (trained offline on 55 replays, 86% CV acc)
# ============================================================

_WEIGHTS_B64 = "UEsDBC0AAAAIAAAAIQAQ0ZgR//////////8GABQAVzEubnB5AQAQAIAPAAAAAAAAzg4AAAAAAACdVuk/FIrfVcnWIkuWSpRrjZTSqr7cipCscYsshRIhJBG5RZg7EW4h+7WF7NmXr3XswxjM2Gfs2Ukpil/Pv/Ccd+e8PZ+zhF2/oa17cwuLG4unlJW1y11nqXNiUso2Z6TkxKRsHJ1dnS0dzB2draz/T1eztHex/q273Ld0sv7NpY8ryYmdUJSRE/MS+3+Cy09AUd25JhMtHu0uHbKagJ7wyaFizjKo0i9JjsoYhpArvYuCbem4qvo8RCkzCI2cV/3IsxS4IznsqUftBLGTe6s/fknEF9IGF8hj05hoGEBn5t2A1B/83jIjFFjuutSca5qKJ7Um57346sDn2hjZVLMctGLPLdurMtCicP1zf1c3yARlisbLNGOlPemKUWYL+lllBaQ+aIIF9cBngysd+Oru3PuvlflA1TJuS6rvxv0FNiaBhfl49C7xPP9sBSpKQU+AewPaPNW67xTahWusIQrq7ikglvo22DwtDajqD5xSSZ2wNYoqOCFQi30RF+eSb39Ax7mTGvKLkzD4yKCmbSIPlo4n5O4WbYJg4yy2RGodfCRX7ti/fQyl9CQ3l2uzsG6m24L2bApDst+0lEd3A2lqDz85YwQuPkvIdDJqwt3+h4nsh6dgz+3Jd/xf+zBaSo/l/joDvxf7LNxuq4ef/iHtqmWd2MPm16FkX4eyB51el10agAmCqMdkbS8quU0b/BdUh0dbcjW7xd4j4Sj7IYmOSohT/tHK79sBdM8kcrZFCZZymE6Nq/VjP7HE4sbNPtA3ERB94rYI68ltqwErzdCoFKMwfqwVPldL3ec+XYkEn91vD8c2YC5lUWe2gIZfNS2/Ux5Uw2pfpIBsfS7aXqfNvNnVC8y5U5ITz3pwPiiqKHd5GNyj9ISICxU4aMMIpa634JPBwdlmFRLq/1QQ/ZrSjOXP+ZsV1Kaw8/z4RvZOMsicNzKU5R4AqxwL0Wj3QRCT69BqcSGB6yzqW6s0A9Nw+VtKyijOKIT4+J7KB/78pyYvXGgY8V6PJ8K5ClXGuM0WswegoLzihV/VU1hz539H4Z3HeE7dLI3HdBTM8WW5mN+OT/jePa1lK0apooRD7FM9cJpY5u15lgIHS/qucyQ3QHSLey/v3jIQbr3P0X+zBFcIxG+lsyScTrRtdqprg1GPC0dieDvgBucO9dI3TBBKqzPya82ErGTj1zsnyqAmXpQ2sI8JRNqpjDgOOi6Qnp/e3NYDmxOfWR8sUbD11Wvd1vUR2GbXPyw3xoCjIcWKtQ/GgCkjrBv1cBjudq/XNXh1wV778+O3jOn4prTmnKZnE5xebBeos6cDwfBnz9XLJOjKXDadLPmInJ9iK9teVMId7qV+X49q0Mi8eIx5iY7SNcU7NjzaoUrFIfzTUBNIPpQ4kB6biYLZ7GPnVMkQ6D5n/VCoD6bjX0qeNaFjY81gLbKPwL7GeUPtTDq8FNq+daycBgtnXD9bCPeDoOYP7kj/DtDWtfY4WBQDk4uLXUeGO/DDe97DKp0k2F9qfNT4FUIr9LmYXerGW/LiMsyZMXhrxKsf/ncP7L8uG8hjXoHS//SkENmYKJ8dPSORRsVr+U3z8qQGsNp7e6ioORYNHQ4McR0awnXu9/a0sA/gn7vwqdCyFK+8tI8Tt0pEdsFA0ZLifgwJjbwyd7YKQjKwhni5C1e5HiRdKs/BC6YtFy3CeuGuCGWno0MvEGO1Zh13x2FelTrput8SXn2utqQ3TAWnBzMFhvrdSJR+WV472o9Z5VweQoZdkPyoKDJyeBx/Vj7LdH1MBstqqz1fquvgaMzC/syFRrAMvv22pqQWkrVf8mpH1GCbCE/2UG01KprLxr2y7cWHJ/i4IrfMwAvB1HHyYikG3EkVPpjRgadj+QMbQuNRoZh27uuvNnBOXxI2u0yHPy/2u2dxJqLrU8foOiEKHuY5MTp+vBf/LpOwqfkrA31UNya8b/UC+RvRP9GxDMJL3cU2vKrxYSst7atdGLhO9615hqejvba3vLXiNE6Rjj2MPFCLlAOLogU3lpFDIf4ch2U+nruXxAi43gaf2FrF+zXoQA+wcE7qr4eabe6SP7nTMILc+0hOtxM1yHNRM1cZ+CYn/6hJYQ4aEs0MdeTbUECg4cdXdzpmZ/U+txdvgwyeOTn3a604tL7588zaKJqulQVEi5Wi2NhQtYovFbO/TTT0/2oAQow0B4lGA5mEF4WLxA7o1xi/YKpSA5nfXKPalBlw6nJyp8O+blw69YUmmExCO42OI4Qd9XCt6stO5+d5KDfOU1mymATWZfFuW1tI6KO5X9BZuADTY1hTWDfrMcfT6XsDOxm4ToZ7vPsUhXtfvZFk+TKIFlmDL8XW34FrwhiXskw71imEsujQGfBduNYgiasCQjJ33N4qNQRF673pEYkV4O104bkHXxc4Vvzr9ju3sI2o+izIuRlaveasnuWNYEahoL+rVgqGa+uzKvgNQpz8Id3H3/Igtqiki+kzBPtcs46YJzZgY5G4cVhGPmZdigsp3SBDRkTgrjtnR7EqVLy98MoozKYHBTs0VKKdj2xgMvcQsG1U2w9d7kAXVqGKLnsKlMs8nV5XzkPC3rbvydIMLJHgqBG/2IDehOQnPy4hFrIy6+Wy64DubGN0LaETd8W82yiIrwSFj5kp+SwJ+GgbVwpX7gRqbvH/bjtKB6fjn8D0dC+k5USKxyki3nMd9u6+/gmv6Gbo14uRcKK1aXtTVCO8XdtUvDxPxutlFpxl3T1AyHDq8ZXPQoUEJYMRYwbSvSrfbpupg4P64xTlb9Vw1t/Ai3BqDGu3YE+eahHo9Bw6r6nQCq6sJsoj5+Kx0Vlg8977Wqyyy35IpQ1C9Fm5rfypZNxmRB+7zTsGJis74Nh/ZJSEHb/uZtOBr1Ig8GTJKKw4Sfy9OkNH3WD55v1L1eD/1kwuy7kDHY7897FFrwuskkRfcaYzgSE7eq04fhSsOQ+2er6ngVCwCF67XYX0EieBSLUOmH6uuloVsQDMD6Lq2aIDUBXwV4NL/xQw/M66MU/1gtDNz6avNvqQGkx4xEYvwlO9VkoJahQ4xx+61bS+Db8er2Vd/dAOJh4c3SxXpvDXWpUT69x/cDxSy9j7Xi2cOPOz1EZ7Agft3sXK+lAh8JRw5tsvFGDJrBR/JkOHF0IW0zFHRlB2hn85bG0YWXX+NJai9oGVGbu/5jgNDoQEha5s0vD1/OlH3nxDWEhtXxCpGwBb91QZzt2TGN2q7cvqQwJFUyHXlYcjuLrel6kSPIQ/+7aV3hN+CGdWnqSptjVB9FP5PWd7GPAqYVQs3T8JhOsjDyay0lBDREE97dDvfmOV/dd9tgYusD8PEyV3g5F6urxsWxd6dfLFnd3dgR4r2vKOJzsx+ebIYLkGEfpw42OCQRfW7T3s6C+dDBPzyo8WvpPgGZey/4RSCewI1ObpEOoA0x9eKQYmQ0jRsGUJiM8FBmdGSoVEHXAeez1YRu1C51Zl65ITLZjpqb0z35YJqmkHswzUJ7F5bt+9/cLTUHp1zsI5agjmWD+yVIg04YTqwbtRkUzwKdvF66HajbtNzt5ZGmwFXzn1feYNI+jtOGD0aGQYjhE00qxTSWjj4GPzYqQTNi2mDx0RLwYR/Wt7Evhq0E0pkqU1lIR6xpyGsuazIHEzrGmvPQUPEIznFUWrgIdstHas9LdPPE/yCjdo8GE8n42njAEKRw95uhHp6BAa0/cPsQZa6SL3BJY6wKpOSvTG20q86HezpViiAU8yE2r+iiZjR4OTe3VrAfJU/7vda2EA6T3/CQ/8EYYlrl0fKlbb4d/JB0+5YpuALYy4QWc0w+LJHJvbQVSUvLteIUkcwbVwNaf5w+WwZeeVBOOkdiQ07lOZutcIlPDU3Mp1BgisPg7UWX4Dtebc95X6s7BWSihxM52CDYF83SZ23RjQpWmqt5cBfemFIRwSs2inldp5eKIaD6rnG5pXDkDZRxKNWUxDAr+5kf3pGNxcdBnSolajeQrnBj+1CWx/SBnuzmGCraphBTuzGZe7ighHhvrRat+eW8EMMr5QXmPNs52E8Kzg85N2k7BAkeFpfNoByfkBTjsJtWC53egKLZCMQxmjapZhnXBceqGv6HkpZjYa8W/V70TR2aOR7vdzoR5z32qXVmN+06RptnsR+N56It1qFY/ZczwLn45XgSmPfOqeoCTQz5i8SKDPQtDpMvuGYirc+iXw9wClEUkrKz9ihEjAvKek5Eb5/Z8aK4T/2UkETb2IKVmubhTWiuAUkR/AsUvkEzpzofAtXaTOUpuBK50Pyg+Y5YLpGb+W7YdrcOuqbtKIZQ6mG30N0BdvB7Pv6//Onu8D00PT7/V0aoHLb8V1w7YPpS3/2eX7gApAfZO3osOE8alfGkWvcqHnSedoQeEIijbsyvzhP4q7xH/+uEsoh+5KiRrmziZc41ppPKY7A38OiXoWFZGw6q/2suIDxbipss94g9YM+cf+2JoWNIM3yHf6J8e6IDQ1YGjDpBijexVleU8w8H7c68jtitmwa9Wr7OZsH4hudl5Xdv8HtsXrlv7UXMRhvZGiSHItBJY75PgZV6Aen9sEu34VEAQ8qwUdGbh+4MTDAgoVLCITlmozu8Ge12uPi3IOjOj5fx4PJqDZk51CGYdo8Ef+1U+nVusgMc/pmuiJfJQXejHOP1yE3hUf0i8P58GFQd08oR0T8DjZyPi9ST3ejs2+9adfC748LkwWfPJ7F58FfTniTUVHj5tS06IDWGxdrKNT04OdqODqHDgMrBOt4QmXO1EwNeH+0pITirO7PXaSHMR+Adf1N5L++MZ4n8vWiAZ8NJ8bPmOQgCIEopOIdgpy64ZVjq7GgRzfDjvL6SpcPG3DlkVsQC4soNxQzscTnUGP/yRW4hnzDy17lzth9+cVg0jrLLzCdlmlanQMRhnfkx1z6/GlfgufemAzqvkG+5kp9MHV4VKKA+EDcnj4DWYMF6Nl6IXrGeF1ePIr69jatUGws+YGd5dyVEs+9/oobxdcCDecOhPTA5fUfli6yTaBHmfurWreapRwc527aNcCazps9wbMRuB/UEsDBC0AAAAIAAAAIQDZ6NYW//////////8GABQAYjEubnB5AQAQAAABAAAAAAAAzAAAAAAAAACb7BfqGxDJyFDGUK2eklqcXKRupaBuk2airqOgnpZfVFKUmBefX5SSChJ3S8wpTgWKF2ckFqQC+RrGRjqaOgq1CuQDrt7LzXuvfK3eO3eN595lAZ27a+sX7ykxTbfJ+L5mz8nfprsWn5Tby17bs7e7daFtn8aPvRHRbLYym0/uWuudvqcju2XvkfV9ewL2H7SNPX7XWkKU1zYn9NiOUMZ6m0tSi22/tonb/jmkbhWyeqFNBLOprVWz+j5VVi5btd2/bOVr9PatDIy1AwBQSwMELQAAAAgAAAAhAAZ8Lj7//////////wYAFABXMi5ucHkBABAAgBAAAAAAAADDDwAAAAAAAJ2X9yMVjvfGRYUko7JnKYS3Fal3nCSphFJSZjKiJCEapDJS71BIRkZkz2vc7MPlWte4l4twzSQpGSkj4+P7L3zPb+f56fnhnNdzTrihicG5K5uYPJkeStvZu9u6SR+RkD7qoCEtLyHtcNvNw83Gxfq2m539/+knbZzd7Dd0d0cbV/uNXkZVRV5CWV1WXsJH4v9Z255ZpFXe/9QMc6HeGjz3soDc5Vq3tL0Gg1mPfQo5RgHaq22OPpsH8Hl39DT7zg5ItlXyDpbrhreR3vKP1Vrw18OUzRoJ4eC7xdhoW+sgHjDVN7nJF4Pf8vOSp4Tq8HnJDrLcKzpeq8oYHj9RAL6hBmtKV7tBVr30bOR8M4TWntFonXqD+41dTmnE0SF1SDQviI8G5/Ujmz8tD0F4zxJp9X4p3nlDuFFkRoPjpxS6ih70wtM7q45NiwMoeEo5by6pEfrVHl29v07Fo5nFQWMhNchV+KhXRCgO2E0NXwamfYQVfWsz7sBeyFgXdBypQ7AfuBVd8DIO2T+ujEl+SAJT0+Aj+radOGbIL6vu0oDVyotzl381AOeF5esfKK2Y8fSCzYe0AXitM/w2rzkfPtIj1ZnrOoHIZ36wmS0FswmfONOE+mF71139D9o5KJfhuua0nAU6OVrKfXe68Y9cgsjNZz2ommTxrNO9EPIkeLUllt6DB81sUVSkBgRjrUs/eNeDwdSDLTsN8kH/tNbkmSv9KCfqkibe8xEexJgctTQrRZXomOxbq83wgSU27h+PZlA8Vt506EUDxjy9qbQq1ovnRlufRCiUQx6jQIp3thNCb4hnhfv1gK0Kn+XJXSk4RM4KYDEuxdYgQy19bxL+Ry6WDzfpgJFZwVHXomRkCk15e2YXGQLjPbi3LN4AT6dXo9tL26FJYd1qs0MvlPNyG5e7hoB97KVzTS/yIPao0LODlFeYXezrp16Rh6oxTNeISEaO5Lomj5td+J6+aitT9hnHVc8GKd+Oh1b8PU8oycV3QrrEnRJNkLU5b4g3qRJT55j1/11kIOnqmhGhqREoKTyeb/hHofbic0HJdy1Yxer0fuZkMwyo9zlL1zVDvyJrg/4VGupx3bkaFtyGUVFiXQ0X68Ft4Yl7wbN6PDibp/K9pgf3v5EW19hJAD5umajHl4dhK/PxoawnffhWPn/VJ6UVBS1ytQMZ8XDjeQSrWGQtPhayTJ8orMYId2n56ce5KKZyVnbuSyZ8sJySqCiqxvPcpHaf7+XwvSq8sSGJAv7x+VedEqpxT5jwi8nrbTjJTi6ZSc+C5psdVlfaCgAnOcb5NcqgVfLhdguDNojdw7FvM1c6KJifUFFVHUFbY58bnjEduH7J66pFQztqii19yXragf5sNf92cjyC6da5S4vzBFiIIM1bHKGB8zuCxm1KKdxTqwoT9erE6Bt6NtvNeiDGqJVZ6msn8HBWffZlLQDVYvfuZ3p9wJWUuJ2F+hWazT7E9apXIWO+4dCYdjPapeh87o+ngbV4JbdnwAsUOPU1VkaGAnM8UkHOjZ1QLfxgfJpWg+UBGVKdyQ3AqmDINpbcDPyBz5vW1GtRZi4lgft8B6Qp+tvZdEyAh6tdpZkSFayl/jwSNaKjiBRZaeVHMQ7M8/EXT5RhjFxz3s83rWinU7Wcz9QClFtnCbwRDOjqsgypsk1G2WjHkJOWbbgi7XGdKFACEdPjT82JHVgeH2VWwNwHooM5+/7mJ4HFc8F/jMuTof9vtsL65wbUHn4bIyRcBkHCThXLn2nAtPn8UR/nLtBK+jSnN/0QfeapD9Omy0DXYU6Jxp0I37h0zTN+UFHdZDzo4gQJLWZ+hgr0jUBSSLDrKpGKW7oalTP5hyE3bOjE7+p6HOs5txBo0o3rI6bvZ1gI+FD31ablhOfwicewI2spF9cyQ9lauWogtNPDNmF6FO7yTLq0OFaBe+6sgtJUBnyPJvxNu1qF5rE5QusXSpFbQzVj7PcYdE5tAmpEAxiFPBkK0hyARjH/8lliPni+/9WwRb4atxXVfxrX8IXTwdkxu3KjkIkUITG+6xOE8MskEr3IcGrTnSQSyyBuZvy6YWDbgamGDDGJ5WJ8QZTRctFngN2mBd0M/zoc9cyijv7JAPB86KvmkgMTs/JV9ndaQNvv/VTmxhyZXfap5/SuRn3uYm5yZBs8EirYFkWsw0CP6vrX2hQYKii1c+ItwLMTRo43AyuxJda0/kRLNNhJzBlbzzbhl2ITN2b3cvgiud1bsHgYdA7HFv/MGsEDTLmaXpPZINtXzVFkPorIHLmPcrgMpnF7Q+bMMN6JyzD787sG1e5VaB0qLUCbkeFAnQk6alzimou5G41HnVTPlZnVgcZrOdv5mj7I01PiWz3cjTE0kWi3+V6Yunq8tXJHNd4y4P4tu8Hz0+E2bWtqFAhi8LlMCtSis3bpy2mVYtB1LjOg3q1H5Qs62aNhjRu5Nnfxn856cPd8d+5FHx1jrxofjGNQIerKbgXc1wZ7436tXUrqwLfblM5nj5Mw4ebPkRFCCarE3dxZTqBj7l4Yv2v6Cut3v62j+JIwKPHgbFdVIdLDMt5X02l4nc8rKyOThuvnVA/E3azEDs//tirtQKiWUZP+GkWGr9x1iuSKIayKJ5EHmd9t8ObI7inmYfB2IsSd/EmA4IFE25Oh3XhhLvm+waN6/Bq1cyH4BxEErQu/XHnWDKYkcwehuC7wkrsY8Nh1AIS2Utx2+pZBjZseoda8AdKvrnQ2N/cD92HuHjbJIUi2I3FwOTwEn/AFboPFQjCx/8HCcrQf2Ccs1OV2fATHoP5Cxt9ylBuZn2MrLwPS3VCDy/7ZaCvtamRv2wp5ycR250vVyHXksR+v/gjE3C53MxbNwdXGufuu/sfggsTKbKtUIeSyi9rXxdJxP0d+q9gMGZ4vvIqS66WBoFrPNtfIMVzYlCxlfYiANMFztzQsCaB/8Z5WR2EOJvqpzHwVJsGK4INTP01KcJseR7JHYi6OWyhWork7+NtbWUqu9oPpiDfnAHYgV5rgji9FDEh4JfF3v0Iz3rhjKBrZ3Qhh6j9XLh0mYWqrRbWfBQNzfVOL/DRC0KGTfCFFIQMzOVkfcL6mA4nMszVCKBeXD1CrG6V6IDLDXMb1LwXaKhW7X8m3QdFNIll/Uyd0DIrR3d1pwGmd5rDLpB+hd2vdmDQFJEUqiU2bPkGpEJtVtiwJ5aZ46TZVtaB4c5NFWWwvKIrPMDweN8PhtdmMcdM6FBE2xkOOH9CwSyxcsKEDgtSktzqFFWGS6MMmf/5m0K1xkifsaoeZXq/lsf5SOGQ7IX/FmQwnUmI0fZhSQe96vOfn7XVgFSxblvG1EAYac4pmboThofKJrkMz3aj5OmKP/+kkeLr1vWhEXDNcEzr364nURcwNO61eHVaFypZIup1eC1mPj4SWPerCYCZCqU3nMFaZYOl0QALck7pot9RLxGUd1vd2zV2oXJ3+2DZOFQZmo0aG5IqxYq7ST7mNAkcaTlsyeSRANjfptJxaA2zek877obER/qtzqZJ1KIYY3kT77rg6GOiSMkrqLMSFxaaz343KcVj/XN7ewRL4tuzrYfk9GvgXf/QZ9k6B7NR53pDeWrA8qp5pfqsR+xPk6ZEHaajh+1HvvXgP7kp9u9LA0wPa8nFCpXvISHp/c8JOsAkyBXRdvpzpgE8v3vj4CzdhyiH1y/L9ZSBe2vilSaMVtin+ONlUzsBrhJwrC341UJ68qGquTIddf4YPFgi5wVGvWM97dxpRfpZGtD5cjvhuX66czWcM7bzwRX6tEeNJ4/dvWFXDZnYnllTeLoxiWTruZ5GGLH79SQPUJtiSxlgUsXbAO5IHRiCeAsUhzLm/WDvx2JHopFcCROSbRr0Ath54Oq0+K0CgomPH6XOjmZF4/Wx48uuvUxCXMvYofWctNIw9OTp6OwEUziL3r7hefFwUR9I8UY29jefF6rs+YkvVhB1GdqKz52WTXwIUnCy08f1HqRyECbN69l4bHLsho7OUSIArqWHqNO8+lKXyl1yWpSPhxbnDAo69kCvCKrWEjfBL2OJ0kEodDF4T7KsUroN/DMlnJcnlaLTrzIfYrVRw2KQo+d/FMpxRXEqIWK6HxbwrYl6HivABz4/7Nty14C7YHlVDokFSTF5sYAAJdFUfFRAe0fH2ydVF21MULNbcd1ersR22+XoFronnoJdZNKt2TzyuGGga/xXJRjc/d/EELSrYseSlCeYmw4zcUmIJkyeET0pl/LuFhndzE/6Qk7PAXtHC9e2JClx1E75epNINRhca/oqeCoc1rxqeudckdPG1XHJU+4EClelPGJpVaK375evqoxSQejvTWcnZhSbtnJ+VfelwgmXco91y4x5+eKBzcp6K9Mz9hpmaNBz6KMNCDO1AdtFQe1JOJlQGaB4zKGlHNo651QqrPLynGaLX1o7YYsgNgwQStnqntieMj6DC/RuURuNaQI1r+5S0C2FCfGAH9VoPUNkN7BYc2/FbHedy8bU6iHZMZwidtIJvmkzeL8Xp0MFoz0+HBpjRZTTtvUcHvt/JPmzLheB7zEVbhBqF8pzEVTViPUSGbXn7wHIIgpfHs4r3GOP+g6plv1NT8fM8e62NABFm6r2Kq4wRzSLlzxwzakd2DtdSj5he5DncE1TLVo0Lv+MEm1ZK8IDnKeNNhWTgF8wZ+L3xRwhfr+Dxc25AtjuK5c4TVBTnalOeMOpDXvExESXWeEgbNgudMSxAO59FrWvfW2GybHiiySkRpHdarJfbVEDVut+pGY4urNKh1PaL0CCbeUfLqnYJ+AoFsHgfLIWfgj8Sigej8U3M8GF3q2IQSpZrEav2g4uuBbTxxGjkj79cr31wI6eSVVssBypxpvK0hX9wFgz1uxLZchELs/8kJ2sVQ9n5BqtsvY84/8bsmI1YNuh8G5/SXI0FRUuXccYOKhJfFM0TWcegMk7lpdu1HNzCnL71TWwquMUpBUtfqoXvZA6TDodO7M52uKVd8RFk2wtXA+g1+K/VRiiyNuGc8C76QatKZDxl3eu/+h2CAzbf5dhdD8XK7h8vZFPw5BfteK2v6Rj3bX2QxYsCLcIrxOdmdHCfJUmFFJQB4d6Ry6P3k/Ew4/kWUng1XAlivx+WusF908RucgAVdzf+azEk2gtGQeuZHX+oqPPXi8YWVwSK+6///Md/CJ4pGkWvibVDcBGXn8PGnt4OGVab20wCb/njfLs5aBjlFrZXsrcd30uNBvN7UAEoTarUW+1AibZLfnq7DcwmdSXbTm/4fvmZW/IZHRSijX/uruiDuSM/lutFw8D8uIULv2kTVPpXkyZrBsGu8AnPNgeElheMok6JfBTwva2V+x8N891dDc1SMmHvNG/4oHkj7G9KWw/06Yb/AVBLAwQtAAAACAAAACEAkmku8f//////////BgAUAGIyLm5weQEAEADAAAAAAAAAAIkAAAAAAAAAm+wX6hsQychQxlCtnpJanFykbqWgbpNmoq6joJ6WX1RSlJgXn1+UkgoSd0vMKU4FihdnJBakAvkahmY6mjoKtQrkA67Q+dL7jNU/2HgdmbQ3Y4PBboZvKnb72WT3Xtg3wy7xv5R1yO2yPdXHV+x99l9gb+e24r0RswJthJ49t70v0Lev5d7F3QBQSwMELQAAAAgAAAAhALKCAuv//////////wYAFABXMy5ucHkBABAAAAEAAAAAAADQAAAAAAAAAJvsF+obEMnIUMZQrZ6SWpxcpG6loG6TZqGuo6Cell9UUpSYF59flJIKEndLzClOBYoXZyQWpAL5GoZmOgqGmjoKtQrkAq7YfS5yTX8f2/doPNpx6/LZ/Q2vPx11PHLNXj0+ads288P7fW/47ubn/bR//Z+ft546nra/WrDJvLLz7X6PG60ut7/v2l9w63+VkcXm/ewsZ3pz91+3Zwtas0t77jb76MNdDTzLTtkH+4aWBjtd2B8yIXpva+zl/ed8l3DtaX1rv+mIx/Kdfvf3AwBQSwMELQAAAAgAAAAhALltxnH//////////wYAFABiMy5ucHkBABAAhAAAAAAAAABJAAAAAAAAAJvsF+obEMnIUMZQrZ6SWpxcpG6loG6TZqKuo6Cell9UUpSYF59flJIKEndLzClOBYoXZyQWpAL5GoY6mjoKtQoUAC6tSbP3AQBQSwMELQAAAAgAAAAhAJTv/iX//////////wgAFABtZWFuLm5weQEAEAC8AAAAAAAAAIMAAAAAAAAAm+wX6hsQychQxlCtnpJanFykbqWgbpNmoq6joJ6WX1RSlJgXn1+UkgoSd0vMKU4FihdnJBakAvkahqY6mjoKtQrkAy4XZXUXIb8pjkcm3nXw0D/p4sOv6RQ5s8Ix7kax86c/Lx1iNkU5a/vOczRJtnNKXFJsl6G6xO6ff4FdbVeHHQBQSwMELQAAAAgAAAAhAI2zq/P//////////wcAFABzdGQubnB5AQAQALwAAAAAAAAAhAAAAAAAAACb7BfqGxDJyFDGUK2eklqcXKRupaBuk2airqOgnpZfVFKUmBefX5SSChJ3S8wpTgWKF2ckFqQC+RqGpjqaOgq1CuQDrj3fT7hYfFnlqHjiv0PiRH3XkNUPHBeuVHAM/dbt7DaRz1Eh7Yiz4hMGp9kb4py8T7fb/VnaYxe1q8OuZmWoHQBQSwECLQAtAAAACAAAACEAENGYEc4OAACADwAABgAAAAAAAAAAAAAAgAEAAAAAVzEubnB5UEsBAi0ALQAAAAgAAAAhANno1hbMAAAAAAEAAAYAAAAAAAAAAAAAAIABBg8AAGIxLm5weVBLAQItAC0AAAAIAAAAIQAGfC4+ww8AAIAQAAAGAAAAAAAAAAAAAACAAQoQAABXMi5ucHlQSwECLQAtAAAACAAAACEAkmku8YkAAADAAAAABgAAAAAAAAAAAAAAgAEFIAAAYjIubnB5UEsBAi0ALQAAAAgAAAAhALKCAuvQAAAAAAEAAAYAAAAAAAAAAAAAAIABxiAAAFczLm5weVBLAQItAC0AAAAIAAAAIQC5bcZxSQAAAIQAAAAGAAAAAAAAAAAAAACAAc4hAABiMy5ucHlQSwECLQAtAAAACAAAACEAlO/+JYMAAAC8AAAACAAAAAAAAAAAAAAAgAFPIgAAbWVhbi5ucHlQSwECLQAtAAAACAAAACEAjbOr84QAAAC8AAAABwAAAAAAAAAAAAAAgAEMIwAAc3RkLm5weVBLBQYAAAAACAAIAKMBAADJIwAAAAA="

_VALUE_MODEL = None


def _load_value_model():
    global _VALUE_MODEL
    if _VALUE_MODEL is not None:
        return _VALUE_MODEL
    if not _HAS_NUMPY:
        return None
    try:
        raw = base64.b64decode(_WEIGHTS_B64)
        buf = io.BytesIO(raw)
        data = np.load(buf)
        _VALUE_MODEL = {k: data[k] for k in ['W1','b1','W2','b2','W3','b3','mean','std']}
        return _VALUE_MODEL
    except Exception:
        return None


def _evaluate_position(world):
    """Predict win probability [0,1] from current board state."""
    model = _load_value_model()
    if model is None:
        return 0.5
    try:
        player = world.player
        my_ships = my_prod = my_count = 0
        enemy_ships = enemy_prod = enemy_count = 0
        neutral_ships = neutral_count = 0
        nearest_enemy = 999.0
        total_prod = 0
        my_pos, enemy_pos = [], []
        for p in world.planets:
            total_prod += p.production
            if p.owner == player:
                my_ships += p.ships; my_prod += p.production; my_count += 1
                my_pos.append((p.x, p.y))
            elif p.owner == -1:
                neutral_ships += p.ships; neutral_count += 1
            else:
                enemy_ships += p.ships; enemy_prod += p.production; enemy_count += 1
                enemy_pos.append((p.x, p.y))
        if my_pos and enemy_pos:
            for mx, my_ in my_pos:
                for ex, ey in enemy_pos:
                    d = _dist(mx, my_, ex, ey)
                    if d < nearest_enemy:
                        nearest_enemy = d
        my_fships = enemy_fships = my_fcount = enemy_fcount = 0
        for f in world.fleets:
            if f.owner == player:
                my_fships += f.ships; my_fcount += 1
            elif f.owner >= 0:
                enemy_fships += f.ships; enemy_fcount += 1
        total_my = my_ships + my_fships
        total_enemy = enemy_ships + enemy_fships
        features = np.array([[total_my, my_prod, my_count, total_enemy, enemy_prod,
                              enemy_count, neutral_ships, neutral_count, nearest_enemy,
                              my_fcount, enemy_fcount,
                              my_prod / max(1, total_prod),
                              total_my / max(1, total_my + total_enemy),
                              my_count / max(1, my_count + enemy_count + neutral_count),
                              world.step / 500.0]], dtype=np.float32)
        features = (features - model['mean']) / (model['std'] + 1e-8)
        z1 = features @ model['W1'] + model['b1']
        a1 = np.maximum(0, z1)
        z2 = a1 @ model['W2'] + model['b2']
        a2 = np.maximum(0, z2)
        z3 = a2 @ model['W3'] + model['b3']
        return float(1.0 / (1.0 + np.exp(-np.clip(z3, -20, 20)))[0, 0])
    except Exception:
        return 0.5




# ============================================================
# POLICY MODEL (trained on 200 self-play games, 75.6% target acc)
# ============================================================

_POLICY_B64 = "UEsDBC0AAAAIAAAAIQCiL5Ch//////////8JABQAdHNfVzEubnB5AQAQAIAnAAAAAAAAbCQAAAAAAACdmPk3l9/Xh0ORRgklRDJnKpLhPvstUWSOBqJBSKUi0oAMmYcyT5mnyFAhhfvsd6U0qBSVoRIKpSjpozlP33/hOb/tvdb54ay11/Xa10m22mxp48AzzW+av6Krm8+eI4r6MoqMu7aiqoyi++Ejvkd2H9p5+Iir2//663d7+rj96/t47PZy+1craempyuhoK6vKBMr8P88sX78kOmxhgQ0XekH8rAztWFEKSobz2WUfu/D6nUnStkEbVh7LZPOO9GOU6F062b4HtH05pH/dfCg654OlmYbg7tpJQqMXcdyLTGEkvIEmBfIQYcdusq/CDDs2WeGBtAyakiFKVkgHg8eFdWyw+jrG3bkF5Wr68OCSu/QO3x4kbg5QNtHO1O+IxKcRF4Fn/jH4sf0RHF1dA/OrlMBCwJlsmLMJzznXwYpXqSS9/haYKplC3qgombZ6BzukWw3v7fPof+sfQ+IDASg4Y4lzMh5Rd4kzGCojAsVNg+yRNmN9nWZJTuX7XnDI+QBq72Jh190GKLxtD3I9e+DRj2gmXFcLMixqyJiGNjE8eRJFPX+Rj65z8MdlJ3JofwxO+vHigxdR6JX2DvKvNmBJbgX4m64EB79xur5eBKvl0yAz/gI6XK01UM+4RZ4qdUJRylNMc/bBNQccCNf0OzknZwhne6KJ57Aret/Kgu5pvdRU2JAcbXxJN0j9Jo/GHeFQuQFaRG7Br6rbcZaoHz2rHUXax8TAx0AH8h+cgqQDPWTRZBcND1VAx8VP0H78DBCajptOPiCBWYk0NfoVVRsWZM7vcqbVX5ZzsLwJWl/dwpDwNIjL2Un2XQhhomy/U52GcyBen8DI8YjCm0s3yLBiGN36LYLetkiCrInjUJkRB7Zpn+nfNQVIPFwhNjuHVttshvFfq6kbPQFxnw+QW1YTVDholPBJPYW7DjqokHuOdMaqwT7ebBi2VMaZ3zjY1vSedtecQRK3jc3akEHavXLx6xwvzFPQIr+H3lBzN2Q/anzBFenfaYvFJ7L4di7Uyt6k3P2f6C7H1TjZVU5ezNkKIjfmQ2ffZrD8HgHv+SUx1ikJG+bYYf37O0QzbSe8c/hIBJ410GePzOi3/W6QJfOTvj7yjH71ViSh9xl09/wMeXpxMMbXzATN4ZKvYUZwz2YGDPA/btK62UEktAeIZ4gLlRPW0P+zdwtaz/5AfvkpE377UHyULUifD1/AyLLTKOcfCp1pz5nrjrUYXtSDzrlpgIlX6R1eO5jb3A3uSyL076wG6itrBgXBDK5TuUmOPneFuTs6aFrJO2b5XBf8dfAk/bFwL2x2YJnD/qeJhrAIJ3yrHLj8qMZgawucdyMJhrok2aQAKVxv3wyCtfMoz4oh7KiZzrkwfAj4phuwXj+E8M+0/XgSSsnD44VUZoM05ig9JLyYg7vsZaB07RQZn7pJO/m+wxuTVQagUUWF/GopR3oRWOXZcT/aElgkAyR9qzZ1PeoJx4rmN8UeyMQnqR+ptGkZI9NwGrXDA4ivqzza3NYE5+ErtMbWH6rtDfS71fvY7fQ2CbF8QAxMUolusAIV9Zgk5Ua9dGDxOxLA74V9OoZY6tjK1E63JGLPtPDT7hK0M5KnbZeEwGbnFLWdGiF1E3JcQSMB2Ci/CqM0I/B4vhlNeRIOqXftsL+hgHbYVuL0Nb8xM/MPNVvmi4V/lgK5idTi7HWsmVtHJo/o46M3NTDR+ATXtZrAK7EPBhlIqdDiRiidV4Df2ErsXOYJh8xuk8HBcMjZcwA3u7bQFYMBeK4rmuqfK4ZPcU70oGlxY02qKhFMFACNgyE4uNyd2i5bgaKv4nD59MfE55c7Wu9aSd7FCSFM206KBMSocGQERC68gOfFlIm+UTSUzHpJmve405megRD2eCM+TBTB8ZBSUM/mx/rTCUxnPDB3xjyw9IcWPtUSb2q6V0Ho3zOo+OsB+SY9gA2njJjTE570v9/e+PpaHVj35sDkwT3s13ZDcvKHN+nZl0pMWiphQjQCFR1KqJlra+O6uwdxi7QphFpqAufEaaLGXc64+iVhyRYBLDGKxdbgzXj48V74JcUDc1y0wKUiC1aEqsBykTRQhFLw/+uH/L0ctNONJP7KXtg4UIKOh0PAj28fmcNIwaO4IurTeJAaCOxHzZfLQfLVPNjjHEaH4hahQdlTyNPix2Z6BfYHGGLkquOY9n0L5R9uQd2Nc+FWvg9quhvizE1faN1TVUzL2U3IxA7QdgiCHYsfkV5ONJEQ44XdzQxua9kE6exMbK1qheUTCrDEfA9jb5oIvqrz8W+mEFqEH2NezDgJR3cXwWunFbDhQAr9eGoG6D/4zBa38XBMB3NA8Mh/dOfzSihWyMVig+0w9WUpHvUUBn/ZK9i2xgxfCyThiF0a5FEtskiphZXufo2K6zfiVaVbpGlACrNzitgtyhIkzVqUUIE4OKTPZWQSRkiHZhmrZUTpqa2z9L4ZnkftJdfZZmstiD5uhB2ta0GVhGDjRYAahZmoM+UDl2xVoO3MNyyTuIF6V2fhc+8BEsqdhbFsp8GbFlsq3b2VaL20IuVNg+RwZZZ+15sluO/VcTxf7UHgWh5GVG5Fg0QTwsY7wpPIJGIvO4rZ+dGU4+pATobORP9MKQwUraPF8sKQZHQOzttNER+DWdjgtgUvxrhByAI3aiwZR7kJPJy7vRWk4WgQcrpD2Lc/avDMqygmUfIJji0cwlIzYcz22EmbfKdRrvpcTl37fGxd9Va/LlAYFc6oofxfXnbQ5ijtfroZvWsEOGc7xGFsX2OTznFLKHseTHvaLtC7txaiSJUgsvc48PK7LLxKW894apWSvUIieGKfK4xGC3DPzguhzO5kospZBilsESzKyoZXfdEYyE6CZFV7U/bQTubOOTF2vV46BK7dRequlcPI4mv0umEDq+cVBoc8qzHnixBXbfcqsDVRZH19+qB+azAYHXtE1KqkMaNwEVd+nRrzY0YufI85DZKxM1jrnc/IcSaZThMbZdwGWTZMyoLYFOahTMhVMvXtCBkuXY/CnOXwSGIaBgz4gedCK2pUvgR0A9fgzc6v5GrgJlyUPoqNcpqwJuocxBZzoZ1HEPteFEBGvwpqH1dBnu/VVPKUKo6CLzNhUA7qI3/Ry+oFrV8agLKxWvg3NpUeLjaAR+da8KOdBaSfXEXNmvugpFaCbEw5D76192hr4HPyWCUCBS1XU+G2fHAweaknoJmOGfu9UcGtgf7YE0nTfwtxYhJ6aU46g4P7HXHU8ggStS1ku5wPhHFNMf0Kh2Z26OOZw8u4Gd+yIT/4L+XIvgKpvW9RgHyjk/XjKGd7Bk9IBuJESTGOi6xmL8YVYZPzDCj0HkW+iEA8YzgDelTW4ge1U0yW7UnU/7EZXdapI//TeEwr+Iyzjwhx6jSeUBk1lj1beR/E9GdDxt4MqlNyFltuEywLqWb5buxAcZ40/G1SCfMWlNKxEFnafVQc1JIfUZsjQyQeKqDxPCUxak7kE9eEYd+fwj233lDDwFkwpbMAV9bPhQs/laAsaRbXSWcN+pv1Qla3IA4p1dOYZxVk8I0bjH65D6FKSfCf41GMFziLTjyHqGRSHCjwBGOjezMcfzwdSb4q5IwXwxW7WrrUvYVMPK6AMQ9+IjZ0FhoODep1L9nLvFn6nip7/6a5eyNQwjOWDu4RRs0rPjDWNgInHJZhqdQLJnwkAwI2TuMcPL4BTNdrYqphOYhaKmFybhLVlbkLHbkv6cyqCOB2aEPV01q6WU4cDjnIYrE2hbHHKrDq6ALMLj1O1Kc/xxOZPfSHShJwDlxm3awLofd0GS0+xItG5DBxkRaFP8tCcH9fNGTaTlDjzhdgJXnX4L8bV/GE0hU8tcsKt1fFwpy23ag0rYl+PWRMly7aSePvfoG5Qrq4Ek7gLuMPsHz9RRJdsIA7GlGNAwWX6HCsC9H7q4Kl24Wojbo2pFrYgMlBEVToyEeRE+348HAbbjtVBheDVkCKSRT+kk3GS52Z2LxtI2zm58XXugVklY05OosdYq0XiKDX0znwci1imYw85c46QLu6lsIuVp5JV48Bbv80js7Kk5g65Yj3E4oguISSnJ+1GMg7j2ZtsqFvf3WSt+Jn0FZ3IYQ8X0h2VsTg20tniJhLEXjtiKAvP1gjV1+OK/pXCXgX5GFOUzWErj7BRr+KRYO5+4hLMT/YjrigIn8zsz2sihEQDqG2F7vwb2s4UYQVeM+6EINSMnFg/x2o9kqH2NsbMY1w8eJyK1jlPcgKGiWwSUuz4cOL3bCyuB7nllqiq/MiTFbLIsTjC161esl+vmFJBmxCycY9ObTrR6UB7RVBgR1/2NwvOVC48Dp1qEjHF5nuKD2xjDwxFMPvur/p0TANFK17waT+lwlnw14Tj68hNNBcHoTvteCUMR/IiSihpc8Og7l5kcRsopnuM3zCaBeEou1DHxJwSpP+2BwPlaWaqP1rH+wcT8Oj+9VAzFi26VlTM0j6f4VPK3sxfoUzGPyMooP77zCCJa+arm8ooH5u+lAZyqDv+zFUrHLDQJfpaLweiFT7YpLt/AsB14F9mDDUaV7EoaNv8NH8Ftinco9eD4hsytGay5WMioFjWqtBeuF5curXcWw43UW/KxWhdWManKt/SguFDUBdWBn+HEinzvEu1PKYO6iIL8KHt7l4yTsZzKyyab0CYEevPK5o+Yi+KbW4c8dSlF/2lGxtyoIbgQlk2ff5WNzxm10xPAW0i4ClZAwNvCEMX6yC0e95DLZ16IOZ+WXaUOVKNNYK4oXWeLi0poF0fp6JZ3Sek9EVfujN/qLNM5cwj13k8Ve/JF7U2kJix0vofiF/nL9RAUnfABiM3cSVhQp4uKYGA+SncT3aOuBWiibw7jJmtipy6GRnNFr5noZA82EmyC4ZDC59I/PDPMA8xBW/Nk4Q+VveZODf/hFmeQmvRjmw/ncfwoxdATi0swI5z1bTjIqn5AO1IH3Kwrj5Qwzd+qcNYokxZGTno4fVLNZgLIfRp1EgcAkg6JkRtlx5jRonN0JF/1Zmm0MtSfP+Rh45HIX3R2dg6pIsuiP5fJNx0GwaVqQLZ3pE8LldAxn1vkclS0uAKLXQj5LLaLzWInzvlksz7n6km45o0/8mS1H84H26KUaQ2G7gwdCCj0xs9BjpvmUJH/pWXUu6qgF7S7TgtPlmFNOYop6PS/DN4eloc/0azq61wcOzeXGDbAU5dcibxgZNI/I7qzGp1g5rZ+6DtCffSGncTcYpIrRp7dZj9JZEBf4OmU+fRtSza9IQZl+7icWtCvggVh6X/tVC69ZJ2HXxIP5xDKTla/xglvMQeXPsBNTZB1B7UyOQE/Sij0MXE36e45h12uof29bhsOQEWftbC/pXaoHVgsUQ8HYOFGgcQ0sxbyB/zpEBi246EnuUXkgphp+9KfjtqTSmTEXCbTkh6DKOwd2G6ZB1zYqjbpZJPGJWQ9u4FW7izgL/A8H4eHkTGz2gj8+Mp3PvnFbhTucqQPIhSVh0cZRcf+UEvmXLqP1vIzIc/djA3SURWW2Ff/eGQfjvabqj0o7lPBwibRW2cNPMCUaWjuPsYTm6IjwD9WSyMT5vAgaO5lKXTBl6TzuX9H0ohacvZkK5zCo4EfKIHZ82avD2nSP47C2ih7MymM1cfiib9GTmaXiQbw9XgmPcR7LQSo3t2i6PVkW10NpqButHc/FCbyjc1xGmb/ylQUFIDy/q2UNZYxyMeAfh9gUqsKV9DRuUySFnP4TSqSgXsuHMTjKlsRk/CAii5YQ4PRY+QQxyGqhmmjU++VBGGipqyPqHhUSv2Y3WWe4h5X53mFr7xWij+J4YxYVhusZcVgAWgS2fFdeREiJ6ZwG84FcGrdPv/wE9hgmlT+Ft72Z4XZlHTpjI4tnBeKgqKqIZW9+jU9xa1uu3CdzoPQRldsuYuT8rsNihgqp2RGCytiPWnxwkXeqtZKbKWvLb7CDa1ujhs5Z/7twzH5IWXKFnOz7RjdMbm4ytX5BdD+pA+rQKStWcBKW+AJo+5QaiVxXYxrW1bLCuIfIddsfneQvIhuuuUG94H18knMarP9XRUH09OxlD6My/lzAldS85PqcB9Z2mSL+zGeG074U5HXPhy8EFeMw9Ei+tW8y5cOcNijzIxov/bQHBy4sg3jgSzDOyKTRO0csba0BF8wMRPhhJdoW8JjOWrIIU+UdUsP8ayV1fRJg5PGhfE4k3y0bprtFqEBh1IW5OxVSps5k6D6xFy8SjTI2NA63fe4NxevqNuq9soMp1z6Ap6ScK5PJzHnw4hOL2HUTHNxGsBB+Q0P0TrHqtPPRvjyHGw/Pg9R7EBzp5tHBLLf3RFg4udpdx3PUScfy42uD4jvP4ZpUUCOZ6Ye+D5VgX8+Uf6/Pp43VXyK01USSuLJ/d1vSTNMw5x1QEy8GJgWq8r+4Pl1OX4N23M+lg69l/Pj+bq3lOm9o4hNFMl1Lyn0cUERTZg7sFhUiC6ToanJqCIjukiExCKwis0qAjNflgrKMEyVG/9S+bMBDCG0sMnlB4J1WEq/LekgtBpeD7dyaGqQZjR0EqtM8NxOH5O4lz7zRIT4ghRESOY3l7Lj6Ub8bWJ4Ogr3wByCthGHNYhXK9y6m43zuyd+l94DEZIrkvVuIjp2TUStPHjUFu5PbiYXg5ZA+8psNgXcJPVOM/MWN8+XhN+CJbID6Cmts0mfMbYkmpnBgsjbTAu2N90JHdiA3dMfhTP474rk5Aj5836PYcOzhX0gdr/MyhVEGSzExfDH05vHjrRwUeDI6GGv0btKWtis2/X0f/Rm8lL/N/kO1GNvAcEmiXhystsPhG5DfeJLHzLiP34i16Qv8CcybOHwtnCWNuiyM8M1DE235+uPS9MDqnTEMV9yKqBTYkpbgMTu2Lpd36/rhF9ixs92uhAg+SyJUgBhr3SYCmVxXMC41hkrKGSM3DNvo7KoJmnC3F+QGqsEJ3kj13roGcClKlPSOKuDFOmKzV06T3/PXRmN8Pdhy7TDt588laP1EQUOxAn492yLvjE/mtW0clbNzASNobg9+rw0hjLLXzXgAufWFUpticXo3KpsUcR7pmaQ4m9D8mYO4FUxnfSSlRhd38b+Cy/UuqIbgLF96sQifTW6z/IVUs9DOAbdDNZvGtgbzFN5vEDoui8tXjpDRGFCJfnSHzhqYYSHck/Sf1WU/DQ0yXtRC893uFpWLpMIP8R6J6kpHpV8Seg4FoMaBEZr+uIis2GrA7ylhalr4W5mr6QuSfdjrCFtLafZmwsXYaN0TpJKnNOEWcNJQ5NYMJBt5L5Mnvng+k4EoMhm6rxxWzb5I6T1mUXz4DWAFFsHkzSCrHeaiSZyL6vCwFPzUpamGdTxuM35Mt189A/t8PBpoX8klv1DJ4ufgaMUpIA9/d+aRIVQozonk4CU/0oFTledN0BRPaVcJS2er5sFt9PY76xzE5J2PZkn1VmKRxEWbaa6LiHAWu1VtBrsKlEHJR5CGxWfscG2g26s1/iJtjfEmcPS+GeCUh581JMvbak96y7sLyM8q01aXbwJPwG6xI1IXdpU+IjrYKOohXIpfPB0++5EH3WBl6TDgSn3lkM6LMPKR2KkS9KRleB3ZTUHKHbq8gPP/7CVFcuwOc7JCszTsPhXadBh2r94OXjj7W2Xriy4/DRDGVMjWGe/CLoQ69KRRDZ8V30UzfB2xwqgYaXp8OA5nF5J2CNbwMyoI11d+Y57SBrjO7TDa0d1HflYuxNdCYmna9IXoH5OjE9eNUxoRAeO8CDNyxAIdP54MuKoKC7zMSJaaNwRFuYGFXSXYuXI7VK3TInShl/LI83qBh+DhudIjEX5YtJOVzEiyRiIDPPVcb2tfLgZTFQs7HPAH6+Wc/6W3qozlZz+njqh5iSZyQ320Bx+mjOgoW27A2cqkQ1jHctFLsHfZ9K8VdR8LBxqwbqGkV/VbriHbCyxnRy6mouG0VDb2+ATuMtenviQf4McgKxm5+RanPQ+RTvhZXOLQA7y97xAbulEbdY7GQeGsnbfKSod+OVjB7a9eQNq8Iyj5upiM/37EYR+Ht0CJavGcnzBe+TAUylmOCzAgrkV5BnnRmksx/LLxypQ06axMhrjycjvK8Yj6xbcz4gqP4KXkP1D9ZQfZI3PnnCDLQJauPp57WkYWyvCgcaIIy+k+ZydcfqeqAL8h+XIhDE/HwZF4QPjy5FhvNs5nY4kD84ZEL+abLsLbrBqyePp9b33CYSLdWEWvRrzQ8ioOihfKwahcllYHJMO/bdCz8PA3Lo9IxcZkfdU+Uw3PRuYyo2wnaw/cZVja+hJgClpkz2c/ulheBA205eCJGgNt+zpEca0yCu9F/2THBARKySY+p9Jyk7dnJVCJKEpZX8GJPsQL+S0g0fdCJm9V5OKX3r9E/YeH41fU+O0NkF/VUkIZBAXfMcyPklsUk5P1JIxP5i7iqsAREEy+RlmNO9EusJB4yPYvP/lsJV/KbyO3//S8kquCGi9OIpME6NGsbJIc3jlCZDHV4r+kIXtOyYcu6l02HvI6AncFNfFcQ3WgkJgSWMYib+u6QsBvp9JfEbNzqlgg25Y3AF92AVcx5+NhpQB1fCeKTlm+gWxWHGnFJpC1pE1zh5YBc6yOy9ZsAWhQuQb3xXmqxfQSeRWvjWckAOPjRF+J1j6GgfSQ9dieZSPfoYsEJRaBni+iJ5z/pK+fvdDw+hVqVHcdPc45Rn9y9bE2nGz187gz83XiLdC9TQ5GgYtr7VhpMCyORLi+AK/N/k/cH6om7/symeed/kfyuKGp8Wh6DpN4QTtsLED2rTj1muDDWsjep2vI2cjnlKXw29EXVKsQ2ySX4QlEKxVEW8/0ovJcU5I6J+0FFeh3s2tOMb2EGqBfZQOCYImo3nQeBx4WAGA7JorpMn6YZTqueS1/GzcKfUVUQ/aQAzSXyybbpwdgfIItP6gNQxDACzabXwgQeoUOjnVi+8S7aXbCmeov1oE/iNh1eoQqu4r5wwNsfixyeMd5xwaTAJReCG9MhyOyfG30coGla6fi2w5XcfqCPOdIi1ClWj34JkiMrr9Zg4Zvz+E7zPpzyeAihqvvoF4N8kio0QNepzsYZ2p0kVq2Sns1vY+dMNZEdfNWQXLAZfj9WwPWkkLZ3IZ6NY0B6+ijxT7BAN4kgtsIhEZueXYGLek5Mn3gpjX/Jj8H3DlO15q84+/g+4veiX39bpT5WqApjsuJsrFsuSstF9tAw96Wg+CIC2m/XsBLx08DPVZm+GE8mS369hVnmX9kRmXQM768k+geV6IaXUsi9oIN/uwppsfN+6M9bAYetVlO7z/eJ7JEmNomvhv6nOI3rNX4V//NBMtd2gHgXvIO+x/3QHjaXmz78DEteRDDz+g/i8aVIttgqsDUD42SB9XeUCq0jZJcE+/lpHqWjrmz4/HYykm7fZDjmjZ/NPdjJwZmQG/6cJglrwJ8yQVwQfYv9Fl0O1/RiaRRHA5exfDhbLRQmbm+n9p8S//GVD24Ue9Nq2WDCvvuBv08o41pHKbLe+kmTPMtSyZCdxKXyML5bEoXOxsvg6/k0LPwhATPGysHb+xGt/rMA2XXyKGHGwN2iYpIZFAvR27Qht+MmW+vbxt7dVA9NZBUuZHaSN/OboG/+YuKyNgHqF9aRkcj11LAfcM3JVXBG2gVN75/FzrXnyebPOfjN9BPcCpigAxZ/mA+DV2hK5Wa8oqUHPgKJ5MOmL8Qlpxcs3TrZhWmn4Vp7ACoKF+K15m54qVWMydzXYH5qD/4qqEYVEUWUv7iQCAg8otZ/emHWPFMUU/9A7N7ehOrtgqA3Eog+gleou/osCJ4rxumUysQJwo8VgvkGdkPhKK8Tj+cOaQDv/dcoJiLOEY2Lp0KBZVi0WYHNrqkjCv0RUG0ehxmngWTkPiY3nHXo19txWOUuRd+1VjUdm/SiD/AIrpD5QIxmJVC3D96w9m0opMZcoXKin5hJvbdsr5A4R27lVry29yI1XZiDBgcSyOuJi7jXczaoS9gjUQmixe+u4iaDZeRNqBSRT33JvBjdgrwZ0mSo34EIiccxPGHx+HnuQhSLn82YXZrJ2vVpkDGJJDIUZU4CzfeBytT+puqWBNbcRBC9LoexVjFykN85DZrilMmVaxK0bHMzNt6JMQgbc6Sr/nxmLns+xX6PCtbztD5sGJwHJ2fN1M+WU4Rt6+uJ2oEDUBdwADkfvhOdtKvkmGYHeTgSDjmXlsC7FnNc11aBf56o4H/KcnREfDqKrs4CCT432rN4K8iljxLbizIgPzodo8r/UsuNKeRoURtcOhoJD3kfokHgBfr5uyicf1IM8zoOwt/1gXhMdAeezhSgGjiDY75XEec8PYBl4+M0oZaBwV//8iAkEnk9Ypi8Zwlg1L2LTicGoPqbF+epNWP1aB/q9LTTxUJZROb1DSzePx2Ndgrjswt99F+0wuQhXmi6fZfIoxReKosHg038rElYE0T/e4P1sbl0/FUqDSC34ap5D87MNCYKb10Nlk5N0JUBEqhqfhIn8x/inJSfRJznKoma+me1W6JwA58C5kpsxIgaD7rOKhJEDy+AfulR9rdmIFXLqQdO6i3Sv7ALLVO+ssEBP6jQNGvca69HWh8bQtrnFLLrlCW+V3CBxz9U4KLYFfrDmLDdPntxtgEftVG9BKuKg/DLWxvcFqOCb81coSqyB/kd9NiJY6H0+Ico4JOOg7KbL6Be4Cejl59Pm9uPQnl0HrRsCKd+ErdIzqxW+qdtKZbxniURDrIw6vyaBrTsxggMQR+3HZQq64DXoANd+ekanM/VI0oBVTCVVUX9a9dh6IIrkHvbCS5kNkFIrw46Z8WC2IU6/EMMUFfjHCTM+8sIWkvgmSBRbp9bGqpkbIWSQ8rQ7aaFI24L2QMWNdB8WwznK7ah97MmmOP5jDpdr4V9yVcZ2ZQtmLN9E1xcYofbhJyga1MWlcgpg0dTsqjPnCEPq1ow/sRs4imuTBY/iSB8e32A0/OKHGGDgbkojp7jQigaFglfghOR+zQW14YsRtZdj9uU2ETfYCwwu7eCS7AOXbq/A5sXWuCoTRytWCQLOfrR5OwwQnd3H82dM4dr8IKDamwIdamuJw+G7rKbTu7Bm94u6BG8gBt/1hEVZmYTwaV3YKSrBm3MU6kGdcYG4xmgJ3AXd827jiZXffE0x4c+sK5mAt+vg3Gn+3iC5wjm/wwG0Xt9ID6cw+zdE0DuL9PH0+0CnJDireT2NAEwd7gAIt26+PdAE+z+8pWcqNaHu5tNUe1EAWx/HwqOt3bCrtweuPH3HDXUaqNT0fF0x+wSeMwXSeWsdXBq9u2m5al83N4qO/qYqINUbwM8LmWpqGk7TehdgxmlnwF9DSF61wWcpXAIy4O5WMNvCk1T/DhZm8H6M6fh194M9kDbTExYUgwdt83AMSWJWu1th3R5FzAbfEQvSybSvzyTRKF7P7yQqEJeyTeg/G++FNOWIV8BD4k5uoCuOiCG/Ru72Xqz9+h73RHcvmyl9/kqYee9QrLGPhBFpfTgvnkyTT6ShZvVUuhs7S3Y8ewoJrZwqf8sDTrO40etVJ6DHY8fjLzVw2/iPuRWzAnqLKMLM7IdYeRjO6kdCQGhV1x8k7kaPUusaKiJIhpJMMizNAjerLdijVVTWKfg3/hzZznZXVFC9q8T4tYx2uD0xQC2v9oA22oeksj7ivj92GxwWldIT9y+RDIO8+MPZh4p8TelB6X54VHrLLihiWx6fjmz4MIQ3e5b+8+vg/CtNg8nI/IeeW7Lx3BH9Om3DmVM2r6aXOjuwtmvnKC8dD+KMZ3UuXI3+gY00KxVlaxpcwwuuznGLrrkj8cHLsEB+weo26vIiR09A5r7rkBJrhZN1StjigIF2eWv2rFccpLK79JDlXpj0NVZSv3CW5DnpRG4JhZDf1gjNkTlkPEhPiwo2Y1XO01hNEYZ6rtfs+sOm6BNphF4eHcxJVkuoN8jCzvn8+KqGD7ccMsdPvxMo0vnmsCspSwR9IhBmY/J5JTrStT4mQQ9062gJWgWnAtKodOfhkCj6zHkFS3A9aYDODU+HY5IJdJ1r1zJzuel8CC2g6xULidZB1Nw+WAJkfvSSc9tLMGjmnOx/p8P/LKMY72kWmHyXjW0+XLJ3socaF4sa/CxPxvHGoxQZyiWqs82xMpBBczL84er/kl4b30IdVKyAOfWGDCpHaObTfZBpa44x8R2BTxaglAt947qqheQ4gxrsqxECTfuOU+u7PXE/yLSybHoWiz/qoyG2r10uA4gZYEI9pxfA5LNh6B30xY6KJnLBrBhxPHENXK6FzAnLALH9+qza3YsJr/sxdhtB14TfcNupvhBF861i0RLPnW44SvIuNQvxA8aUfSqbhjEDhdgxZAIs902GK34uukGjQT8YdwF83pKIG38XhM2FLH+7z1x8vp3qjSnAG075oBUUQKYXEsGnUFZ+D9QSwMELQAAAAgAAAAhAOjDFkb//////////wkAFAB0c19iMS5ucHkBABAAgAEAAAAAAABTAQAAAAAAAJvsF+obEMnIUMZQrZ6SWpxcpG6loG6TZqKuo6Cell9UUpSYF59flJIKEndLzClOBYoXZyQWpAL5GmYmOpo6CrUK5AOu5ZvX2rSIqtuU8HJY3WV33fMw/LPVbs7Lu4pb9Xc/XCVqPe14+O6dkbstv2h9tma/KGXj9tjC0mLGJevTl713i15o3VPUJ2ej62O9+4Skw+73xZt227xz2d3GIWp9ZBuHzddbc/ckCnnsNt7KtjcneZnFZvYb1qH2r3bvP2Njk1l1YvfTXa62l26w7rzJ3Gz184mS9dcqDevCuEfWM1KX7Jbu3GvTfKhij7iDsM278wy7S8ym7g4I47GJqWiwtuN6t/vz1jBb4RSrPQ/nrdgd9dTZZsapJut/uVv3THSQsZlzjs8m2ytlz6GFZrseak612V903ubmOSZbw44JVl3TLXe7snPYCn1Stmn7/HInAFBLAwQtAAAACAAAACEADfTm+P//////////CQAUAHRzX1cyLm5weQEAEACAIAAAAAAAABUeAAAAAAAAnZf3W8//98fbQ2kZGYVSGlRGabye51Q0UImkJNGQMkJ5m1FSSntqkIqWSKKM6vk4iYqkQTZlFqFERggf33/he34754dzrutc1/2c2z118XKHJW7CQjuEgrXW+m7zCdIym6LFrTPUmjFFa92WoP+CvDav2RK01vf/6jZem7b5/qtv8/fa6vsv155rOGPKnNk6M6bsm/L/jBFTpjvigMdkkv2YjW7TDSnf3BB/1n6AQp0HsCxCio5/OcFWxgRDf8YT8FTVYN+uyOKxY3KsET2YdPMwJFQE0LLeePI2roSBZzNRXicc658V08n8VDRctYb8nBGVdGJh6oHr4KmtQJ4lT7mnbeNJxOsoXh17BLbeF6KWAVWaJpcOYf6WxOStaNI7AXW/aYZmz+PY896Ndm2VJvPVK0ktQbFWV20kmv29D9I7kC72xoHCzFy42HcFsqfIYNW9zSAe50/hRTNo9oYZOCl3Mi5v64MxnxTQNmAdRr7cSpMOTTDTcmuBZ5qHMOnVPLy+fzH0BKfwvxdH4OPNFyBR+gVz9RICZe/P+GHIG3UzN8Gc9mB2RvwgiUy/x4e/nU6f7x+kF85yZDFCiT3b7cY5Nidg4ZsfYGRTgefv9fAX+krh0l4nLHX+DAGdqWzriFBcp+YHGdsN4dANE7xVLIzKH46yHr4Sltxxhu8Nkui3ahwGbzFmY/pHov49D/b6mQl36/cEOHDHFs1VSqAw8A5rmuiIRZnzyXtSLptjnUchyeV0P76dtbRewItsEhxMz+XdRuSCcOxUuvvfYzo5VIh6VuUCQdUSHDyTSuoDHXyCxyTse5hK7dYhMFPkj2DUImGSPWbDxdoUcconjVimqyWf0W1AP2IO0rkni7C+d0a10ldkn4Vq+W69jRgrfRan8sa0x82SXE6Px7sj7Rk/OJJ2Tn1Qo+OihHsVA5hm7HEy03sJ+YrLcdenmZjS6Yzlf+TR2L+cSanYkvLFfHa/JhkUMxfAzvf5lOArgwKjO3x6pQblvfwr2LUjAQ50GdPIshv0wvSJYO5AA0bpnmd/UtLB5qcC7LPeyCR1/VDoljLX1HgAKzoG2IqfujQQJsvGjv/BrLKPQXOMF7GbS9nux77cxYszcbaSBE58+hrqzEyqR065KYhl7vjppDtu6O+HTUd5dLgUiYXfXsFCtQz43rETv/Raw7fSe/zNE9oUf3d7zZXwE+yHqQYTmd5AnqlF/Ka+e2ZSspOg7J46WVkvIe1OCZpQFEpBneF4ScsK86+HswNf1uDYGcswda87L9leBFMVl4Kn9xPuLq7BNU7uMMl0L6zfYItlSm9Bv0Wa3HoSKbzSnRW/FcOQnLlQpz0WhZRG4hT7a6AuP8yOKW/BEiekrIGjrDhOkyYuLGVyo3aSl85EDBUJg6bST0zS/ypr2DyfPP2L+Ok6fSyjsoS0J4vBWjMLyqjth7sjpUnSXxT5ma0s5Nsd9tupFcU3LWNn3ryBbzr5KLiZS7aBl1l9bCRzp1Wkdf86b6Q+h3HzwrHtsjdc/1ZMYRMlaPf4rxBVoU/6yvoUk7ULhSab0O2kI7T9difNG+oFx3Wi9P2sFyQ6ZZBIw2bcmr6ePg7ootODYJbstJ6U3EPx0eBk9u3ORa5lpRoWuxzC1t5WeMMLo1G4CeZYjsPfs4/C20PH6eim/fTq7gpuf2cqWP1ciTv3fIZpPg+hYE8xqxRvYxUfRhrvMorhbHScsZAnJnb5MOoPjybF6YGm3d7SzGkao7m8N+fgU8A9qiqtWXR3NMWqWrNfPjw7qzyNZKttaEDnAAtatJw6Y1ajaosE7Z9tTWsNY6BBJoKNPaiJWzemkrFxOP48V4THcxYwzc1W5H7Imt/1Yzyp+D5gA05bUf2vNclNHIsH1JeymzucUcwyigKNlcj6aij+cXjB/wwx4406JjBNDwtme/0GZOgmMKn8BNJJ76rRvG6JvJ08XmlzZhlzfJja6Sec8uN8SPmZU+My3I1FbcakUqSF3q0JWKMgZP5HOAokFFVpHXcWBNGK+Cf+BxptmYIhP8+ytSXmJCI1EXo8c9H5RTRabIkj73mZ3N1yO8p0+ws9XltBXtsGqkeL4VjB2mo12VoWPG8IZLY70slEY5KRCqbeXQfhmvoRKvlRDgfqVfkxFRVo7yiBW+5GoIfDaPy1fQQ2j70NW801scjTHhbOGEmDVa2svrWJi932jot2P8RW33nDLZpbx66MNsemIHFUOS2JQclN7ApXVW2yey7JzUrm24dPsmsKjTyzSWIHzjbRJ3Ud8ld6yy1pa+dPrC4CuexHMMG9lOaX2lEiyuH+zcXkPNoPfU0249A3G4q0V4KR45w589xLOGApQh0f7dmKSzMxV0qNHD9uJEWvd8xoaxhLWpROvy0C2eTbF5lptDrp9wjRCKzjZebmY5zpfoG7Uxg1rhxBasIct37qPRCv7GL8kDAqBomR9lxnah5Tw3qeTKfUYz9Z96k0FlB3gJkES9K1nxvR0WUlm/1pAo0b54jDsSc4lRoPqlkXQbvYUTo5vICOPegRfJp1DVq6mqmzpJ2aYi8z4aU7uGtu33hXnWq8J6SAd+9p0PZDo7jXOgVo0FlIy3QLYcCjAG+SNb5XTWDjxfMwWFOG3G7asBVb/PGNEUdF6zfT58ZqdM4N4/7m2tIUqXgqzkuhWTPlKXB8G2t1bWQ43oX5y2TgtgcFIHcpE2aKjuY6vhQwiQem1PTODveoS0D721n0eciIZk37wYLmzqadv6bhU6Xj4GOSwirmT8X6mG1YKlNAijcP4tjOcBr2lsXkd+PpKn+MgkVH4eircnRzbgr15I5h1kn5pGm3lDUXOaGLIBYuOk8iw3WDrPmXMj7RrmbL3DPZ28B3bMHXp+BwqRAmPGhlgwnhkHOuAS0tNfCeVgb3xVWC5Pte8asXnIDMUVvwxcntFNKhQR6rD7PhbFEY8dMbHWVuQ0Bmi5mmqyQof0wBJQlNWGf/jZ1ZMQyPleWwhKuDO1fTwfBHAH/DKx5nhRqzqo1/2D43LbDQM4eb4TEwJ306nDWdioMHhiFpcD5l5zpRXoM/G798kE1ue1uj23WO9zx+EP4uuob3D0Vh8RN7Vv2xg/l8rEatPnusiXOgNUKi3JjXN1HsoCSlT9bHMg85FHY/T9Kq9nyndDg+VU2p/qHbx21+vJ+1u2ejeU0BbunPA8sRXhjTpk+x3m/ZVL1s8vT4WxP48jwbyLtCc2+fh+ygVFRZpQnnjvCw3CgZlgT/hkvHX3HuHvvMXPESdqnEoEV5rSBEzxVfdEVQqrsN7gmSqt04OBEvbrsPsx7d5L9JjsLjXBtjf95x/B5T7CwMA+UbvnjPSo38ZkWRR1IE35p6FsNAFltKR9Ukfwhlz+dMRBYVT7smhvIxyWl0IN6Wot/fY8sjS6o2/9fMXuUV8wbJoyHjWxs4WOwn0+lnoWXoBUVqCNiRzu3sv7xagbXrAJ+8ShmfFeWj8YlmBpVZTGwrh/f2PmTWPfq0MTOTrVweyK76jgefFW4wMuEG6sbqcKvWCqFg8U1We70bDroUoqpqvpnfsgg4n5HFq6ZFsBaxZLbYZjUdlv3Kus8OQvEqV5wx7QO4YiZcPhfHWNg/Re/cSQOLR8KWrH4w4Gtrpq4cgfYlBCb7POjHUyvIMiwl7s8vllysgBI5lfB2H2OTvwBFppWSsWQS+5iwFM7m+yKvtJ2/EHCXHY8+L2hzFCLpI0J4e0IclQ3l43erQyR/4iu4dznCIqUsNroxgxaVBzPFPBtou3uemQ560ru3Q7A46hBzmFvGHk48xicX1/DFW0vhFBiTS6I6vT0pEEjvaBJk14jUjtm8QZDzahzk3buEw4sUQLhwE/Ze7QGbVZq4/dRkCP13ny8IneHxUxj7XHWYKRlMRfXEfl4lKwT3f8mDTu8YqHpxm5ffL0xj1Ib4PbuWonbn6poCX0sEtw7Q6AnGhvRJrMK3pqZsq57gQwHPDZE8njAVw/AvNzn7sIk00v0K+5x2EGOWAi9toYU+7u38W7VT/KqlWjhhUJM+zkthBo3feSe/9fh49ghQ5vYQF5ZP56xy0dfDh5wLIsBpTSCT13dGlxedvFpAMawYc900VNIZnePP8H2FCVArXMFk1WbggUchpPi4ADa8Fqc3ld3sd7UeBTwLJw/lWEh4s5UuGPQITmtcwgaJmxDq3McpbR4D+V2fWHSfO9vbasJav16AIfVNaM4scNa+Ghx65HDZcvLE2nfH5nBHdmqhn1IipnUq0LyV6ni7KJHMBaMwK7+GdYvL0s7HNjjzehO7lvqPKQYesL+SBWxCM8f/DurnkxNXknvFft55Thm3fVS5IEdyMdjFfua3N6cwjTdhMPm+NApFxDD3pFds5ZcSNpYew9XzQmSclA5LNz3ifDQP04aEICrxNSOZXVK423EDqT8ZQ6Un7rHmrHjqrbgl+LUxk1MUy2aucmmQ9zCSna2KgdlnBfQzZi86cZfg2YZIiM4e5venlkGETQQLuGbNGZfXMPc1HZDp68QpGOqRzJ3/yE8rB780H4XrxUmo0heAAc+zwNwiQRBVcYh22f5gG84GsExLS1ToCUXt+Cc16f2HSKO9kB8ONUHvL7XQtfIMm10Zgx4PvrDrN+LpZcpsZrGhHgN5DbI5BNRzJ5MlK3Sxxjml7LJ4J8gcrmGiru3M7l0rp+r8k7UpmMCs2UmQf04MRupIk8gaU5phPsgUvUsoo9uBm/A+rGrz5FF4xfowl/FnMj5ikWi5Pwbrd6uRdKUYRe6KxI/7G1hwVR4WtD2B4EJ12hY5nZy87HD3rqts3OMYfLklAXs177MznxqoKS8J70gcwoUb61ijbjgaLlgIqauEuKY3e9jJ2YUoVy+Eg/HKoNoxDdbGajKjSZlsfXahIOJWJa0Z5YV8fwAW/5pAY75HkXBHLX/JOYT9Ej/IqdikQFLyGq7sogbJlK3kfs/bQmXfbGFKzzH0kp/Poj+dpms3OCZ7woe+O5yEsqTrZqHd62l5VTLvpllGDesNqHJ9BogtkKG4rht8vNgDdt3QGA96/UffRcpA/9lKlHEX5zt759L66m7uwLF9lH7IhlZcGkXnjvgJ4rsCIO6dEfbNRzopIoaldQ3Y2lHKbtofhxMfQvme3esIpjzkp+U58QHvo6l4Go8v5peBjYMjX+er/89XnWfiNdfYtZ9f+aRne6C7JZx9+itG4v3xqKRdxKB4Mf82djxmhabC/XPEUi5MZZvHykD/2a1YH7wMG7XrYMVhHdqcVMxurH8IrsO61O82Gl/yluz8uhjOcc4wa/c/RcJ9J6BbIo9/1HGSUm7ZUvKC/fRQZCQ6hMWTi2MPSpfeZ/XG0Uxd3Q9Xnc6BGXsquP5OdVbwdT2v82kMmsY64gWH47jVYjKe3jSV0qdOw9evb+G1tV2cgWQYSHgtZ1q1PBMvnQ159/cKYj4EUNYbT/I0dWD1FmtJLzMVTxpYc8kfjEHxkQ61fRpBqlJLSOjDaaYk78+FjxGjl3W5NasGGbycd5nz7/fC/8o5mHxGnhZoqdE10+fcvnmOFPuqm+tQKcNdlq0k5LGGZtkJuBcbQ7Btoxoz1G9gcf6REOR7G0bPMqSLpdJ42LkeAiZNx5+Gsdhxejlo5Tiy8zuP89PdE2HbWCVYgucRq81x5Iw4cDI+CWKfE1nrdFkz87RGMEzohM7iYExPDiXHnhiu1E6B2ttHo23VSwiSjma7+61hfeQ9PmvJfKqWPFczWKFDNyMYLMx8ggGz7LmBHT5gcuMdtMndxgpJY1Q878xa5plC6XAfJxfRRn8n1kKS9hKMLoyh3+HH2MOQqyy2XogZLRkGC9UAfHNaimaP30cqiv9+oEwHFaXIY51EGq248s8Hx2ewzO/zmUG3LY5KLOWHWQJu8NHClXLjMKUijYIfVHCZj0RgzElNEMmfQGpLJPBt51CVj2sDnJq5lB7kqlDFHR1IGHwOAd33oUXOFRvwCncmRRvzndzpmXFXjWKiHD276QNvtD/Ct4ejWRBvjWHtbnQ0ezXT+JqCVT+sqfPjEz6z6hAtkzSGhJE3mLj/VDIZOIzhPXMptLyLe+gaBE9sF6H1FXWqvOsIXpOVeHP7X/BizzhY/UEXKzOnkUQL8E1NBPfqgvBNnT2NKnrChYhFwP24Dvb1mR3ODNah9QdC2DT/Qdj7cbqA05GDJK8SWuNzE84uUsSDBQ/BWN8eVlVGk8HdF5CmO4skfk6iKa7hzPq8bHVrihUbL3oclaVOgZJuMuhcCWAPjrSzKrdWqJm/kKRzl3LRE8rYmcVhpHlElH4sa6vSdD3HVrqMQJ+fy9BZyYrEFw1wwoNzuKCTGuS9ZQFWNp/jDXS3kUh/L+RtXYVLFPexmSFr6Vh0FL83UJWG7eRIIUCPTv/TU1raMsqv96Pufxy4K6AYg/ZmMdNV+4HePmRGqTPoZaAqKvsrcIlx9mhTNoZaN6WSXfF+urxFlSRMCihBZQPZ3t1GkV/isUvHFq7X3YXdD5pYqeMUppIfKvCSP81NqPeguJVj8XLeZjK9FFujmxxFinGu6Hfen+W5LkatgW0QOZxKmhomeNrYmpxWlzNB9Wk2SiGC32RhQ1NFzUgzZwkcPTwdy9ucMSzeBVdszqW7R1JZ7sAl8n6XAwO+ZlDY1Q2O5sokf3gkftgqDbyiBs0SmkkTb6jjSFVfspoljzKVUjQ0Tw0HjHyh8aE57n0wgtxv/GYq88vBN1mM13toQPOPlgOFLOJW57TB2wVFNCegiNn3Z4KhzVzYEiFF+/JdmevZ/ZgltJbuyz2AyFN29C4+A9M/8oIuaGWN67KQvxVNHWqfBQkl6mgvLco+R+xiSf7+UAAzmFiDCwhpllKJWS27daWTj9B9wKyG3Piox9dZj6YM2mvE03HfJSx2biP2Pv8LH3444zzRKC7HMhyf7E9mTyqlMXnAnOI1Q3HDWVHTx4+j2JVoJRzh/pVPjGqGsOYMmF3ZDDFhI6BpUzUumHmCmmYtx430ko7ST/7t0Rw4tTge41o62XQTDzrbdQY95weyPt9boDmkhDmKWih+QJilOM3CrU+16QCrAv1pq/HEYyGUWNdIBnZ25Dkyp/q/L2XM1l4ZZZIkayNXPQSJmX3s1a94Cr32ESLci7kHn1+zz1GxNGfGGXZdtp1ZRPeB39ELTLRMH4byc6iuRJ7ZnpYCvbwcONnRxxy2xYDcgBxyNp+4aCEZDDA7IkjxDESpbe+g1kAZX/6KZ49vDdPzWYspyuIjzexS4AUPd7AW5aX0qbSapTROQ909NfjRfRRqih9lsV8vMBF9BeYQpgIqz/agy/gEiC/rYTMszFja4XycXTiNev0ksOqrI6ppFZHEyDQsdzthxskWsvLm95z0C0m0LT9HXmMc0Uj5On948B+TuZRAwdgKPtdvAp2f3oF/60djR6kLrtxZBkeMgwlOvmRCwyfp/OEx0L6rGlMb7nOH/81bJNTJ6fk8qRknv5bCM/bh/jwdCDk3ifr5dMHY+kfQuyYekibFVqc/ncTp1kaxERuOgIn1UeoNWUzjBz/zQ6cPQrbUb9LdzePHHR0gumgsGiuuo8RjF5lWoCbJHE9hs5rc2PcEN9TtGAvJT8bTpwdnBPeykPm27MHSayuZvZ0fQaPrP0+lhx7BQeyxphWJiCfzlTaiZP/o3852WlBjqR0JHDJZcN18upK2lGaKzaFF4pMxcIcqpTWsgAW7x6H1nkTUy37NHRo8wBxM33F3r51iN2SKwfy1FJt5qZZmaCaRqPc0dPTsZTM0dXH78re4r+kduzrRnz7G1cNpz9n4bJQiymiNQ9cR/jTNJ5BJX1SlX0Z55NvngDO+SGK1RBLrezeCLQ7Vwqh6Z+6yazoWRjlgpH0yM1iRwU97ZMQtFlKsLuoSwr97y6GkyQLXRN6rwVZZ2rZOFy8d/CJIjPDElq4ebNdrZum2WjUjRx1gBpnPmMwlAzpfJ41Xu5PpluRytmD9SlC5dhsMrFshN14O660jSP+1J6Qf3gq+909B/cBGClT2Iv3lIzAJsrm/d9NB7/J79vTtLbzDi+PJX0tJ6lg94ZdG9sfhHtiKZ9cUua9npu3S2JSdxCvIHGfzTCSJf9UONx7KwlFvYeTTxiJ70sXOu8rS6+4wlPfIgicRK5norV8w10mA3C9TOpCoArMXdTLXq1NQ5HklCD9N4fNCp0L1Omly/bSKVjx1h/jXvpzwo4+cFJeMRplIrrcjyPnbbrpjUMa3rX0OgfpJdE1WuvZy52ScmWWFhRcr8FLSSThyIx5GvTBAKaNEVj95i4BTS8AW+XDwHnJAadsUGisnzi4/sK4ReuhEmnanqPb1PX5wYwpsDFDBcYtjUP9FFog11AmyenI44Y/PgPs6n3zua0CxjwFulZWljK58UK6qg7bgQBx+OgLLLEWY4WqGhtsmsKzlJ7B02wPGjTpH8pwaCGQ72eQcI9J9JIoTb0rjpAhRtnKxMJM7v5T8gzeyuHOR/25iBM5xzUarh6b8p10JMNp7NJ9QORk7127BCfHr6NaSsVTWmMlt01rODOSH4PmP2/C1UR0szQ+iaYUsV1G/AS/uM6KbX+NBY1kMvboyhk44aeMOmTDMdsvhRtlE8vbqhVSa18jqNI5QBKtmgdrHOYUIW5w3/gTovnRBhU0rSe2FJDVXJUDXlWUsvH09G996hNcuj8V1XVLY/XINJLecYcGR/5im9DGzPriH33GgG4oLuvGjvTH+FZ8DfODhf5rbQfd/7qMNAn/0+B1KwzHXcEy4Nk6fL0YOx9poo4ctTuhKx+NNR1D0ZTakHRhVXTeVwXE1C5Z9KhcP/DaA1AljqLl3E5xe4U9k6ILdYnpoNkofm+r2QMiAAhp6MdhSokGezcT5CF9lRwP6oWDNaPZ4rTR5L+oDt34BmuvFQ3R0NqwxWYunSnXgSXouLnE2xKdxxWzp7BaoMVuN580MsVLqE4yWPc0SfsSzqlg7vOYSDu6JVSjlvIA8/pZD1H/CoP3pLivQzCG/ginQVNTNiUZOISs1/3//4jy7YeQE7jJBdDiziTm0byBj2AE/rpmg28/9tCs4UZCxs4EZB61FVQljvPxWmOJWN6C9lCjbOH0RYpAj7vUrwQCdbWxDhQL/8H02fywoH0Of5MJG01NwqVQXrd6tgvK2AL6uSZbx97yw0dMd2y018eLZPazTXZV0Grxw3WQBzdz5ln2JnU7fhC9iv4ITc1yUhs311rT54iUsMniIR9X8cFFGCX0ROOC08dH0esJCrFSKwEeKMbT3jgVXalxOz8oqsH75IpRP+855VhcwCcFL5vvZmLLWeXCndirwXgVx1LFTgDlhXwXTNzvg9hEWLGhjEfklKVDHv35+XVasf2o8iLyuBM18PRLWbIPo5wupO+E0e1sey8mklfP90TfAb60hHu/bBxl69ejaK4S6d+Npz43PfF3vBXpR7wxxA+vIJMQPFU/9YVWr1tIK/wQu28oIn46bh7MCtM2TLmuz3j+XmZnKZzC5LoV7lBKYf34eZH+0xNVjJ1Ni7jhcwbag+KmDoPQtHOUWPwW5T7f5mbIbYLXUTbi5fAUeLf4OidYtrMixirfokEa92Qe5mZYBeCh9HJsUHkrKT9+bub3Mp9wrn1jS9nD6K/oBdOYtRKXAQIy97gimty5TnCTPy0eeYoOvVoFk8S1cLNCm+94i2D9Bkh4qyVDIiul0PWpTdUJkHHs1ZhaFDi5C7cOrMDNwNr4zqiGfNyLoslEHU37dEyzs1cUp/3XSRb8x6L2coNTFgGzObCXzgDMsYvZQzfjOUujuFBaEKLfxm8+txsrUTHLQO8bk3y2kOV5n2FppMwxId2claaIo/OIzUNMF/Gw2zPdBBB62cgf7Xxfw5e3TaFd2iHY9NWBayneZyrYJGKcWxZr9fMlFKAF7Fj7iyFkCDRzLWaewLx6zfgcuQ++5DZs1MHtiN2yLSKDHiuroGLKFG3C7gIffebK5ShIoPM0EnN7dhB/aB3jBAhlMb51CKUM61LvTrib9/TI+7u4p6hOEw59Of7x4SJGJ65jA4c3HWC+nCcLKk3DN822YtMyNznnNB7/EOezRCWU+rd2c2d0oZXjYgj5Y3eVjP8zHNalN8FejGWZ/1qE3sXmCo/p6zGhDGX9IUp83bf/HcJvs4WLxW/Zm/ThiPfIkUueNl+VauJaV49HHXwWtU5Oo+/Vo0lHOErSOqeCaGiure3dmwH3/IW7/SB+u5LEYNQxW0PyAh/D8tRvZzRFjn/dW8U3umvTqeDJ7nbSCjx1cg88tXfF/UEsDBC0AAAAIAAAAIQBoTP1U//////////8JABQAdHNfYjIubnB5AQAQAAABAAAAAAAAzAAAAAAAAACb7BfqGxDJyFDGUK2eklqcXKRupaBuk2airqOgnpZfVFKUmBefX5SSChJ3S8wpTgWKF2ckFqQC+RrGRjqaOgq1CuQDrpsuxrZyHWt3zjsXtufYgcw9M/jO2jBJiVn3PJa3tUtaZHO35br5sz/m1o/LGW0uL75p/WGqoe3moGibD1OFdtfdMN9j2Ci6d0+G186m6/N2H1WI2bOeWXLPpOg3VuZbNWx3tG7arcP7yZqHO3nPv4i71u/Ytlp1qXDsDjqXaN3Uq23reHnpbgBQSwMELQAAAAgAAAAhAF8mwjz//////////wkAFAB0c19XMy5ucHkBABAAAAEAAAAAAADOAAAAAAAAAJvsF+obEMnIUMZQrZ6SWpxcpG6loG6TZqKuo6Cell9UUpSYF59flJIKEndLzClOBYoXZyQWpAL5GsZGOgqGmjoKtQrkAi6LSQf2qQkn7CkKqLHTqPK2u62+dV/s8n+204517vt2de2+P4bOtvnZVfvsfWr2HhV8sHcF66p9n7rP793acMSmQILH7uKivXama7xs+Z/L2h+dm2FXn37Klttcf2+d9JZ9URILrV/cMNq3XorXjve93r58z7d7Jjnz2nFt59+Xbjp93+V7p2wBUEsDBC0AAAAIAAAAIQAEoNTw//////////8JABQAdHNfYjMubnB5AQAQAIQAAAAAAAAASAAAAAAAAACb7BfqGxDJyFDGUK2eklqcXKRupaBuk2airqOgnpZfVFKUmBefX5SSChJ3S8wpTgWKF2ckFqQC+RqGOpo6CrUKFACuOwra+wBQSwMELQAAAAgAAAAhAC4bLaP//////////wkAFABzYV9XMS5ucHkBABAAgBQAAAAAAAD1EgAAAAAAAJ1X6V+O+9dtIpUGRVFoEGnQoBLd1943IpWhY4iiEBpIM8mcZiWRBklKGihTURqu777TQKojkWMopJSDjiRjGR6/f+HZ79Z6s1+stfZn7RPLnJb+5SIuFiK2V2+LR/DmID1rLT3O00LPSEvP0z9oR5C73wb/oC0e/+Nt3bcHe/zhg73dAzz+4OkWpkZa5jP1jbT2a/0/R7ZTX1pkcPM5KIz6wtb5yNO1gIu47dYnMg87ie2mbiT1Q4Eagk7iNHUJVN9MOLVxBpb0XWVP7sewaql0XLbvPT3/uh5XlS2gIn8BtA4P8/XKofAlPhc6K8ayWalhuErHEitlrrGCzMMgZyUArYOXcHP4LBreHkIvR7xjZf4l1Bp/Ho0fRZOVeDq+z/alateRVJW2CXPvfgaDxwJyvvMLHHt0cYNWNE3/5AlTrAvZP9wRXPJjFKru80OrvnecVOu9qmx9M8arRrO25Aay9jhC7nM0OI0uxteu9kDfq/eh90ceddt2QW6yPcs+lYsPvoiT27hKuP3qJx36nMTds/2L9e6WED6yy6HefyfR7OpS5LaIC3sFqkz8pQqEpXfCa24qezpcC/ZtUXi9Iw5LjDK4QycqoUjiDpSFSJH2pMe0ISwG/RqimPZyW7bQZA2K5Xpi/yxzFHdJwP7l2zFmxFmYpKFIo9vns3/DfTByoxBGxa6Gz1E2WOUths7d1hjTJBKUdtzlZAXm+KXwIev3FeJQvw7K7xpPC05xGDEhHFWjTbGsvBt+zO6m++MeQWPYfZj/3I5MPkuJftI/qOdtjPPmBKLBhf0Y4zsEWXXaLAPEcOZtW2RfU8jEXoPuvVcX3VTRx0CX/QKpbbdoc9JzOvUoiVYcfgVFJjJoYfaT+hR7WZK+LV7RlMeNvXJwqLgPMq1S4ILHBBK/p0i540uxoK2Qi9jdCVeK5bhb5Tz9eNNpTcXJsCTtKoSuuMVa4kKqpl0/z+4dqaCY2FdVnfZyeGNLCuqKT0Yq6EZ7tzj4+MSEtfV5CdpfxXOPsrvhTLE9s1z/mucdD0LFimy+ycWJPTEaw88OjsCreur0e8McMhBdQxPvIbjs8h2FrVK419AD9yXK0I7rKnToRCxXe+cUNMmOFP0nPoAn7a6h76g9zG/LfXTaG097dl8HlHYggxGzUXmogr15Pp0lJrVyljNbydj0AW7WGYIpZYns0lApVoRNpiW9GXxvixSVnkXaWPOBzVuWja2fGwCDd8Csz/rUuS+ebWzQgi+BwRBt2w53D9ZBlKcrpbm1MscgU0q7/p1PCGyCgYXqpDWQALenWKGY0QOWNdKGjAp94W+bxSQzuAKOPL5JBQfM+MHYOGzRFaB50S8wE61F3YHRIj1OE0JyE2nGm37WeleGytfn4e7xF7jshjxBePtI1ItN4JdK64LpniW48GkOeScdpf8GW+h701FWoCtHS2LXo+k7Hiynr8LjU5czveI2EBjJYfVvF1Iyk0A3w+VYPbyZ/VWxnYJiT3L1qgJqFt9IaW02eONNLvOcmYL4+Ql+DAgFx26e1qu14L8ejqgbUk1OVSp06awr5pgms4V3IpivlQXqLYhDv0g5DM36F85fbWWj+0UwTvIjNzg4iQm3HcXE8uO4iFfAc95XIKXEh+v23EMhaX/j6sH7zPRsBN3wu4y5S6pQ9CkW9Abz8LXUdBqTnUHj/BbzWr0v2MSqg8yqXo8sVxdR8clarDUPxWGnZOq+789m4i4q8clCl0Ax3GqGeGxNIR03koUo8dtMc4YUzeyWxnnO8vT+OaJL/BHMZx00/S3ShiPR7LSjBMvSFUFIjR+VLv2CqZn5sM9Hgfrt10DOpSIoulzJ7r8LZwFjfOCX+y9uvIQXPo34Ahcf1uDveTrYWjcRA39kQ8q0Mt7800zB4fxJ/D9F0+i1MJeq/wqnBW4OZJgwEvf3LYPJXRn0zkcJvYV9MCujlY7G30KlWeFkv/sgmG+yQ1jshQpBfpShY8xc435gzY9j+DDYGbPmSJLIXAW7D3WygleraCsfi4qHdyM3whWdJG6xmiIxtP3AaM2i42itLiMsVrFFMelYft2YUDYQbQGlLB9VFIroxWCX9XLpTXhtsSnucFImx5rf3EKbIHi6s4iFd32EEde7oXdHAFjvPcm8np2hi776RI6n2chbJ9i3Xap03q6hUqbaGeKXW2NyTTN5B58FmTFHcUz3Gyb2YAckSShTwB0L5t5TSHo9Rcys254+/I7H+ceO07/BMzixvEhccycGp71xpI4Ph0liZx28u/Q3Sm84xJ3cWMmm7lpH5QPO2Cg4SHn6+egaqsw0Gzuhe2cSNrqpg4OaLKw7VwyLL95kZd8OQ6NnLIuLKcR8yVPsfek70LpViDNyEqnarAgP+aVgj285Fh2UoCtPM3DRN0aJaRms78pVuKrni+KFuyjjgA0wY3Wqa7bB5+WT/uxpZfJtK9FLehyay/yC2R6n+db7ldhpEEfd8Rvo+6Lj1qeUUlhl9mpkDorYfFWKSCEdpsxDMKz7wBc3LuQOKu/CBCubqk+N/3HT8R27eEaD/CMnYdfWfGg5W8PfSnChDFtLnMPPxO0XVWhOsgZVD91k2RMsMNDsEpZkAEXKp+M69ppc4i9i5hETyvEdiUESilR/7Q529XyGdO1G9kpGARVK1zGNWDFa+tceOmrYWXWhZZie9vTD6k9JEPb0GrQEx3FK9wJR+tgKfGeWQXt2SYocc6ohcrU8qxafB03i0VB2q4XWNX2FgqCPLMUshAtPW4UT8lzhJFfIJNT06JpSM/QPZuDHSCmRhfoz/kXsCLzjUkR1k+0FAZTJc8NWoHQlhiI2JrMahxkoqrqB8t0SmFJ1AZ5WlvJ7ZAQY+0pWAI81eZ03NyA4sUdg33safMyMEGvSmMqOKwCx1fzXIAtmXy+GkPoQtkg2Q0hMHlhO/Zte7Olgh63XYvDuZLy5+DHfsTeUVUiuxOZ1bmAk/QncBRV0J6UNe16lYKDgODuTdfNPvpSF6/WeUKj6KjpVtICWaVznQz6IY/wiDbq75SXYOe4HI9kUkg+cL+iN3QGqU6dS5+vbVODqQE4zbfFh6Xocv0YMTbAael+9Z0WPHzJ34TmSX3Me2sLTmY55In2La6vqUHoLCZFHWbNaE7xWruH9CvU5inMi3cVHMC5GxAwPHYbDX2NYrMtc3CvfhKa9I7DM7xjkqIxB/8piNJ47mRpUk6llYgoqCvWA3/mRj5uUgaZj7FBhdSLFHaih+bPmUqz3V+CPBOI+a0ucHTNG2N6WSFGbtqLllEP06KwU1jzNIsmwq7SgZoi9CJHDtXUl1DbyJYXWT8fqzzqkLraXXHNWYe4WJbQ7FUiG967T+v4V3PAGWfrf3ZhUoYzS1XGUlDpadHDLR1z/wBn/s5GAbYanq4wbrjAD0EbbueLkPmkWRHsWQUBbF9pJ/IcPG+PIUMYVj/j9wN6X3mx79A0+5+V5ukY+UPR8LM0evwmDBgqYq1ozDhubgV/TWbT5eo5VnYxgu1RVsfTZZmwkEfiuUaY9D95Q6rwVbMJaKWYWJcT9l61YZWMdK3i2AO23yXOV163JveAIG9Vhiz03h+G8siVFXG5hE6860+mIJ2zx1ntscL0mS3Zv5nsDciguYCwNDxZhfoWJMNi1BiQjZuPPveH8w95ZpP9TA1eWeqP/ZEbqU+LA6uxE4sflU4uahtBz03y0LhEXOZ44hsnrbjDT31KUZv4WtmjoYu3meOwyVapK/HEGs67tASUFWejI8sHJZz6xES8McdfWDNIRRfBGOn6k/XM5s7TQ47o+3uSe5rXBfB9b3uJBK4u7koDXPgVj3zdfOLroOa7lHJhHoxMzS2uEHcGn6ITYKXqLn1mokRfzN7xD/Z+NccTFdtSd8Zx+dy/m2y8YYvaTAywgvxHKhTf4EedmgdbDWE7pqADz/0qnzYfr+NKlgahfG8a5pWvAPZdrJM6t41ra5ejp91ROfsiCrk5YCiZ+J/G4iST9elpbpVt4DtfMGUGVvzeBX2aQYEV3Dl87rcY6vdeHZA/HsO3CN6BnuRgFN/qYrzzPzO37IWhRO/9+ShmrfbTRes2OeNw9nAg/W+bT+4Ql9GXTN1ak40xRbga4fPkRHKvgT1pXdNn3GQewo2QNU/AToFPIW/iQak8F12Px8pFm2mzhQPMcD1fJ/8mj+8AhbCnzZ/l5SiKHFBcU5VxCn8FsHGtbjEf5DVQwRkOkabCWL1a9TpE1L8Gqt5yTqlfC5HOTsGRpJPXv1aRuvgq/CS8x3R2lnLvRAPN6rwh3XS7j2lMb8HZpGq0WfmWB4hNxnnUsFVyYSoW6x0iUv4ffG5WAUzxi8Jn5WCzhNGhGcR9zCDhCW7fHkPeTPVC98zQfee8cKK4oxcJyQ/pd1EftLoE0/+80dmLgNPc788MfbyXREfM6nL3PjJRmvoa5Hgco8tkxWFZ5HQYeu2J6aQE59K2lC4tFqG1zlGRdw2mOWxka6LTgtnPncX3ITvy3ew3VD7gw0Zgb9Gp5INhMnUOSI/exMraOtNQq0etZJJWn6oJLrg9b1SUu+rWpBd8aB6OMYJ1gpva/bPDRAJWOSgB1RTWsEhWTV94tAWVV0oedQawwag46+Q3x0/rF6XB8HPknjkfvNWpUcvAcfusoxa/DmWA6VRrcM7O4IYUT/6vl2DqUx4Jk20Hbdg/+XNpM+xUOU0ZLEXZ8lcZ3Dhvo+bAdrat2xMInEpTdlcH0Y+8whclulHIwA64v0GLfzlrTfqkFWJLsinqa00mpYj/TnDib71kkJrTYkYhqjq4YqfIGBpetpYkFgXD+0aE/HrsNfmsvIRcuTZ3jvejO1xrKFBVj47z3NEq1klI/GSAvuM68spL5ZNnX1jY1r3nvX4fQIjWSfe4WoMafP0H+iaJwxvfByojZ83HE8ETSEfBcYpIc9HhXs6XO5yha0AxRTTFc1tYMls2n4K2mD3i5byVtWJlJK/y34uutiiLtB9JEDR5szX0RDgRVsFibPezHhErStbyOVt+j4e3c75zSaBNynmZKB2WPozB7ArvYlcx0fdMgrFWDbS4rhkx5bXB96Qhe6vowY4kZ+pAEjXtky3aZ6+G3F5co0++P/r9rSf5gDOml1XM91ypw9MVKluQoTdPylmHtuLN4d2Y99LimwdyJzZA+KhPOKGWQq+colF0whow/jsOLI+fA65KvoGOzFWV2zeBl2+dRw+fLzCf2Edf4z2OwK5+D8h7OaOgsJ8pfGIYBjp/Z3PavvFTHbNZ/aaRI8kEpjcnNp8DKfLhpPAeeV1SwD5pD/HdLIZSIywjX7/enhHgpnGy5kIJCL5FnXRetNB9iKyc3ws+eV3xs+wAorCb+7dloaBvlibfTxFE9dmWl65MBznxRLgtTm/anV6rijiENqvlvPmZ1l6KMmQmNzGyFl6HLqGpbF02d/IUFq6ZCBq+G9acMq0S3L+DwsW+cIz8aUjbpUNZ3FXyjnIFmSRvw6SQlLK3naGi3oeipmAU58JG8lVkEXZhtXXl6nA4NaZygOzWiquawBNAdY4AmQ9po+mCY+u86U2bqXOSae+BnfyjN6tURllochylZAfjSSxMl0+XJ4lwF/eN3WrBwTw4eDUmC9uKxuGTCWlCLGo+uHi/YuX9scOwxOeGxL4Ow9LIDSzZ9yfbLeXKal5bzYvZbabRvA3jW2aCz6SIMnNsGmio6OPY4gHOnGTm5VLPlwlG0/1MqCZ6cAbcYBRpf+AO7Sm8yA+fJqN10F2YszMF0B0m2Iu8C96CdgbHtCapzrCTrJftgkYuAnhuI4Hb2J7axv4bZKk6l78ln2PbTV+nvxFDo9d/FlxoUs2IfbVLeLk3mn1ZRfqsEDqz0hqL7i5n5/VTOPnwK1g+Izw6yUKPVOy3owglFcqwyoIFhV/o8fwb+ZSKiNrUoUmyaJVj6ZAt+nLiWHdg9EhvHn4W+6OXAtMI4q20JVTHWyjTRqZrcjG6zMmiCmwqSwiVLbKlhKIIJphXAaa/vKOayk8XrH7PeOOo4+DXbY5FqPX/x71NM+/VoDL7WCdnlJazBNh98JlzjDDtU+Q9LxcnqskLVKjkDyhjZhklOpSzVOAxjR7uRa9E82rg4APMcaqBwexWoPI7HUWfzUMm3m5qkH8CVBjvaPKcYzVQvsNrcRji2O4nz355DH7pdUemjMQ6NlwMlOwlMLv7Eqdl5skMhDpXl0w7iuKhGGKsXBsrVcij1ygxfPHak3ZNkcEHye1p9upwTWibQCSU5tBsexFdxQuDTq8GyTQPfGcXTbycgNb06OONTX/WtQ4dW6PfQ9O+ytFywjCwnBdC3/eGcX8dFNm5fLa5zrYB3UaMxKu6mIKU4Fk81X+AOzE+nj8/kIMZIGi8O5UDba2PwqlWl+2v3wmSPZVSm0gbJ2s8gYvdFfL+zA5ckq7M1/pKsLk4Jc32D0H1rNKUk7aONcyegsVQTHFuylz7eDqCrmhM4u+ZD7P8AUEsDBC0AAAAIAAAAIQBofwmG//////////8JABQAc2FfYjEubnB5AQAQAAABAAAAAAAAzAAAAAAAAACb7BfqGxDJyFDGUK2eklqcXKRupaBuk2airqOgnpZfVFKUmBefX5SSChJ3S8wpTgWKF2ckFqQC+RrGRjqaOgq1CuQDLi3vvTYqyj570msjLEsNzuzhZZ2458f2t7s2LP6xO/KLko10d9du4d2ndv9I0d/Dvvinzd/cTOveg9l7qrnKrNMsF1qX5S7ZM3Nz/56vh3usr71t3CO31HPPyu4JeyZ1PLZu0blmoxhpuHeC4bQ9Dl1F1ksKBfawFf/ZFbXsoZVPvqhNyqV5NgBQSwMELQAAAAgAAAAhACozq5b//////////wkAFABzYV9XMi5ucHkBABAAgAgAAAAAAADnBwAAAAAAAJ2U+T/V+R7HLTdrsrQpsoWjLKWkcr6f90nJY0YqWypljbGkkSVKNQ5RJEsiqQgxySmKEL6f90GbfclIzUxxr8nJtZRtolLT/Rfu87fX8/fX89KuPTvt9ouLhYud5Hj7hB4K4VhocZifzDhGWpyfgkLCQjx/dg8K8fb5n7f2DAz1+e5D/TyP+nzfBuvXGWmZmq8y0jqt9X8id+tFBx16f52qtFmjg6Q3Luh2AfuPXHijIeCe/vgDnlz6gf3mcgHeuq4XdsZuArFpa3Jw+jf6tY1DjxiaYEBmLH0u0cGmh6nzzCP2oOh3MeG13VI8yZYWaPbPAsURZ6rTGAej0zlkIEWF7k0/S14F9INzXyk5dr4UJO1VUTKlACZeJuOLGlXI8JokmkXJOB00DluWeNM/mSNEJ38G4h+qoWZTLlqk32XX2unCXlltHOS8IFkZa+kPq5qgxP8ILGhUhNcr9PHTDX0YLbtI5VhHIlxYT27SG5AXG0UiG5Wg6lsh7si1YUZvRMBQdgTqdl7H+44iKNzJYA6bBmONYuB4iqBZXSBk/DrMuBvrwom3F+E53w1WrdoG9z58ItbxH9BS2MpWW97AqZRh6vMyiZhXa4Hx1s84rThM3dznmEWyRZDkPUY+jldyTTEHlhlWMqEidRxYPw9sVxbRc9GztSl8A+yWz8Ld+e1UNUoP2O2KGPoR6H9NBmjDbB3jbX4fvuqIg6uyL9WtaGD8gp5jen8r2LnmUP2ESEiO2Yi7UxuIz6VJzL2wBpN6R4hy2ztqyI4zClXd6NXcSl8fzyLF8CPV9r5MR6210JU3gsnHu6jrugNQIn2O/vIoBX+tcsTKeBnaXtLPXH51Fl19J2lZTxmJ6eoml9f4kRcZRpB6f4boOmvhQNA6mi2KIfNrzOEQrwH+GFJEwRU3CMh5BKaRM8jERZPgncOQf+4evPLsIos1RHD34wBrOjFJ5JfPwhmzQotTXC+a859hNrhBGu5b7kDfebPk0qbVmNLfTF9ZbALh6zSSWKqNltoqMPYoGIR35dElJhVM08Uh1XYfYs9qWlAbB1+rpFBNEE+d83rwTEwP0+f+lTa82YkHBVehxjwNuWkCxG+DGNsaj1NNWTSr9x6cXFLNzsn207bVw6RUMIQzLzvZE+I1rOWIvFC/+Q7ZmxMH6zPnyB1NGfCdnc+7mSrBeyc6TctTqtnuMx8g3E0Nm4pL0PVpH/GxSSZtT45yPUZtwEkqFQ7cUgRr4+Ogx8mE4ql5qOmziIR3M7hu3nxsVkhk9MT9Sent59AyS+CT801W75AO3LlrgVNSKzAyKIc48Tkgax9LB9crMMYxWRjwLIWkeIdBeOYadOdx8bWdAmnXbCf2FZW1+y3jUfqJNPU/UFlbV+dDuNkuoHMqteaQXxu0YTUJ4Wfgjq6DuIMvJ4xz5+KIOCIzehhXruWAhKACN84eQ5dtpjBsrg4x/q6odKMJ1J14BJqdMMpeVrjv1L94vVP7hfmKXdCyXBfW2p+lVhOJeCyoHO/OvcENT1VJZ7g6rzs0HlBtMWvovRUXdO6BCXlnvLXFkuwjb2vF0+tAdaMe8N5a0oWTfVDkqwL8+R0kLXmUZHpEM6490eh37zFO1LwjNUkLyNYabbblzxGM9o1hTpVNM7mzUig1LsXetslEiV0sNpbdIp5fHFF1wA9snVh8UL2cSS0yo14r/qaGDhvgfPJWJlFZGvZeqwePyClW98RV+PukDdqNyaGtqwQvdywUN0Z44efBq5A8mQEqYXnsSIEtHnARkXLOEdrgV0EVpe/Tznw54ScpdWgyVSLbTZuIqW8turcXY0njRTZ+xgAMMrXI5ac+cO56BqmKqIIPWUKiN8DA8RdLwNkyEGUSpIRZXXmo2CaNfy3ajA0Z9URiUJYmjCpAr8lnRpC5ETTeiuBafRLT+rGF+jsEo9HRRgzUMRVWFnhyNYb2EaOz0kKnyIfEfzic4adkgn28BnzZUwjV5hkkkJ9BzftTaEK4jJBdXEI2x+XQh2H5GKDihX2r54jPMgcQ/7YBrAOT0Mo6BP1jbRk3Qw/aZTUDObEi2hR1FNt/O4zpsxfZUzV3yaXQfHB8UAn8uf04tqKey3Esg4k1HVicnQ1uJbJ0Qjmaqj2bg44Lw/RYKYslHVK8ZXtFsDhvDZTbJeBwsAR497rABotmfMBppiaPU1jBvuMsnxgKzVTEoCVHErqUtWGBbz0ZnCeG9YIx6truCrcGLMDKvwbZKWWYDj9M1ar5MK6siXnPyiHJP5OMemSTBQa66OzEZ1vSDajsL4okdvsjksivQP1UB1w0k0rj9R+jU0UaFCT8QbYqpaGf0hXof1D8vdW78fegx/hEkEO39a+kfwVvAdOlR+C2cRk7fqgVxLsNQLBBhneBDpNdqzWI5Dk1DLwgA1Y/XuGGOtaR2HA/7Nk/woqJDFBq7gr2eauTzYIGuqvoK3Fw+/6n1DfsdpODdGnBAzJuIsLDAV9I2vgvuLD8JvoplMC6qgw6KXUGq1p+hmdqbTT6sSpmFBugdI04fZRrR6qcNXhKPFnsB2PwExVibuImVDxYivLjBNpnukjU4XdkkX8oe/1JEfjc52HYnDHw6qKpGDIwlB6BPR5TVLCKIxyQuUe50r00XWQilKtXhz72PXpJtDO6Bu/JUqtC+jrMUGg1MExOVMXgligb+He0JE8pfw6qwqpA1uw8/gNQSwMELQAAAAgAAAAhALOi7M3//////////wkAFABzYV9iMi5ucHkBABAAwAAAAAAAAACJAAAAAAAAAJvsF+obEMnIUMZQrZ6SWpxcpG6loG6TZqKuo6Cell9UUpSYF59flJIKEndLzClOBYoXZyQWpAL5GoZmOpo6CrUK5AMu5swdu6L+luy9v91v7xeNUqvz7tw2rhO+2VQ77rG5eEhsL9PWZsuVf5isb5z12LvndZK1UtZf6zkpFjYn1Pl3P57wcDcAUEsDBC0AAAAIAAAAIQCGNn8h//////////8JABQAc2FfVzMubnB5AQAQAIABAAAAAAAAVQEAAAAAAACb7BfqGxDJyFDGUK2eklqcXKRupaBuk2airqOgnpZfVFKUmBefX5SSChJ3S8wpTgWKF2ckFqQC+RqGZjoKJpo6CrUK5AKutdwJ+5TuC9rdru3YV5GjZv+k/ayNRsSsfTvXbtiX7ithN7tqhm2zPOf+dylrbB5v3r/vQPPvvas14vbO6+22FW1ZZBv88uKeBYIq9s4TT9vxZ5+yDRLh2P/ftcju7Uu7faZc9vvCfnHvvxbaso/nsc0+yf2F++4yTberenDbVk+Xe1/WB3a7UgP2fYGZK/ZlHP5ptyr0l22o3Cy777s37rkU+8LubqKU/To7VzuWJUvtZilM2ld0W37f1CSJfVE5bftufHtiW7TGym7h3fZ9X39225oW9+2r/HPPLv6+9v63mZv3aenx7j+wmt1WyNLbzl+u107y8RE7MS6NfS6s6+yY3n23q7+RY2dRKL8PAFBLAwQtAAAACAAAACEA1pDOWP//////////CQAUAHNhX2IzLm5weQEAEACQAAAAAAAAAFUAAAAAAAAAm+wX6hsQychQxlCtnpJanFykbqWgbpNmoq6joJ6WX1RSlJgXn1+UkgoSd0vMKU4FihdnJBakAvkaJjqaOgq1ChQArlBj633XMjfZiorssDXq2WcNAFBLAwQtAAAACAAAACEAv650vf//////////DQAUAGZlYXRfbWVhbi5ucHkBABAAHAEAAAAAAADRAAAAAAAAAJvsF+obEMnIUMZQrZ6SWpxcpG6loG6TZqKuo6Cell9UUpSYF59flJIKEndLzClOBYoXZyQWpAL5GsaWOpo6CrUK5AOu2Qud7DbfkHBglVxiX8boYL+2Z499hUiKfdMJVvvsqmr79LYJdpoTBB1MZx2w15ITts+6KW5fGv7ebsnVVDsGhgZ7Bigw3sdgH/GX1V5FbbfdVbflthVHuOzbZm2zg8l3SHwFs9ViLO23uPfaCXUy2C/o+2HX57zeboPDKtuDNX/sZLeds4Wpb0y+ZgcAUEsDBC0AAAAIAAAAIQD1pYl7//////////8MABQAZmVhdF9zdGQubnB5AQAQABwBAAAAAAAAzgAAAAAAAACb7BfqGxDJyFDGUK2eklqcXKRupaBuk2airqOgnpZfVFKUmBefX5SSChJ3S8wpTgWKF2ckFqQC+RrGljqaOgq1CuQDrl3mxXbPf9y0d7opam95e76dtXOa/XvGZ3byP2rtEtcusv++/JidJPsW++1bmu1VdwjZVdvJ2DFsN7PLVnG0Lz+jbQTDM0/Pt+s+M9du4aEftneMptue9Jli99Am3g4mL7P1P5i96e4TOxCeWLbYTsZvkd27eQx2/pnVtjY/p9ptUA+Hq29Y98cOAFBLAQItAC0AAAAIAAAAIQCiL5ChbCQAAIAnAAAJAAAAAAAAAAAAAACAAQAAAAB0c19XMS5ucHlQSwECLQAtAAAACAAAACEA6MMWRlMBAACAAQAACQAAAAAAAAAAAAAAgAGnJAAAdHNfYjEubnB5UEsBAi0ALQAAAAgAAAAhAA305vgVHgAAgCAAAAkAAAAAAAAAAAAAAIABNSYAAHRzX1cyLm5weVBLAQItAC0AAAAIAAAAIQBoTP1UzAAAAAABAAAJAAAAAAAAAAAAAACAAYVEAAB0c19iMi5ucHlQSwECLQAtAAAACAAAACEAXybCPM4AAAAAAQAACQAAAAAAAAAAAAAAgAGMRQAAdHNfVzMubnB5UEsBAi0ALQAAAAgAAAAhAASg1PBIAAAAhAAAAAkAAAAAAAAAAAAAAIABlUYAAHRzX2IzLm5weVBLAQItAC0AAAAIAAAAIQAuGy2j9RIAAIAUAAAJAAAAAAAAAAAAAACAARhHAABzYV9XMS5ucHlQSwECLQAtAAAACAAAACEAaH8JhswAAAAAAQAACQAAAAAAAAAAAAAAgAFIWgAAc2FfYjEubnB5UEsBAi0ALQAAAAgAAAAhACozq5bnBwAAgAgAAAkAAAAAAAAAAAAAAIABT1sAAHNhX1cyLm5weVBLAQItAC0AAAAIAAAAIQCzouzNiQAAAMAAAAAJAAAAAAAAAAAAAACAAXFjAABzYV9iMi5ucHlQSwECLQAtAAAACAAAACEAhjZ/IVUBAACAAQAACQAAAAAAAAAAAAAAgAE1ZAAAc2FfVzMubnB5UEsBAi0ALQAAAAgAAAAhANaQzlhVAAAAkAAAAAkAAAAAAAAAAAAAAIABxWUAAHNhX2IzLm5weVBLAQItAC0AAAAIAAAAIQC/rnS90QAAABwBAAANAAAAAAAAAAAAAACAAVVmAABmZWF0X21lYW4ubnB5UEsBAi0ALQAAAAgAAAAhAPWliXvOAAAAHAEAAAwAAAAAAAAAAAAAAIABZWcAAGZlYXRfc3RkLm5weVBLBQYAAAAADgAOAAkDAABxaAAAAAA="

_POLICY_MODEL = None

def _load_policy_model():
    global _POLICY_MODEL
    if _POLICY_MODEL is not None:
        return _POLICY_MODEL
    if not _HAS_NUMPY:
        return None
    try:
        raw = base64.b64decode(_POLICY_B64)
        buf = io.BytesIO(raw)
        data = np.load(buf)
        _POLICY_MODEL = {k: data[k] for k in data.files}
        return _POLICY_MODEL
    except Exception:
        return None


def _neural_target_score(global_feats, source_feats, target_feats):
    """Score a (source, target) pair using the trained TargetScorer.
    Returns attack probability [0,1] or None if model unavailable."""
    model = _load_policy_model()
    if model is None:
        return None
    try:
        pair = np.concatenate([global_feats, source_feats, target_feats]).reshape(1, -1)
        pair = (pair - model['feat_mean']) / (model['feat_std'] + 1e-8)
        z1 = pair @ model['ts_W1'] + model['ts_b1']
        a1 = np.maximum(0, z1)
        z2 = a1 @ model['ts_W2'] + model['ts_b2']
        a2 = np.maximum(0, z2)
        z3 = a2 @ model['ts_W3'] + model['ts_b3']
        return float(1.0 / (1.0 + np.exp(-np.clip(z3, -20, 20)))[0, 0])
    except Exception:
        return None


def _build_planet_features(planet, player, planets):
    """Build per-planet feature vector (12 dims) matching training format."""
    is_mine = 1.0 if planet.owner == player else 0.0
    is_enemy = 1.0 if planet.owner >= 0 and planet.owner != player else 0.0
    is_neutral = 1.0 if planet.owner == -1 else 0.0
    d_enemy = 999.0
    for ep in planets:
        if ep.owner >= 0 and ep.owner != player:
            d = _dist(planet.x, planet.y, ep.x, ep.y)
            if d < d_enemy:
                d_enemy = d
    orbital_r = _dist(planet.x, planet.y, CENTER_X, CENTER_Y)
    is_orb = 1.0 if orbital_r + planet.radius < ROTATION_LIMIT else 0.0
    return np.array([
        is_mine, is_enemy, is_neutral,
        planet.x / BOARD_SIZE, planet.y / BOARD_SIZE,
        planet.radius / 5.0, min(planet.ships, 500) / 500.0,
        planet.production / 5.0, min(d_enemy, 100.0) / 100.0,
        0.0, 0.0, is_orb,
    ], dtype=np.float32)


def _build_global_features(world):
    """Build global feature vector (15 dims) matching training format."""
    player = world.player
    my_ships = my_prod = my_count = 0
    enemy_ships = enemy_prod = enemy_count = 0
    neutral_ships = neutral_count = 0
    nearest_enemy = 999.0
    for p in world.planets:
        if p.owner == player:
            my_ships += p.ships; my_prod += p.production; my_count += 1
        elif p.owner == -1:
            neutral_ships += p.ships; neutral_count += 1
        else:
            enemy_ships += p.ships; enemy_prod += p.production; enemy_count += 1
    for p in world.my_planets:
        for e in world.enemy_planets:
            d = _dist(p.x, p.y, e.x, e.y)
            if d < nearest_enemy:
                nearest_enemy = d
    my_fships = enemy_fships = 0
    for f in world.fleets:
        if f.owner == player: my_fships += f.ships
        elif f.owner >= 0: enemy_fships += f.ships
    total_my = my_ships + my_fships
    total_enemy = enemy_ships + enemy_fships
    total_prod = my_prod + enemy_prod + 1
    total_planets = my_count + enemy_count + neutral_count + 1
    return np.array([
        world.step / 500.0, total_my / 500.0, my_prod / 30.0, my_count / 20.0,
        total_enemy / 500.0, enemy_prod / 30.0, enemy_count / 20.0,
        neutral_ships / 200.0, neutral_count / 20.0,
        my_fships / 200.0, enemy_fships / 200.0,
        my_prod / total_prod, total_my / max(1, total_my + total_enemy),
        my_count / total_planets, nearest_enemy / 100.0,
    ], dtype=np.float32)


# ============================================================
# GAME MEMORY
# ============================================================

_MEMORY = {
    "turn": -1,
    "last_obs_step": -1,
    "pending_launches": [],
    "strike_target": defaultdict(int),
    "blacklist": {},
    "capture_buffer_mult": 1.0,
    "path_tolerance": 0.25,
    "tracked_planets": {},
    "last_decisions": [],
    # V10: vulture tracking
    "prev_planet_owners": {},  # planet_id -> owner last turn
    "vulture_targets": {},     # planet_id -> (new_owner, flip_turn, garrison_est)
    # V10: consolidation
    "empire_history": [],
    "consolidate_until": -1,
}


def _reset_memory():
    _MEMORY["turn"] = -1
    _MEMORY["last_obs_step"] = -1
    _MEMORY["pending_launches"] = []
    _MEMORY["strike_target"] = defaultdict(int)
    _MEMORY["blacklist"] = {}
    _MEMORY["capture_buffer_mult"] = 1.0
    _MEMORY["path_tolerance"] = 0.25
    _MEMORY["tracked_planets"] = {}
    _MEMORY["last_decisions"] = []
    _MEMORY["prev_planet_owners"] = {}
    _MEMORY["vulture_targets"] = {}
    _MEMORY["empire_history"] = []
    _MEMORY["consolidate_until"] = -1


# ============================================================
# UTILITY MATH (preserved from V3 — battle-tested)
# ============================================================

def _obs_get(obs, key, default=None):
    if isinstance(obs, dict):
        return obs.get(key, default)
    return getattr(obs, key, default)


def _as_planets(raw):
    return [Planet(int(p[0]), int(p[1]), float(p[2]), float(p[3]),
                   float(p[4]), int(p[5]), int(p[6])) for p in raw]


def _as_fleets(raw):
    return [Fleet(int(f[0]), int(f[1]), float(f[2]), float(f[3]),
                  float(f[4]), int(f[5]), int(f[6])) for f in raw]


def _dist(ax, ay, bx, by):
    return math.hypot(ax - bx, ay - by)


def _fleet_speed(ships):
    ships = max(1, int(ships))
    scale = min(1.0, max(0.0, math.log(ships) / math.log(1000.0)))
    return 1.0 + (MAX_SPEED - 1.0) * (scale ** 1.5)


def _segment_circle_distance_sq(ax, ay, bx, by, cx, cy):
    dx = bx - ax
    dy = by - ay
    denom = dx * dx + dy * dy
    if denom <= RAY_EPS:
        return (ax - cx) ** 2 + (ay - cy) ** 2
    t = ((cx - ax) * dx + (cy - ay) * dy) / denom
    t = max(0.0, min(1.0, t))
    px = ax + t * dx
    py = ay + t * dy
    return (px - cx) ** 2 + (py - cy) ** 2


def _is_orbiting(planet):
    return _dist(planet.x, planet.y, CENTER_X, CENTER_Y) + planet.radius < ROTATION_LIMIT


def _rotate_point(x, y, turns, angular_velocity):
    if abs(angular_velocity) <= RAY_EPS or turns <= 0.0:
        return x, y
    dx = x - CENTER_X
    dy = y - CENTER_Y
    angle = angular_velocity * turns
    ca = math.cos(angle)
    sa = math.sin(angle)
    return CENTER_X + dx * ca - dy * sa, CENTER_Y + dx * sa + dy * ca


def _build_comet_paths(obs):
    comet_paths = {}
    raw_groups = _obs_get(obs, "comets", []) or []
    for group in raw_groups:
        if isinstance(group, dict):
            planet_ids = group.get("planet_ids", []) or []
            paths = group.get("paths", []) or []
            path_index = int(group.get("path_index", 0) or 0)
        else:
            planet_ids = getattr(group, "planet_ids", []) or []
            paths = getattr(group, "paths", []) or []
            path_index = int(getattr(group, "path_index", 0) or 0)
        for i, planet_id in enumerate(planet_ids):
            if i < len(paths):
                comet_paths[int(planet_id)] = (paths[i], path_index)
    return comet_paths


def _predict_position(planet, turns, angular_velocity, comet_paths):
    comet_data = comet_paths.get(planet.id)
    if comet_data:
        path, index = comet_data
        if path:
            target_index = int(round(index + max(0.0, turns)))
            target_index = min(len(path) - 1, max(0, target_index))
            point = path[target_index]
            return float(point[0]), float(point[1])
    if _is_orbiting(planet):
        return _rotate_point(planet.x, planet.y, turns, angular_velocity)
    return planet.x, planet.y


def _comet_remaining_turns(planet, comet_paths):
    data = comet_paths.get(planet.id)
    if not data:
        return 999
    path, index = data
    return max(0, len(path) - int(index) - 1) if path else 0


def _line_hits_sun(ax, ay, bx, by):
    limit = SUN_RADIUS + 0.35
    return _segment_circle_distance_sq(ax, ay, bx, by, CENTER_X, CENTER_Y) <= limit * limit


def _path_is_clear(source, target, tx, ty, planets, tolerance=0.25):
    if _line_hits_sun(source.x, source.y, tx, ty):
        return False
    dx = tx - source.x
    dy = ty - source.y
    length_sq = dx * dx + dy * dy
    if length_sq <= RAY_EPS:
        return False
    for p in planets:
        if p.id == source.id or p.id == target.id:
            continue
        along = ((p.x - source.x) * dx + (p.y - source.y) * dy) / length_sq
        if along <= 0.03 or along >= 0.97:
            continue
        radius = p.radius + tolerance
        if _segment_circle_distance_sq(source.x, source.y, tx, ty, p.x, p.y) <= radius * radius:
            return False
    return True


def _aim_solution(source, target, ships, angular_velocity, comet_paths, planets, tolerance):
    eta = _dist(source.x, source.y, target.x, target.y) / _fleet_speed(ships)
    tx, ty = target.x, target.y
    for _ in range(4):
        tx, ty = _predict_position(target, eta, angular_velocity, comet_paths)
        eta = _dist(source.x, source.y, tx, ty) / _fleet_speed(ships)
    if not _path_is_clear(source, target, tx, ty, planets, tolerance):
        return None
    return math.atan2(ty - source.y, tx - source.x), eta, tx, ty


def _first_hit_for_fleet(fleet, planets, angular_velocity, comet_paths, horizon=45):
    speed = _fleet_speed(fleet.ships)
    ux = math.cos(fleet.angle)
    uy = math.sin(fleet.angle)
    px = fleet.x
    py = fleet.y
    for turn in range(1, horizon + 1):
        nx = fleet.x + ux * speed * turn
        ny = fleet.y + uy * speed * turn
        if nx < 0.0 or nx > BOARD_SIZE or ny < 0.0 or ny > BOARD_SIZE:
            return None
        if _line_hits_sun(px, py, nx, ny):
            return None
        best = None
        best_dist = float("inf")
        for p in planets:
            if p.id == fleet.from_planet_id:
                continue
            tx, ty = _predict_position(p, turn, angular_velocity, comet_paths)
            radius = p.radius + 0.35
            d_sq = _segment_circle_distance_sq(px, py, nx, ny, tx, ty)
            if d_sq <= radius * radius:
                d = _dist(px, py, tx, ty)
                if d < best_dist:
                    best = p
                    best_dist = d
        if best is not None:
            return best.id, turn
        px, py = nx, ny
    return None


# ============================================================
# V10: VULTURE TRACKING
# ============================================================

def _update_vulture_targets(world):
    """Detect planets that just changed hands between enemies -> vulture opportunity."""
    prev = _MEMORY.get("prev_planet_owners", {})
    vulture = _MEMORY["vulture_targets"]
    turn = world.step

    # Expire old vulture targets (stale after 8 turns)
    expired = [pid for pid, (_, ft, _) in vulture.items() if turn - ft > 8]
    for pid in expired:
        del vulture[pid]

    for p in world.planets:
        old_owner = prev.get(p.id, p.owner)
        if old_owner != p.owner and old_owner >= 0 and p.owner >= 0:
            # Planet flipped between two enemies — neither is us
            if old_owner != world.player and p.owner != world.player:
                vulture[p.id] = (p.owner, turn, p.ships)

    # Update prev for next turn
    _MEMORY["prev_planet_owners"] = {p.id: p.owner for p in world.planets}


# ============================================================
# V10: CONSOLIDATION
# ============================================================

def _update_empire_stability(world):
    """Trigger short consolidation after sharp frontier loss."""
    my_planets = len(world.my_planets)
    my_prod = sum(p.production for p in world.my_planets)
    my_total = sum(p.ships for p in world.my_planets)
    my_total += sum(f.ships for f in world.fleets if f.owner == world.player)

    history = _MEMORY["empire_history"]
    history.append((world.step, my_planets, my_prod, my_total))
    cutoff = world.step - 36
    _MEMORY["empire_history"] = [h for h in history if h[0] >= cutoff]

    if world.step < 55 or my_planets <= 0:
        return
    recent = [h for h in _MEMORY["empire_history"] if h[0] >= world.step - 28]
    if not recent:
        return
    peak = max(recent, key=lambda h: (h[1], h[2], h[3]))
    if peak[1] >= 10 and my_planets <= peak[1] - 3:
        until = world.step + 18
        if until > _MEMORY.get("consolidate_until", -1):
            _MEMORY["consolidate_until"] = until
            _log("consolidate_trigger", peak_planets=peak[1], current=my_planets)


# ============================================================
# BITACORA (stderr JSONL; Kaggle captures into agent logs)
# ============================================================

def _log(event, **fields):
    try:
        record = {"turn": _MEMORY.get("turn", -1), "event": event}
        record.update(fields)
        sys.stderr.write(json.dumps(record) + "\n")
    except Exception:
        pass


# ============================================================
# OBSERVE
# ============================================================

class WorldState:
    __slots__ = (
        "player", "step", "angular_velocity",
        "planets", "fleets", "planet_by_id",
        "my_planets", "enemy_planets", "neutral_planets",
        "comet_paths", "fleet_forecasts",
    )

    def __init__(self, obs):
        self.player = int(_obs_get(obs, "player", 0) or 0)
        self.step = int(_obs_get(obs, "step", 0) or 0)
        self.angular_velocity = float(_obs_get(obs, "angular_velocity", 0.0) or 0.0)
        self.planets = _as_planets(_obs_get(obs, "planets", []) or [])
        self.fleets = _as_fleets(_obs_get(obs, "fleets", []) or [])
        self.comet_paths = _build_comet_paths(obs)
        self.planet_by_id = {p.id: p for p in self.planets}

        self.my_planets = [p for p in self.planets if p.owner == self.player]
        self.enemy_planets = [p for p in self.planets
                              if p.owner not in (-1, self.player)]
        self.neutral_planets = [p for p in self.planets if p.owner == -1]

        self.fleet_forecasts = {}
        for fleet in self.fleets:
            hit = _first_hit_for_fleet(fleet, self.planets,
                                       self.angular_velocity, self.comet_paths)
            if hit is not None:
                self.fleet_forecasts[fleet.id] = hit


# ============================================================
# ORIENT
# ============================================================

class Context:
    __slots__ = (
        "world",
        "friendly_to_enemy", "friendly_to_mine",
        "enemy_to_mine", "enemy_eta_to_mine",
        "owner_power", "leader_owner", "active_owners",
        "is_duel", "duel_opening", "ffa_opening", "ffa_behind", "ffa_stalled",
        "surplus_by_id", "reserve_by_id",
        "target_scores", "win_prob", "consolidating",
        "_global_feats", "_planet_feats_cache",
    )

    def __init__(self, world):
        self.world = world
        self.win_prob = _evaluate_position(world)
        self.consolidating = _MEMORY.get("consolidate_until", -1) > world.step
        self._build_fleet_commitments()
        self._build_power_table()
        self._build_reserves_and_surplus()
        self._score_targets()


    def _build_fleet_commitments(self):
        w = self.world
        self.friendly_to_enemy = defaultdict(int)
        self.friendly_to_mine = defaultdict(int)
        self.enemy_to_mine = defaultdict(int)
        self.enemy_eta_to_mine = {}

        for fleet in w.fleets:
            hit = w.fleet_forecasts.get(fleet.id)
            if hit is None:
                continue
            target_id, eta = hit
            target = w.planet_by_id.get(target_id)
            if target is None:
                continue

            if fleet.owner == w.player:
                if target.owner == w.player:
                    self.friendly_to_mine[target_id] += fleet.ships
                else:
                    self.friendly_to_enemy[target_id] += fleet.ships
            elif target.owner == w.player:
                self.enemy_to_mine[target_id] += fleet.ships
                prev = self.enemy_eta_to_mine.get(target_id, eta)
                self.enemy_eta_to_mine[target_id] = min(prev, eta)


    def _build_power_table(self):
        w = self.world
        power = defaultdict(float)
        for p in w.planets:
            if p.owner >= 0:
                power[p.owner] += p.ships + p.production * 18.0
        for f in w.fleets:
            if f.owner >= 0:
                power[f.owner] += f.ships
        self.owner_power = dict(power)
        self.active_owners = sorted(power)
        self.is_duel = len(self.active_owners) <= 2
        self.duel_opening = self.is_duel and w.step < 45
        enemies = [o for o in power if o != w.player]
        self.leader_owner = max(enemies, key=lambda o: power[o]) if enemies else -1
        leader_power = power.get(self.leader_owner, 0.0)
        my_power = power.get(w.player, 0.0)
        self.ffa_opening = (not self.is_duel) and w.step < 72
        self.ffa_behind = (
            (not self.is_duel) and
            70 <= w.step < 155 and
            self.leader_owner != -1 and
            my_power < leader_power * 0.80
        )
        my_prod = sum(p.production for p in w.my_planets)
        self.ffa_stalled = False


    def _build_reserves_and_surplus(self):
        w = self.world
        self.reserve_by_id = {}
        self.surplus_by_id = {}
        for p in w.my_planets:
            nearest_enemy = min(
                (_dist(p.x, p.y, e.x, e.y) for e in w.enemy_planets),
                default=999.0,
            )
            reserve = self._reserve_for(p, nearest_enemy)
            self.reserve_by_id[p.id] = reserve
            self.surplus_by_id[p.id] = max(0, p.ships - reserve)


    def _reserve_for(self, planet, nearest_enemy):
        """Dynamic reserve — V10: winner-calibrated (lower during expansion)."""
        w = self.world
        step = w.step
        incoming = self.enemy_to_mine.get(planet.id, 0)

        # V10: consolidation adds a soft reserve floor
        consolidation_floor = 0
        if self.consolidating and step >= 55 and incoming <= 0:
            if nearest_enemy < 34.0:
                consolidation_floor = planet.production * 2 + 4
            else:
                consolidation_floor = planet.production + 2

        # Very early game: skeleton crew while we expand.
        if step < 12 and incoming <= 0:
            return 1

        if self.duel_opening and incoming <= 0:
            if step < 22:
                return 1
            return max(1, planet.production // 2)

        # V10: FFA opening reserves slightly lowered from V7 but not as aggressive as initial V10
        if self.ffa_opening and incoming <= 0:
            if nearest_enemy < 18.0:
                return max(3, planet.production, consolidation_floor)
            if step < 48:
                return max(1, planet.production // 2, consolidation_floor)
            return max(2, planet.production, consolidation_floor)

        if self.ffa_behind and incoming <= 0 and nearest_enemy >= 28.0:
            return max(3, planet.production + 1, consolidation_floor)

        if len(w.my_planets) <= 2 and step < 60 and incoming <= 0:
            return max(1, planet.production // 2, consolidation_floor)

        if step < 90 and incoming <= 0:
            return max(2, planet.production, consolidation_floor)

        base = max(4, 2 + planet.production)
        if step >= 80:
            base = max(base, 7 + planet.production * 2)
        if step >= 130:
            base = max(base, 10 + planet.production * 3)
        if nearest_enemy < 25.0:
            base += 4
        elif nearest_enemy < 38.0:
            base += 2
        base = max(base, consolidation_floor)

        if incoming <= 0:
            return base

        eta = self.enemy_eta_to_mine.get(planet.id, 12)
        produced = int(max(0, eta - 1) * planet.production)
        return max(base, incoming + 3 - produced)


    def _score_targets(self):
        """Pre-score targets: heuristic base + neural bonus (V11)."""
        w = self.world
        self.target_scores = {}

        # V12: only pay neural feature cost where the policy is allowed to vote.
        if _HAS_NUMPY and self.is_duel and not self.duel_opening:
            self._global_feats = _build_global_features(w)
            self._planet_feats_cache = {}
            for p in w.planets:
                self._planet_feats_cache[p.id] = _build_planet_features(p, w.player, w.planets)
        else:
            self._global_feats = None

        for t in w.planets:
            if t.owner == w.player:
                continue
            if t.id in _MEMORY["blacklist"] and _MEMORY["blacklist"][t.id] > _MEMORY["turn"]:
                continue
            base = t.production * (92.0 if t.owner == -1 else 118.0)
            if self.duel_opening and t.owner == -1:
                base += t.production * 70.0
                base += max(0.0, 18.0 - t.ships) * 2.2
            if self.ffa_opening and t.owner == -1:
                base += t.production * 26.0
                base += max(0.0, 18.0 - t.ships) * 0.9
                if t.production >= 3 and t.ships <= 16:
                    base += 24.0
            if self.ffa_behind and t.owner == self.leader_owner:
                base += 110.0
            if t.owner == self.leader_owner:
                base += 72.0
            elif t.owner not in (-1, w.player):
                base += min(42.0, self.owner_power.get(t.owner, 0.0) / 45.0)
            base += max(0.0, 30.0 - t.ships) * 0.9
            if t.id in w.comet_paths:
                remaining = _comet_remaining_turns(t, w.comet_paths)
                base -= 80.0 if remaining < 28 else 18.0

            # V10: vulture bonus — planets recently taken in inter-enemy fighting
            if t.id in _MEMORY["vulture_targets"]:
                _, flip_turn, est_garrison = _MEMORY["vulture_targets"][t.id]
                recency = max(0, 8 - (w.step - flip_turn))
                base += 65.0 * (recency / 8.0)
                if t.ships <= est_garrison + 3:
                    base += 30.0  # garrison hasn't recovered

            # V10: value-based adjustment — when behind, be slightly more aggressive
            if self.win_prob < 0.35 and not self.is_duel:
                if t.owner >= 0 and t.owner != w.player:
                    base += 15.0 * (0.35 - self.win_prob)
            elif self.win_prob > 0.65 and self.consolidating:
                if t.owner == -1:
                    base -= 15.0 * (self.win_prob - 0.65)

            # V12: ladder data kept the neural policy as a duel advisor only.
            # In FFA it overfit target preference and damaged survival.
            if self._global_feats is not None and self.is_duel and not self.duel_opening:
                # Average neural score across owned planets as sources
                neural_scores = []
                for src in w.my_planets[:8]:  # limit for speed
                    src_f = self._planet_feats_cache.get(src.id)
                    tgt_f = self._planet_feats_cache.get(t.id)
                    if src_f is not None and tgt_f is not None:
                        ns = _neural_target_score(self._global_feats, src_f, tgt_f)
                        if ns is not None:
                            neural_scores.append(ns)
                if neural_scores:
                    avg_neural = sum(neural_scores) / len(neural_scores)
                    scale = 220.0 if not self.consolidating else 130.0
                    base += (avg_neural - 0.25) * scale

            self.target_scores[t.id] = base


    def capture_need(self, target, eta):
        w = self.world
        if target.owner == w.player:
            return 0
        if target.owner == -1:
            raw = target.ships + 1
        else:
            growth = int(math.ceil(max(0.0, eta - 1.0) * target.production))
            raw = target.ships + growth + 1
        already_sent = self.friendly_to_enemy.get(target.id, 0)
        remaining = max(0, raw - already_sent)
        return int(math.ceil(remaining * _MEMORY["capture_buffer_mult"]))


# ============================================================
# DECIDE — priority cascade with multi-source coordination
# ============================================================

PRI_EMERGENCY = 0
PRI_INTERCEPT = 1
PRI_DUEL_OPEN = 2
PRI_VULTURE   = 3   # V10: between DUEL_OPEN and REINFORCE
PRI_REINFORCE = 3
PRI_SNIPE     = 4
PRI_PRESSURE  = 5
PRI_EXPAND    = 6


def _min_launch_size(step):
    # V10: slightly bigger minimum fleets (winners avg 15.6 vs our 11.1)
    if step < 30:
        return 4
    if step < 90:
        return 6
    return 7


def _concentration_minimum(target, step):
    if target.owner == -1:
        return 5 if step < 30 else 7
    return max(9, target.production * 3 + (7 if step >= 80 else 0))


def decide(world, ctx):
    """Priority cascade with V10 multi-source coordination."""
    decisions = []

    # ------- Priority 0: EMERGENCY_DEFEND -------
    threatened = []
    for p in world.my_planets:
        incoming = ctx.enemy_to_mine.get(p.id, 0)
        if incoming <= 0:
            continue
        eta = ctx.enemy_eta_to_mine.get(p.id, 12)
        defenders = p.ships + int(max(0, eta - 1) * p.production)
        defenders += ctx.friendly_to_mine.get(p.id, 0)
        deficit = incoming + 2 - defenders
        if deficit > 0:
            threatened.append((eta, deficit, p))

    threatened.sort(key=lambda t: t[0])

    used_surplus = defaultdict(int)
    for enemy_eta, deficit, target in threatened:
        supporters = sorted(
            (s for s in world.my_planets if s.id != target.id and
             ctx.surplus_by_id.get(s.id, 0) - used_surplus[s.id] > 0),
            key=lambda s: _dist(s.x, s.y, target.x, target.y),
        )
        need = deficit
        emergency_min = max(3, _min_launch_size(world.step) - 1)
        for source in supporters:
            if need <= 0:
                break
            avail = ctx.surplus_by_id.get(source.id, 0) - used_surplus[source.id]
            if avail < emergency_min:
                continue
            send = min(avail, max(need, emergency_min))
            aim = _aim_solution(source, target, send,
                                world.angular_velocity, world.comet_paths,
                                world.planets, _MEMORY["path_tolerance"])
            if aim is None:
                continue
            angle, arrival_eta, _, _ = aim
            if arrival_eta > enemy_eta + 3:
                continue
            decisions.append((PRI_EMERGENCY, TAG_EMERGENCY, source, target, int(send), angle))
            used_surplus[source.id] += send
            need -= send

    # ------- V10: Multi-source coordinated attacks -------
    coordinated_used = set()
    if not ctx.is_duel and not ctx.ffa_opening and len(world.my_planets) >= 5:
        coord_decisions = _find_coordinated_attacks(world, ctx, used_surplus)
        for cd in coord_decisions:
            decisions.append(cd)
            coordinated_used.add(cd[2].id)  # mark source as used

    # ------- Priority 1+: one action per source -------
    source_best = {}

    for source in world.my_planets:
        if source.id in coordinated_used:
            continue
        surplus = ctx.surplus_by_id.get(source.id, 0) - used_surplus[source.id]
        if surplus < _min_launch_size(world.step):
            continue

        best = _best_move_for_source(source, surplus, world, ctx)
        if best is not None:
            source_best[source.id] = best

    for source_id, move in source_best.items():
        decisions.append(move)

    if not decisions:
        decisions.append((99, TAG_STOCKPILE, None, None, 0, 0.0))

    return decisions


def _find_coordinated_attacks(world, ctx, used_surplus):
    """V10: Find high-value targets where 2-3 planets can converge."""
    step = world.step
    candidates = []

    for target in world.planets:
        if target.owner == world.player or target.owner == -1:
            continue
        score = ctx.target_scores.get(target.id, 0.0)
        if score < 150.0:
            continue  # only coordinate on high-value targets
        if target.id in _MEMORY["blacklist"] and _MEMORY["blacklist"][target.id] > _MEMORY["turn"]:
            continue

        # Find sources that can reach this target
        sources_for_target = []
        for source in world.my_planets:
            surplus = ctx.surplus_by_id.get(source.id, 0) - used_surplus.get(source.id, 0)
            if surplus < _min_launch_size(step) // 2:
                continue
            aim = _aim_solution(source, target, surplus,
                                world.angular_velocity, world.comet_paths,
                                world.planets, _MEMORY["path_tolerance"])
            if aim is None:
                continue
            angle, eta, _, _ = aim
            sources_for_target.append((source, surplus, angle, eta))

        if len(sources_for_target) < 2:
            continue

        # Check if combined force can capture but no single source can
        sources_for_target.sort(key=lambda s: s[3])  # sort by ETA
        total_avail = sum(s[1] for s in sources_for_target[:3])
        avg_eta = sum(s[3] for s in sources_for_target[:3]) / min(3, len(sources_for_target))
        need = ctx.capture_need(target, avg_eta)

        if need <= 0:
            continue
        # Only coordinate if no single source can do it alone but combined can
        max_single = max(s[1] for s in sources_for_target[:3])
        if max_single >= need:
            continue  # single source can handle it, no need to coordinate
        if total_avail < need:
            continue  # even combined can't do it

        candidates.append((score, target, sources_for_target[:3], need))

    # Pick the best coordinated target
    candidates.sort(key=lambda c: -c[0])
    results = []

    for score, target, sources, need in candidates[:1]:  # at most 1 coordinated attack per turn
        remaining_need = need
        for source, surplus, angle, eta in sources:
            if remaining_need <= 0:
                break
            send = min(surplus, remaining_need + 3)  # slight over-send for safety
            send = max(send, _min_launch_size(step) // 2)
            send = min(send, surplus)
            if send < 3:
                continue
            results.append((PRI_VULTURE, TAG_COORDINATED, source, target, int(send), angle))
            used_surplus[source.id] = used_surplus.get(source.id, 0) + send
            remaining_need -= send

    return results


def _best_move_for_source(source, surplus, world, ctx):
    """Find the single best move for this source. V10: includes vulture priority."""
    step = world.step
    best = None
    best_rank = (99, -1e18)

    for target in world.planets:
        if target.owner == world.player or target.id == source.id:
            continue
        if target.id in _MEMORY["blacklist"] and _MEMORY["blacklist"][target.id] > _MEMORY["turn"]:
            continue
        if target.id in world.comet_paths and _comet_remaining_turns(target, world.comet_paths) < 18:
            continue

        probe = max(_min_launch_size(step),
                    min(surplus, target.ships + target.production * 2 + 8))
        aim = _aim_solution(source, target, probe,
                            world.angular_velocity, world.comet_paths,
                            world.planets, _MEMORY["path_tolerance"])
        if aim is None:
            continue
        angle, eta, _, _ = aim

        need = ctx.capture_need(target, eta)
        if need <= 0:
            continue

        send = max(need, _concentration_minimum(target, step))
        buffer = max(2, int(math.ceil(need * (0.15 if target.owner == -1 else 0.25))))
        send = need + buffer if need + buffer > send else send
        send = min(send, surplus)
        if send < _min_launch_size(step) or send < need:
            continue

        # Classify the action — V10: vulture detection
        if target.owner == world.player:
            continue
        if _is_intercept_opportunity(target, eta, ctx, world):
            priority = PRI_INTERCEPT
            tag = TAG_INTERCEPT
        elif target.id in _MEMORY["vulture_targets"] and target.owner >= 0:
            priority = PRI_VULTURE
            tag = TAG_VULTURE
        elif ctx.duel_opening and target.owner == -1:
            priority = PRI_DUEL_OPEN
            tag = TAG_DUEL_OPEN
        elif target.owner == ctx.leader_owner and ctx.leader_owner != -1:
            priority = PRI_PRESSURE
            tag = TAG_PRESSURE
        elif target.owner == -1:
            if target.ships <= 8 and _dist(source.x, source.y, target.x, target.y) < 30:
                priority = PRI_EXPAND
                tag = TAG_EXPAND
            else:
                priority = PRI_SNIPE
                tag = TAG_SNIPE
        else:
            priority = PRI_SNIPE
            tag = TAG_SNIPE

        # Score inside the priority bucket.
        base = ctx.target_scores.get(target.id, 0.0)
        distance = max(1.0, _dist(source.x, source.y, target.x, target.y))
        if ctx.duel_opening and target.owner == -1:
            score = base - send * 1.2 - distance * 1.45 - eta * 2.0
            if target.production >= 3:
                score += 45.0
            if target.ships <= 12:
                score += 28.0
            score /= math.sqrt(max(1, send))
        elif ctx.ffa_opening and target.owner == -1:
            score = base - send * 1.55 - distance * 0.72 - eta * 1.35
            if target.production >= 3:
                score += 18.0
            if target.ships <= 14:
                score += 14.0
            score /= max(1.0, math.sqrt(max(1, send)) * 1.35)
        else:
            score = base - send * 1.9 - distance * 0.55 - eta * 1.2
            score /= max(1, send)

        rank = (priority, -score)
        if rank < best_rank:
            best_rank = rank
            best = (priority, tag, source, target, int(send), angle)

    return best


def _is_intercept_opportunity(target, my_eta, ctx, world):
    if target.owner != -1:
        return False
    for fleet in world.fleets:
        if fleet.owner == world.player:
            continue
        hit = world.fleet_forecasts.get(fleet.id)
        if hit is None:
            continue
        if hit[0] != target.id:
            continue
        enemy_eta = hit[1]
        if my_eta < enemy_eta + 2:
            return True
    return False


# ============================================================
# ACT — invariant firewall + emit moves
# ============================================================

def act(world, ctx, decisions):
    moves = []
    used_by_source = defaultdict(int)
    non_emergency_launched = set()
    tagged = []

    decisions.sort(key=lambda d: d[0])

    for priority, tag, source, target, ships, angle in decisions:
        if source is None or target is None or ships <= 0:
            continue

        # V10: relax I6 for coordinated attacks — allow multiple launches per source
        # if they target different planets via coordination
        if priority != PRI_EMERGENCY and tag != TAG_COORDINATED:
            if source.id in non_emergency_launched:
                continue

        planet_now = world.planet_by_id.get(source.id)
        if planet_now is None:
            continue
        already_used = used_by_source[source.id]
        actual_available = planet_now.ships - already_used

        if priority == PRI_EMERGENCY:
            max_send = actual_available
        else:
            reserve = ctx.reserve_by_id.get(source.id, 0)
            max_send = max(0, actual_available - reserve)

        min_launch = _min_launch_size(world.step)
        if tag == TAG_COORDINATED:
            min_launch = max(3, min_launch // 2)
        if max_send < min_launch:
            continue
        send = min(ships, max_send)

        if send <= 0 or send > planet_now.ships:
            continue

        aim = _aim_solution(source, target, send,
                            world.angular_velocity, world.comet_paths,
                            world.planets, _MEMORY["path_tolerance"])
        if aim is None:
            continue
        angle, eta, _, _ = aim

        moves.append([int(source.id), float(angle), int(send)])
        used_by_source[source.id] += send
        if priority != PRI_EMERGENCY and tag != TAG_COORDINATED:
            non_emergency_launched.add(source.id)

        tagged.append({
            "tag": tag,
            "priority": priority,
            "source": int(source.id),
            "target": int(target.id),
            "ships": int(send),
            "eta": float(eta),
            "target_owner": int(target.owner),
        })

    if tagged:
        _log("act", moves=tagged)

    _MEMORY["last_decisions"] = list(_MEMORY.get("last_decisions", [])) + tagged
    return moves


# ============================================================
# LEARN — 3-strike within-game adaptation
# ============================================================

def learn(world, ctx):
    turn = world.step
    _MEMORY["turn"] = turn

    expired = [tid for tid, release in _MEMORY["blacklist"].items() if release <= turn]
    for tid in expired:
        del _MEMORY["blacklist"][tid]

    last = _MEMORY.get("last_decisions", [])

    still_pending = []
    for d in last:
        if d["priority"] == PRI_EMERGENCY:
            continue
        if d["eta"] > 1.5:
            d["eta"] -= 1.0
            still_pending.append(d)
            continue

        target_id = d["target"]
        target_now = world.planet_by_id.get(target_id)
        if target_now is None:
            continue
        expected_owner = world.player

        if target_now.owner == expected_owner:
            if _MEMORY["strike_target"][target_id] > 0:
                _MEMORY["strike_target"][target_id] -= 1
            _log("learn_success", target=target_id, tag=d["tag"])
        else:
            _MEMORY["strike_target"][target_id] += 1
            strikes = _MEMORY["strike_target"][target_id]
            _log("learn_miss", target=target_id, tag=d["tag"], strikes=strikes,
                 expected_owner=expected_owner, actual_owner=int(target_now.owner))

            if strikes >= 3:
                _MEMORY["blacklist"][target_id] = turn + 25
                _MEMORY["strike_target"][target_id] = 0
                _MEMORY["capture_buffer_mult"] = min(1.6, _MEMORY["capture_buffer_mult"] + 0.08)
                _MEMORY["path_tolerance"] = min(0.55, _MEMORY["path_tolerance"] + 0.05)
                _log("learn_rewrite", target=target_id,
                     blacklist_until=turn + 25,
                     capture_mult=_MEMORY["capture_buffer_mult"],
                     path_tolerance=_MEMORY["path_tolerance"])

    _MEMORY["last_decisions"] = still_pending
    _MEMORY["tracked_planets"] = {p.id: (p.owner, p.ships) for p in world.planets}


# ============================================================
# AGENT ENTRY POINT
# ============================================================

def agent(obs):
    try:
        # OBSERVE
        world = WorldState(obs)

        last_step = _MEMORY.get("last_obs_step", -1)
        if last_step > world.step or (world.step <= 1 and last_step > 1):
            _reset_memory()

        # LEARN
        learn(world, None)
        _MEMORY["last_obs_step"] = world.step

        if not world.my_planets:
            _log("eliminated")
            return []
        if not world.enemy_planets and not world.neutral_planets:
            _log("sole_survivor")
            return []

        # V10: vulture and consolidation tracking
        _update_vulture_targets(world)
        _update_empire_stability(world)

        # ORIENT
        ctx = Context(world)

        # DECIDE
        decisions = decide(world, ctx)

        # ACT
        moves = act(world, ctx, decisions)

        if world.step % 25 == 0:
            _log("tick",
                 step=world.step,
                 my_planets=len(world.my_planets),
                 my_ships=sum(p.ships for p in world.my_planets),
                 leader=int(ctx.leader_owner),
                 win_prob=round(ctx.win_prob, 3),
                 consolidating=bool(ctx.consolidating),
                 capture_mult=_MEMORY["capture_buffer_mult"])

        return moves

    except Exception as e:
        _log("agent_error", error=repr(e))
        return []
