"""
Orbit Wars V13 — OODA-L + Offline RL hybrid agent.

Base: V7 gold-standard spine (duel-aware opening, restrained FFA tempo).

V13 additions (on V11 base):\n  - Diverse training data (500 mixed games)\n  - Neural ShipAllocator for dynamic fleet sizing\n  - FFA TargetScorer scaling reduced to prevent over-aggression
  - Embedded MLP value estimator (15->32->16->1, trained on 55 replays, 86% CV acc)
    used as a soft position-evaluation advisor in target scoring.
  - Multi-source coordination: allows 2-3 planets to converge on high-value targets.
  - Vulture logic: pounces on planets weakened by inter-opponent fighting.
  - Winner-calibrated parameters: lower reserves during expansion, bigger minimum
    fleets, and more aggressive multi-launch (based on winner vs loser replay analysis).
  - Consolidation posture: brief defensive mode after sharp frontier loss.

Architecture (adapted from the Julia OODA-L framework):
    OBSERVE  -> parse obs into WorldState, cache fleet-landing forecasts.
    ORIENT   -> build Context: threat map, capturable targets, leader, reserves,
                value estimate, vulture opportunities.
    DECIDE   -> priority cascade with multi-source coordination.
    ACT      -> invariant firewall validates every move before emit.
    LEARN    -> within-game 3-strike memory + failure classification.
"""

import base64
import io
import json
import math
import sys
from collections import defaultdict, namedtuple

try:
    import numpy as np
    _HAS_NUMPY = True
except ImportError:
    _HAS_NUMPY = False


# ============================================================
# CONSTANTS
# ============================================================

Planet = namedtuple("Planet", "id owner x y radius ships production")
Fleet = namedtuple("Fleet", "id owner x y angle from_planet_id ships")

CENTER_X = 50.0
CENTER_Y = 50.0
BOARD_SIZE = 100.0
SUN_RADIUS = 10.0
ROTATION_LIMIT = 50.0
MAX_SPEED = 6.0
RAY_EPS = 1e-9

# Decision tags for the bitacora.
TAG_EMERGENCY = "EMERGENCY_DEFEND"
TAG_INTERCEPT = "INTERCEPT"
TAG_VULTURE = "VULTURE"
TAG_DUEL_OPEN = "DUEL_OPENING"
TAG_REINFORCE = "REINFORCE"
TAG_SNIPE = "SNIPE_WEAK"
TAG_PRESSURE = "PRESSURE_LEADER"
TAG_EXPAND = "EXPAND_CHEAP"
TAG_STOCKPILE = "STOCKPILE"
TAG_COORDINATED = "COORDINATED"


# ============================================================
# VALUE ESTIMATOR (trained offline on 55 replays, 86% CV acc)
# ============================================================

_WEIGHTS_B64 = "UEsDBC0AAAAIAAAAIQAQ0ZgR//////////8GABQAVzEubnB5AQAQAIAPAAAAAAAAzg4AAAAAAACdVuk/FIrfVcnWIkuWSpRrjZTSqr7cipCscYsshRIhJBG5RZg7EW4h+7WF7NmXr3XswxjM2Gfs2Ukpil/Pv/Ccd+e8PZ+zhF2/oa17cwuLG4unlJW1y11nqXNiUso2Z6TkxKRsHJ1dnS0dzB2draz/T1eztHex/q273Ld0sv7NpY8ryYmdUJSRE/MS+3+Cy09AUd25JhMtHu0uHbKagJ7wyaFizjKo0i9JjsoYhpArvYuCbem4qvo8RCkzCI2cV/3IsxS4IznsqUftBLGTe6s/fknEF9IGF8hj05hoGEBn5t2A1B/83jIjFFjuutSca5qKJ7Um57346sDn2hjZVLMctGLPLdurMtCicP1zf1c3yARlisbLNGOlPemKUWYL+lllBaQ+aIIF9cBngysd+Oru3PuvlflA1TJuS6rvxv0FNiaBhfl49C7xPP9sBSpKQU+AewPaPNW67xTahWusIQrq7ikglvo22DwtDajqD5xSSZ2wNYoqOCFQi30RF+eSb39Ax7mTGvKLkzD4yKCmbSIPlo4n5O4WbYJg4yy2RGodfCRX7ti/fQyl9CQ3l2uzsG6m24L2bApDst+0lEd3A2lqDz85YwQuPkvIdDJqwt3+h4nsh6dgz+3Jd/xf+zBaSo/l/joDvxf7LNxuq4ef/iHtqmWd2MPm16FkX4eyB51el10agAmCqMdkbS8quU0b/BdUh0dbcjW7xd4j4Sj7IYmOSohT/tHK79sBdM8kcrZFCZZymE6Nq/VjP7HE4sbNPtA3ERB94rYI68ltqwErzdCoFKMwfqwVPldL3ec+XYkEn91vD8c2YC5lUWe2gIZfNS2/Ux5Uw2pfpIBsfS7aXqfNvNnVC8y5U5ITz3pwPiiqKHd5GNyj9ISICxU4aMMIpa634JPBwdlmFRLq/1QQ/ZrSjOXP+ZsV1Kaw8/z4RvZOMsicNzKU5R4AqxwL0Wj3QRCT69BqcSGB6yzqW6s0A9Nw+VtKyijOKIT4+J7KB/78pyYvXGgY8V6PJ8K5ClXGuM0WswegoLzihV/VU1hz539H4Z3HeE7dLI3HdBTM8WW5mN+OT/jePa1lK0apooRD7FM9cJpY5u15lgIHS/qucyQ3QHSLey/v3jIQbr3P0X+zBFcIxG+lsyScTrRtdqprg1GPC0dieDvgBucO9dI3TBBKqzPya82ErGTj1zsnyqAmXpQ2sI8JRNqpjDgOOi6Qnp/e3NYDmxOfWR8sUbD11Wvd1vUR2GbXPyw3xoCjIcWKtQ/GgCkjrBv1cBjudq/XNXh1wV778+O3jOn4prTmnKZnE5xebBeos6cDwfBnz9XLJOjKXDadLPmInJ9iK9teVMId7qV+X49q0Mi8eIx5iY7SNcU7NjzaoUrFIfzTUBNIPpQ4kB6biYLZ7GPnVMkQ6D5n/VCoD6bjX0qeNaFjY81gLbKPwL7GeUPtTDq8FNq+daycBgtnXD9bCPeDoOYP7kj/DtDWtfY4WBQDk4uLXUeGO/DDe97DKp0k2F9qfNT4FUIr9LmYXerGW/LiMsyZMXhrxKsf/ncP7L8uG8hjXoHS//SkENmYKJ8dPSORRsVr+U3z8qQGsNp7e6ioORYNHQ4McR0awnXu9/a0sA/gn7vwqdCyFK+8tI8Tt0pEdsFA0ZLifgwJjbwyd7YKQjKwhni5C1e5HiRdKs/BC6YtFy3CeuGuCGWno0MvEGO1Zh13x2FelTrput8SXn2utqQ3TAWnBzMFhvrdSJR+WV472o9Z5VweQoZdkPyoKDJyeBx/Vj7LdH1MBstqqz1fquvgaMzC/syFRrAMvv22pqQWkrVf8mpH1GCbCE/2UG01KprLxr2y7cWHJ/i4IrfMwAvB1HHyYikG3EkVPpjRgadj+QMbQuNRoZh27uuvNnBOXxI2u0yHPy/2u2dxJqLrU8foOiEKHuY5MTp+vBf/LpOwqfkrA31UNya8b/UC+RvRP9GxDMJL3cU2vKrxYSst7atdGLhO9615hqejvba3vLXiNE6Rjj2MPFCLlAOLogU3lpFDIf4ch2U+nruXxAi43gaf2FrF+zXoQA+wcE7qr4eabe6SP7nTMILc+0hOtxM1yHNRM1cZ+CYn/6hJYQ4aEs0MdeTbUECg4cdXdzpmZ/U+txdvgwyeOTn3a604tL7588zaKJqulQVEi5Wi2NhQtYovFbO/TTT0/2oAQow0B4lGA5mEF4WLxA7o1xi/YKpSA5nfXKPalBlw6nJyp8O+blw69YUmmExCO42OI4Qd9XCt6stO5+d5KDfOU1mymATWZfFuW1tI6KO5X9BZuADTY1hTWDfrMcfT6XsDOxm4ToZ7vPsUhXtfvZFk+TKIFlmDL8XW34FrwhiXskw71imEsujQGfBduNYgiasCQjJ33N4qNQRF673pEYkV4O104bkHXxc4Vvzr9ju3sI2o+izIuRlaveasnuWNYEahoL+rVgqGa+uzKvgNQpz8Id3H3/Igtqiki+kzBPtcs46YJzZgY5G4cVhGPmZdigsp3SBDRkTgrjtnR7EqVLy98MoozKYHBTs0VKKdj2xgMvcQsG1U2w9d7kAXVqGKLnsKlMs8nV5XzkPC3rbvydIMLJHgqBG/2IDehOQnPy4hFrIy6+Wy64DubGN0LaETd8W82yiIrwSFj5kp+SwJ+GgbVwpX7gRqbvH/bjtKB6fjn8D0dC+k5USKxyki3nMd9u6+/gmv6Gbo14uRcKK1aXtTVCO8XdtUvDxPxutlFpxl3T1AyHDq8ZXPQoUEJYMRYwbSvSrfbpupg4P64xTlb9Vw1t/Ai3BqDGu3YE+eahHo9Bw6r6nQCq6sJsoj5+Kx0Vlg8977Wqyyy35IpQ1C9Fm5rfypZNxmRB+7zTsGJis74Nh/ZJSEHb/uZtOBr1Ig8GTJKKw4Sfy9OkNH3WD55v1L1eD/1kwuy7kDHY7897FFrwuskkRfcaYzgSE7eq04fhSsOQ+2er6ngVCwCF67XYX0EieBSLUOmH6uuloVsQDMD6Lq2aIDUBXwV4NL/xQw/M66MU/1gtDNz6avNvqQGkx4xEYvwlO9VkoJahQ4xx+61bS+Db8er2Vd/dAOJh4c3SxXpvDXWpUT69x/cDxSy9j7Xi2cOPOz1EZ7Agft3sXK+lAh8JRw5tsvFGDJrBR/JkOHF0IW0zFHRlB2hn85bG0YWXX+NJai9oGVGbu/5jgNDoQEha5s0vD1/OlH3nxDWEhtXxCpGwBb91QZzt2TGN2q7cvqQwJFUyHXlYcjuLrel6kSPIQ/+7aV3hN+CGdWnqSptjVB9FP5PWd7GPAqYVQs3T8JhOsjDyay0lBDREE97dDvfmOV/dd9tgYusD8PEyV3g5F6urxsWxd6dfLFnd3dgR4r2vKOJzsx+ebIYLkGEfpw42OCQRfW7T3s6C+dDBPzyo8WvpPgGZey/4RSCewI1ObpEOoA0x9eKQYmQ0jRsGUJiM8FBmdGSoVEHXAeez1YRu1C51Zl65ITLZjpqb0z35YJqmkHswzUJ7F5bt+9/cLTUHp1zsI5agjmWD+yVIg04YTqwbtRkUzwKdvF66HajbtNzt5ZGmwFXzn1feYNI+jtOGD0aGQYjhE00qxTSWjj4GPzYqQTNi2mDx0RLwYR/Wt7Evhq0E0pkqU1lIR6xpyGsuazIHEzrGmvPQUPEIznFUWrgIdstHas9LdPPE/yCjdo8GE8n42njAEKRw95uhHp6BAa0/cPsQZa6SL3BJY6wKpOSvTG20q86HezpViiAU8yE2r+iiZjR4OTe3VrAfJU/7vda2EA6T3/CQ/8EYYlrl0fKlbb4d/JB0+5YpuALYy4QWc0w+LJHJvbQVSUvLteIUkcwbVwNaf5w+WwZeeVBOOkdiQ07lOZutcIlPDU3Mp1BgisPg7UWX4Dtebc95X6s7BWSihxM52CDYF83SZ23RjQpWmqt5cBfemFIRwSs2inldp5eKIaD6rnG5pXDkDZRxKNWUxDAr+5kf3pGNxcdBnSolajeQrnBj+1CWx/SBnuzmGCraphBTuzGZe7ighHhvrRat+eW8EMMr5QXmPNs52E8Kzg85N2k7BAkeFpfNoByfkBTjsJtWC53egKLZCMQxmjapZhnXBceqGv6HkpZjYa8W/V70TR2aOR7vdzoR5z32qXVmN+06RptnsR+N56It1qFY/ZczwLn45XgSmPfOqeoCTQz5i8SKDPQtDpMvuGYirc+iXw9wClEUkrKz9ihEjAvKek5Eb5/Z8aK4T/2UkETb2IKVmubhTWiuAUkR/AsUvkEzpzofAtXaTOUpuBK50Pyg+Y5YLpGb+W7YdrcOuqbtKIZQ6mG30N0BdvB7Pv6//Onu8D00PT7/V0aoHLb8V1w7YPpS3/2eX7gApAfZO3osOE8alfGkWvcqHnSedoQeEIijbsyvzhP4q7xH/+uEsoh+5KiRrmziZc41ppPKY7A38OiXoWFZGw6q/2suIDxbipss94g9YM+cf+2JoWNIM3yHf6J8e6IDQ1YGjDpBijexVleU8w8H7c68jtitmwa9Wr7OZsH4hudl5Xdv8HtsXrlv7UXMRhvZGiSHItBJY75PgZV6Aen9sEu34VEAQ8qwUdGbh+4MTDAgoVLCITlmozu8Ge12uPi3IOjOj5fx4PJqDZk51CGYdo8Ef+1U+nVusgMc/pmuiJfJQXejHOP1yE3hUf0i8P58GFQd08oR0T8DjZyPi9ST3ejs2+9adfC748LkwWfPJ7F58FfTniTUVHj5tS06IDWGxdrKNT04OdqODqHDgMrBOt4QmXO1EwNeH+0pITirO7PXaSHMR+Adf1N5L++MZ4n8vWiAZ8NJ8bPmOQgCIEopOIdgpy64ZVjq7GgRzfDjvL6SpcPG3DlkVsQC4soNxQzscTnUGP/yRW4hnzDy17lzth9+cVg0jrLLzCdlmlanQMRhnfkx1z6/GlfgufemAzqvkG+5kp9MHV4VKKA+EDcnj4DWYMF6Nl6IXrGeF1ePIr69jatUGws+YGd5dyVEs+9/oobxdcCDecOhPTA5fUfli6yTaBHmfurWreapRwc527aNcCazps9wbMRuB/UEsDBC0AAAAIAAAAIQDZ6NYW//////////8GABQAYjEubnB5AQAQAAABAAAAAAAAzAAAAAAAAACb7BfqGxDJyFDGUK2eklqcXKRupaBuk2airqOgnpZfVFKUmBefX5SSChJ3S8wpTgWKF2ckFqQC+RrGRjqaOgq1CuQDrt7LzXuvfK3eO3eN595lAZ27a+sX7ykxTbfJ+L5mz8nfprsWn5Tby17bs7e7daFtn8aPvRHRbLYym0/uWuudvqcju2XvkfV9ewL2H7SNPX7XWkKU1zYn9NiOUMZ6m0tSi22/tonb/jmkbhWyeqFNBLOprVWz+j5VVi5btd2/bOVr9PatDIy1AwBQSwMELQAAAAgAAAAhAAZ8Lj7//////////wYAFABXMi5ucHkBABAAgBAAAAAAAADDDwAAAAAAAJ2X9yMVjvfGRYUko7JnKYS3Fal3nCSphFJSZjKiJCEapDJS71BIRkZkz2vc7MPlWte4l4twzSQpGSkj4+P7L3zPb+f56fnhnNdzTrihicG5K5uYPJkeStvZu9u6SR+RkD7qoCEtLyHtcNvNw83Gxfq2m539/+knbZzd7Dd0d0cbV/uNXkZVRV5CWV1WXsJH4v9Z255ZpFXe/9QMc6HeGjz3soDc5Vq3tL0Gg1mPfQo5RgHaq22OPpsH8Hl39DT7zg5ItlXyDpbrhreR3vKP1Vrw18OUzRoJ4eC7xdhoW+sgHjDVN7nJF4Pf8vOSp4Tq8HnJDrLcKzpeq8oYHj9RAL6hBmtKV7tBVr30bOR8M4TWntFonXqD+41dTmnE0SF1SDQviI8G5/Ujmz8tD0F4zxJp9X4p3nlDuFFkRoPjpxS6ih70wtM7q45NiwMoeEo5by6pEfrVHl29v07Fo5nFQWMhNchV+KhXRCgO2E0NXwamfYQVfWsz7sBeyFgXdBypQ7AfuBVd8DIO2T+ujEl+SAJT0+Aj+radOGbIL6vu0oDVyotzl381AOeF5esfKK2Y8fSCzYe0AXitM/w2rzkfPtIj1ZnrOoHIZ36wmS0FswmfONOE+mF71139D9o5KJfhuua0nAU6OVrKfXe68Y9cgsjNZz2ommTxrNO9EPIkeLUllt6DB81sUVSkBgRjrUs/eNeDwdSDLTsN8kH/tNbkmSv9KCfqkibe8xEexJgctTQrRZXomOxbq83wgSU27h+PZlA8Vt506EUDxjy9qbQq1ovnRlufRCiUQx6jQIp3thNCb4hnhfv1gK0Kn+XJXSk4RM4KYDEuxdYgQy19bxL+Ry6WDzfpgJFZwVHXomRkCk15e2YXGQLjPbi3LN4AT6dXo9tL26FJYd1qs0MvlPNyG5e7hoB97KVzTS/yIPao0LODlFeYXezrp16Rh6oxTNeISEaO5Lomj5td+J6+aitT9hnHVc8GKd+Oh1b8PU8oycV3QrrEnRJNkLU5b4g3qRJT55j1/11kIOnqmhGhqREoKTyeb/hHofbic0HJdy1Yxer0fuZkMwyo9zlL1zVDvyJrg/4VGupx3bkaFtyGUVFiXQ0X68Ft4Yl7wbN6PDibp/K9pgf3v5EW19hJAD5umajHl4dhK/PxoawnffhWPn/VJ6UVBS1ytQMZ8XDjeQSrWGQtPhayTJ8orMYId2n56ce5KKZyVnbuSyZ8sJySqCiqxvPcpHaf7+XwvSq8sSGJAv7x+VedEqpxT5jwi8nrbTjJTi6ZSc+C5psdVlfaCgAnOcb5NcqgVfLhdguDNojdw7FvM1c6KJifUFFVHUFbY58bnjEduH7J66pFQztqii19yXragf5sNf92cjyC6da5S4vzBFiIIM1bHKGB8zuCxm1KKdxTqwoT9erE6Bt6NtvNeiDGqJVZ6msn8HBWffZlLQDVYvfuZ3p9wJWUuJ2F+hWazT7E9apXIWO+4dCYdjPapeh87o+ngbV4JbdnwAsUOPU1VkaGAnM8UkHOjZ1QLfxgfJpWg+UBGVKdyQ3AqmDINpbcDPyBz5vW1GtRZi4lgft8B6Qp+tvZdEyAh6tdpZkSFayl/jwSNaKjiBRZaeVHMQ7M8/EXT5RhjFxz3s83rWinU7Wcz9QClFtnCbwRDOjqsgypsk1G2WjHkJOWbbgi7XGdKFACEdPjT82JHVgeH2VWwNwHooM5+/7mJ4HFc8F/jMuTof9vtsL65wbUHn4bIyRcBkHCThXLn2nAtPn8UR/nLtBK+jSnN/0QfeapD9Omy0DXYU6Jxp0I37h0zTN+UFHdZDzo4gQJLWZ+hgr0jUBSSLDrKpGKW7oalTP5hyE3bOjE7+p6HOs5txBo0o3rI6bvZ1gI+FD31ablhOfwicewI2spF9cyQ9lauWogtNPDNmF6FO7yTLq0OFaBe+6sgtJUBnyPJvxNu1qF5rE5QusXSpFbQzVj7PcYdE5tAmpEAxiFPBkK0hyARjH/8lliPni+/9WwRb4atxXVfxrX8IXTwdkxu3KjkIkUITG+6xOE8MskEr3IcGrTnSQSyyBuZvy6YWDbgamGDDGJ5WJ8QZTRctFngN2mBd0M/zoc9cyijv7JAPB86KvmkgMTs/JV9ndaQNvv/VTmxhyZXfap5/SuRn3uYm5yZBs8EirYFkWsw0CP6vrX2hQYKii1c+ItwLMTRo43AyuxJda0/kRLNNhJzBlbzzbhl2ITN2b3cvgiud1bsHgYdA7HFv/MGsEDTLmaXpPZINtXzVFkPorIHLmPcrgMpnF7Q+bMMN6JyzD787sG1e5VaB0qLUCbkeFAnQk6alzimou5G41HnVTPlZnVgcZrOdv5mj7I01PiWz3cjTE0kWi3+V6Yunq8tXJHNd4y4P4tu8Hz0+E2bWtqFAhi8LlMCtSis3bpy2mVYtB1LjOg3q1H5Qs62aNhjRu5Nnfxn856cPd8d+5FHx1jrxofjGNQIerKbgXc1wZ7436tXUrqwLfblM5nj5Mw4ebPkRFCCarE3dxZTqBj7l4Yv2v6Cut3v62j+JIwKPHgbFdVIdLDMt5X02l4nc8rKyOThuvnVA/E3azEDs//tirtQKiWUZP+GkWGr9x1iuSKIayKJ5EHmd9t8ObI7inmYfB2IsSd/EmA4IFE25Oh3XhhLvm+waN6/Bq1cyH4BxEErQu/XHnWDKYkcwehuC7wkrsY8Nh1AIS2Utx2+pZBjZseoda8AdKvrnQ2N/cD92HuHjbJIUi2I3FwOTwEn/AFboPFQjCx/8HCcrQf2Ccs1OV2fATHoP5Cxt9ylBuZn2MrLwPS3VCDy/7ZaCvtamRv2wp5ycR250vVyHXksR+v/gjE3C53MxbNwdXGufuu/sfggsTKbKtUIeSyi9rXxdJxP0d+q9gMGZ4vvIqS66WBoFrPNtfIMVzYlCxlfYiANMFztzQsCaB/8Z5WR2EOJvqpzHwVJsGK4INTP01KcJseR7JHYi6OWyhWork7+NtbWUqu9oPpiDfnAHYgV5rgji9FDEh4JfF3v0Iz3rhjKBrZ3Qhh6j9XLh0mYWqrRbWfBQNzfVOL/DRC0KGTfCFFIQMzOVkfcL6mA4nMszVCKBeXD1CrG6V6IDLDXMb1LwXaKhW7X8m3QdFNIll/Uyd0DIrR3d1pwGmd5rDLpB+hd2vdmDQFJEUqiU2bPkGpEJtVtiwJ5aZ46TZVtaB4c5NFWWwvKIrPMDweN8PhtdmMcdM6FBE2xkOOH9CwSyxcsKEDgtSktzqFFWGS6MMmf/5m0K1xkifsaoeZXq/lsf5SOGQ7IX/FmQwnUmI0fZhSQe96vOfn7XVgFSxblvG1EAYac4pmboThofKJrkMz3aj5OmKP/+kkeLr1vWhEXDNcEzr364nURcwNO61eHVaFypZIup1eC1mPj4SWPerCYCZCqU3nMFaZYOl0QALck7pot9RLxGUd1vd2zV2oXJ3+2DZOFQZmo0aG5IqxYq7ST7mNAkcaTlsyeSRANjfptJxaA2zek877obER/qtzqZJ1KIYY3kT77rg6GOiSMkrqLMSFxaaz343KcVj/XN7ewRL4tuzrYfk9GvgXf/QZ9k6B7NR53pDeWrA8qp5pfqsR+xPk6ZEHaajh+1HvvXgP7kp9u9LA0wPa8nFCpXvISHp/c8JOsAkyBXRdvpzpgE8v3vj4CzdhyiH1y/L9ZSBe2vilSaMVtin+ONlUzsBrhJwrC341UJ68qGquTIddf4YPFgi5wVGvWM97dxpRfpZGtD5cjvhuX66czWcM7bzwRX6tEeNJ4/dvWFXDZnYnllTeLoxiWTruZ5GGLH79SQPUJtiSxlgUsXbAO5IHRiCeAsUhzLm/WDvx2JHopFcCROSbRr0Ath54Oq0+K0CgomPH6XOjmZF4/Wx48uuvUxCXMvYofWctNIw9OTp6OwEUziL3r7hefFwUR9I8UY29jefF6rs+YkvVhB1GdqKz52WTXwIUnCy08f1HqRyECbN69l4bHLsho7OUSIArqWHqNO8+lKXyl1yWpSPhxbnDAo69kCvCKrWEjfBL2OJ0kEodDF4T7KsUroN/DMlnJcnlaLTrzIfYrVRw2KQo+d/FMpxRXEqIWK6HxbwrYl6HivABz4/7Nty14C7YHlVDokFSTF5sYAAJdFUfFRAe0fH2ydVF21MULNbcd1ersR22+XoFronnoJdZNKt2TzyuGGga/xXJRjc/d/EELSrYseSlCeYmw4zcUmIJkyeET0pl/LuFhndzE/6Qk7PAXtHC9e2JClx1E75epNINRhca/oqeCoc1rxqeudckdPG1XHJU+4EClelPGJpVaK375evqoxSQejvTWcnZhSbtnJ+VfelwgmXco91y4x5+eKBzcp6K9Mz9hpmaNBz6KMNCDO1AdtFQe1JOJlQGaB4zKGlHNo651QqrPLynGaLX1o7YYsgNgwQStnqntieMj6DC/RuURuNaQI1r+5S0C2FCfGAH9VoPUNkN7BYc2/FbHedy8bU6iHZMZwidtIJvmkzeL8Xp0MFoz0+HBpjRZTTtvUcHvt/JPmzLheB7zEVbhBqF8pzEVTViPUSGbXn7wHIIgpfHs4r3GOP+g6plv1NT8fM8e62NABFm6r2Kq4wRzSLlzxwzakd2DtdSj5he5DncE1TLVo0Lv+MEm1ZK8IDnKeNNhWTgF8wZ+L3xRwhfr+Dxc25AtjuK5c4TVBTnalOeMOpDXvExESXWeEgbNgudMSxAO59FrWvfW2GybHiiySkRpHdarJfbVEDVut+pGY4urNKh1PaL0CCbeUfLqnYJ+AoFsHgfLIWfgj8Sigej8U3M8GF3q2IQSpZrEav2g4uuBbTxxGjkj79cr31wI6eSVVssBypxpvK0hX9wFgz1uxLZchELs/8kJ2sVQ9n5BqtsvY84/8bsmI1YNuh8G5/SXI0FRUuXccYOKhJfFM0TWcegMk7lpdu1HNzCnL71TWwquMUpBUtfqoXvZA6TDodO7M52uKVd8RFk2wtXA+g1+K/VRiiyNuGc8C76QatKZDxl3eu/+h2CAzbf5dhdD8XK7h8vZFPw5BfteK2v6Rj3bX2QxYsCLcIrxOdmdHCfJUmFFJQB4d6Ry6P3k/Ew4/kWUng1XAlivx+WusF908RucgAVdzf+azEk2gtGQeuZHX+oqPPXi8YWVwSK+6///Md/CJ4pGkWvibVDcBGXn8PGnt4OGVab20wCb/njfLs5aBjlFrZXsrcd30uNBvN7UAEoTarUW+1AibZLfnq7DcwmdSXbTm/4fvmZW/IZHRSijX/uruiDuSM/lutFw8D8uIULv2kTVPpXkyZrBsGu8AnPNgeElheMok6JfBTwva2V+x8N891dDc1SMmHvNG/4oHkj7G9KWw/06Yb/AVBLAwQtAAAACAAAACEAkmku8f//////////BgAUAGIyLm5weQEAEADAAAAAAAAAAIkAAAAAAAAAm+wX6hsQychQxlCtnpJanFykbqWgbpNmoq6joJ6WX1RSlJgXn1+UkgoSd0vMKU4FihdnJBakAvkahmY6mjoKtQrkA67Q+dL7jNU/2HgdmbQ3Y4PBboZvKnb72WT3Xtg3wy7xv5R1yO2yPdXHV+x99l9gb+e24r0RswJthJ49t70v0Lev5d7F3QBQSwMELQAAAAgAAAAhALKCAuv//////////wYAFABXMy5ucHkBABAAAAEAAAAAAADQAAAAAAAAAJvsF+obEMnIUMZQrZ6SWpxcpG6loG6TZqGuo6Cell9UUpSYF59flJIKEndLzClOBYoXZyQWpAL5GoZmOgqGmjoKtQrkAq7YfS5yTX8f2/doPNpx6/LZ/Q2vPx11PHLNXj0+ads288P7fW/47ubn/bR//Z+ft546nra/WrDJvLLz7X6PG60ut7/v2l9w63+VkcXm/ewsZ3pz91+3Zwtas0t77jb76MNdDTzLTtkH+4aWBjtd2B8yIXpva+zl/ed8l3DtaX1rv+mIx/Kdfvf3AwBQSwMELQAAAAgAAAAhALltxnH//////////wYAFABiMy5ucHkBABAAhAAAAAAAAABJAAAAAAAAAJvsF+obEMnIUMZQrZ6SWpxcpG6loG6TZqKuo6Cell9UUpSYF59flJIKEndLzClOBYoXZyQWpAL5GoY6mjoKtQoUAC6tSbP3AQBQSwMELQAAAAgAAAAhAJTv/iX//////////wgAFABtZWFuLm5weQEAEAC8AAAAAAAAAIMAAAAAAAAAm+wX6hsQychQxlCtnpJanFykbqWgbpNmoq6joJ6WX1RSlJgXn1+UkgoSd0vMKU4FihdnJBakAvkahqY6mjoKtQrkAy4XZXUXIb8pjkcm3nXw0D/p4sOv6RQ5s8Ix7kax86c/Lx1iNkU5a/vOczRJtnNKXFJsl6G6xO6ff4FdbVeHHQBQSwMELQAAAAgAAAAhAI2zq/P//////////wcAFABzdGQubnB5AQAQALwAAAAAAAAAhAAAAAAAAACb7BfqGxDJyFDGUK2eklqcXKRupaBuk2airqOgnpZfVFKUmBefX5SSChJ3S8wpTgWKF2ckFqQC+RqGpjqaOgq1CuQDrj3fT7hYfFnlqHjiv0PiRH3XkNUPHBeuVHAM/dbt7DaRz1Eh7Yiz4hMGp9kb4py8T7fb/VnaYxe1q8OuZmWoHQBQSwECLQAtAAAACAAAACEAENGYEc4OAACADwAABgAAAAAAAAAAAAAAgAEAAAAAVzEubnB5UEsBAi0ALQAAAAgAAAAhANno1hbMAAAAAAEAAAYAAAAAAAAAAAAAAIABBg8AAGIxLm5weVBLAQItAC0AAAAIAAAAIQAGfC4+ww8AAIAQAAAGAAAAAAAAAAAAAACAAQoQAABXMi5ucHlQSwECLQAtAAAACAAAACEAkmku8YkAAADAAAAABgAAAAAAAAAAAAAAgAEFIAAAYjIubnB5UEsBAi0ALQAAAAgAAAAhALKCAuvQAAAAAAEAAAYAAAAAAAAAAAAAAIABxiAAAFczLm5weVBLAQItAC0AAAAIAAAAIQC5bcZxSQAAAIQAAAAGAAAAAAAAAAAAAACAAc4hAABiMy5ucHlQSwECLQAtAAAACAAAACEAlO/+JYMAAAC8AAAACAAAAAAAAAAAAAAAgAFPIgAAbWVhbi5ucHlQSwECLQAtAAAACAAAACEAjbOr84QAAAC8AAAABwAAAAAAAAAAAAAAgAEMIwAAc3RkLm5weVBLBQYAAAAACAAIAKMBAADJIwAAAAA="

_VALUE_MODEL = None


def _load_value_model():
    global _VALUE_MODEL
    if _VALUE_MODEL is not None:
        return _VALUE_MODEL
    if not _HAS_NUMPY:
        return None
    try:
        raw = base64.b64decode(_WEIGHTS_B64)
        buf = io.BytesIO(raw)
        data = np.load(buf)
        _VALUE_MODEL = {k: data[k] for k in ['W1','b1','W2','b2','W3','b3','mean','std']}
        return _VALUE_MODEL
    except Exception:
        return None


def _evaluate_position(world):
    """Predict win probability [0,1] from current board state."""
    model = _load_value_model()
    if model is None:
        return 0.5
    try:
        player = world.player
        my_ships = my_prod = my_count = 0
        enemy_ships = enemy_prod = enemy_count = 0
        neutral_ships = neutral_count = 0
        nearest_enemy = 999.0
        total_prod = 0
        my_pos, enemy_pos = [], []
        for p in world.planets:
            total_prod += p.production
            if p.owner == player:
                my_ships += p.ships; my_prod += p.production; my_count += 1
                my_pos.append((p.x, p.y))
            elif p.owner == -1:
                neutral_ships += p.ships; neutral_count += 1
            else:
                enemy_ships += p.ships; enemy_prod += p.production; enemy_count += 1
                enemy_pos.append((p.x, p.y))
        if my_pos and enemy_pos:
            for mx, my_ in my_pos:
                for ex, ey in enemy_pos:
                    d = _dist(mx, my_, ex, ey)
                    if d < nearest_enemy:
                        nearest_enemy = d
        my_fships = enemy_fships = my_fcount = enemy_fcount = 0
        for f in world.fleets:
            if f.owner == player:
                my_fships += f.ships; my_fcount += 1
            elif f.owner >= 0:
                enemy_fships += f.ships; enemy_fcount += 1
        total_my = my_ships + my_fships
        total_enemy = enemy_ships + enemy_fships
        features = np.array([[total_my, my_prod, my_count, total_enemy, enemy_prod,
                              enemy_count, neutral_ships, neutral_count, nearest_enemy,
                              my_fcount, enemy_fcount,
                              my_prod / max(1, total_prod),
                              total_my / max(1, total_my + total_enemy),
                              my_count / max(1, my_count + enemy_count + neutral_count),
                              world.step / 500.0]], dtype=np.float32)
        features = (features - model['mean']) / (model['std'] + 1e-8)
        z1 = features @ model['W1'] + model['b1']
        a1 = np.maximum(0, z1)
        z2 = a1 @ model['W2'] + model['b2']
        a2 = np.maximum(0, z2)
        z3 = a2 @ model['W3'] + model['b3']
        return float(1.0 / (1.0 + np.exp(-np.clip(z3, -20, 20)))[0, 0])
    except Exception:
        return 0.5




# ============================================================
# POLICY MODEL (trained on 200 self-play games, 75.6% target acc)
# ============================================================

_POLICY_B64 = "UEsDBC0AAAAIAAAAIQCyLrra//////////8JABQAdHNfVzEubnB5AQAQAIAnAAAAAAAAhCQAAAAAAACdl/c/19/7x5HMIiMjhIZNihKv57le0lTJlqySUELRpqHMRBnJTFEoK5H9PNeLRDtUqCghLVTSUN7q0/df+F6/ncftds755brdb/dH8gZHK5tN/Hz7+UI1t3nv8QrWNFPTZHyMNfXUNH12Be8N9gzcvCt4m/f/5as8/fd4/8v3bPfc7f3vrGVkqqe2xFhbT+2I2v9zxEoGJan8q8dgohNDHt05S8e3LqXrvU5j8tFaKtE7nwj1WcMF+5/MnNbMeuExEcINfM1Cow3vzO4BJvNGBe4ej4KCC+kQaKwAsS7L4O+OAqZ2lxA37Pwe3L0rqf512hM0XrMCg9uDYa6/Pmz69QG2f3LFoq+reXVJSai92hMdR49QQf8sHKmJglCRSfqVJuHNIz30TOxKKLeOqE/1aGMEbPtZdlIPHFbN5FoozSHRr8Lw0+ooMj9LDG9sXUhTAhZDWM6B+u6qE/gxZCMsVRHj3a1JhroAGfz+XY+m6O0lO0uv03iVmdgbooIW/oO0V18ahApcMVW5DLPf1pHPbvLQPZ8lRgcEYM+pDPKN28Bm67F0j6EyrFSaSfMvW9MwSXkebBWAlyVqzOWsBPrrlyRsOPAUj/E/Z0J/NuLbmF4i/yuH5lRmkT9f+eB2lyL8dOUxfzVLKV/KQt68nX+ovrY4T1JECyffvIdFfC8xonA2Gr/YTFP2FtIkp3g095NhMjMt4JzOSiKxNRwKB2ZDk8l9EOfNo3bCtQwXKqFeYD1uf+wPn9o84UPEMpK4swXfrxLh+p0+AM1DNuBQqQsrh2eBz6wO0N5oCeN6AuA48Ie9N6OLaPptIgtOFNHhnEmScV0Vy7v6yOTyp7h003qwnL8KA3Mi0ehtPBrnTKHNYxuA/XubdgXNhadLKlC3JQtSDwpR7pWrZLvPWZxp4A3Hc1eQIHdpOsNHCfm/VhLx28c5v+cK8nJaivFIQCb+VHuGqR++0lOJk2zbswLQ9flF0nor8eoyD/Rx+0LtVTbT3Im1qO9iBAMrT+HR3c+ITeA6jOmVwE9nazBQv4zECqtz/9Rao4VUPJTpFLEXst1B34fgzT4H3LRuAwURc/y7s4H1ft3PMelsZO9Xr4a3s2aQY0fPYdP0I4x25yHsE/KB8WO1eMHDEZQ0C7D9RxZWFF0jwo1SsOf6U+Jdm4Yzg6uIfO8d8Odm04mtdWhjnkOmBrwn1Kcc99opc3Pt5VFdLhbcdS9Rb1UOHrt0FXy6F8HvS8KwcfEYiZq6Aba/HiAzrgbB6g532BVcT5e7nAEdy1wQ1K9hPTbmg/PNmdQnbx4q3N+Ez+eshK4vDCZZ1JGOefLcyOXxtH5FImciMYG224bDyfdlIFplgjJHpTAhLpM91TrCiLT5oag8F7t5S7CvKpIOPxPC0O/6VEFWCMVsf8NxWIOzDi+DYEhjXk3LoHydNbDdII6Ujc2CDC0/eusRS0a/TZBUL3Hg/jHFsJBhsr3rJHWY1ki31PNhvgLgmzmryavNf5nVz8MxTvQg5hvwgZLNN9pv4gEXppsyNyIzcNR1BbpsKcGLrhJgmyQMr/Sa2YoDSXh3ooWm61nUT+vygpCZhfi3mYNy3/bDt2lXIY/vBMr9iQRJZUdyTOcoxjXfgM2cdjbv4FUmtmcurlMQ4G0fFATLvBCiRBai7uhN1Kq9gae12sh06e2gd+8zNWEt6ALPQLzd4wpUS5DIiE5S/xU+WC3rCrU/MiDDaBD/xEQRVm8qpOwqQnMTZW7ZZ3PiZGcF1UNJEGyzEtX9A2EKLxzXVo9QGcVLKPVqAVzpmY1zPQRJnsUrTj0xYLxnhyBfvhOqtw+Qg2FKKPnBAx5WLSVp4bWcTcFJ8PagSX3psC3ut3zGnJXWhmNWHqj89gsjeeI6I/mnGVxerIfKlwwGBXAgJKOCLhBPpeHTYsm9yw6QEq2Jyze5QYPPIL1W7AA1x1NhT9NmUDdcAXqbgoHf8zN9vtGTHuEOovEyE2ht14PcR8nEI/ce1c9FHExIhwp2HhZH9tMct0GqeNaOrLVvJfo8JXrkUDYKJQyT3WPHcOJgJlSkpcPzEXGcvlgCwsrTyb7wIXh+YCmI5l7DqTFzQfz3CTCb/QbM/roRWeYBDeC0owIRhgcFa8C2zQ2lT4mxH3Em+7yIC4Jl6Vg/RRkv/U2B27U/mTfz5HH23jS6W8OYaLtswtofq6C4wx9aHjymbxokqa6oHZ2fGYdTghWxqfUSyPdH4fL4uRA1cox+2jPMnDZKR9kHs9Fl8AN1OXKfnFi+kFsxuwZE3m3FP7luxFGjhBo4n6BjOw7SfN834JJwhgZWNILi4DwM2R1Ghs78R0PinUiISj0JF0xmL6lLwr7meLRbGwaJP5Zhyo2NoKHfQh9ZCUJLqiA8d1HiSlrO4TbrJGPq/Fls+ngIZuWEQ63SNbL+/Uw8EniIlpzxwIIzL2lnXg+5YCFG/DrL0bhpBB4+mk4Xh4lg5agf5tZsRcH384j6jqlQ8mc3DDumgdH5y0yAIZcYfV2Lyimj8HnVdDx8wYl5d9CPM798BRm9UwreOv1M+Uge/Ef/I7051sRm5B/jnLogKDaNiZt1hxptu4tM8Dh53CNOyzal0m1Dyfj70Wp89buHlV2zFqbsXI/Rp0zMxPr1selWEdX2yCJqY7IYv+g8WXw8Eja8k0T+YGOuNU8FD0ZdpA++CpNO7gRRW5qN3s4J5JeINdPQkIQh6oVYfNcLpe5+Jmr/dnDkVgWRn5wBiXiH9H48hebCafBszR/2i38hGHjEM7GKxZgks41ovKiHsUeyPIVbO2mc3gjZFX8c9A0FQcV1lON0p5RsGTEj9vP/cEoeP2AGridgX9B5qLLo55SmK7KSP/diZcc22vguCUb9dfFJgwlKWjnjRe1U2PIqFx5PM4C5z6Kp9T4HuHDpOAru/kpNFueB6kcVuNRiBhctBojtvvOorWdJhpJluKKtYXgz9w649Kgw+0Y3weOfj8mTo2+ggFeH7i/syX+xXMzNH2FqR9NJ2sVyZlHNORjdJkOKJp0wudwJry+4SuU02tk7VwS4R18Jw5rHAayQww1yLKuGkUltIZ0cPt63tyY41eUgPtg5SWYlFGLcNnW6y9WY7Ld7T44mCPN6g/TAwi8PJRLfMaWGxmRP4BU4KDlIt36p42ReuYYHyguZBZIy4FR9GnvdGFxbkEnsrk6jt1Ny0GmtAibH/2PMKUFUXaKIPx7cI7a1HKbJv4zzoOE9DVhUD/lXntHnW2qw660LOq8IRasjZ6izyzTYvjIbnRe8JuInj0P7wHHyKrSWOs7Xhq+lAShyuxdVVX7BljR9Uqh8Ez6uDQX7oyWcgh+tZHH1MTTWEEfhvUuI+rckNDQTYRf/Y3rSST8U2cJPQ25vgUN3i0jmzDRaf9oH7/FFAHZ7sdfrBMDP9wbNlf7AnA//jGa3hmli4jdI8iwgl8/VYlvoH85/E/XAV51CZnhdxrfuUSgqaA/ex9TQNToaxL9O5x3XAiwWDMMH6SVYlnuLOB24RW5LryODMx5T3wuf8XZgHm7o4KF8ny5GSRVil5E2rPi7gJT07CcrnrjindtXwSb5NllfuBl2SK2hB/TWkpbpJ1DDvZ9UbOs1q4m9j5EPBpnumzbMkPYpUjkaRH2d35GdZzR4l91fodShDPj18yG94FSFj9+dpbeP7YHUSmlQSRiGu4c6GZZ7GDsMD6POggVQ2rgLl32OheL849ilGYgC/YRInj2CN1zn0szOErL7axgKfkuk0l054Fa3Hl1Ti2EsLphGu0qQET9jLCjOg653a6EzUA6SU5MBT/BxZ33TojvGPOAPJxqSAhXIT6kx+ne/EDfk70Y6fmkZWFRK4QpNEapodph1X2cMmlpbUF/tAdvvfw7FagIx4t592ikZTvyCRqhqQzs1iO0mZtMzQPa9AHyr6GP5Anyob9xJyA67gGck76HfzvM4+qQY6iLKyZLFLsyjt8+YGe8VqbytMvdZ2CkWBNIZzocC5PqnEZJrhjLpAtyc0TtmJ6u6GTfh6bhzfSI7dFWHlh07Q8fFlrCWY6H0zb0AMCmRwpNrl2PTwsP1j2ZM0AUtxcS6Kp9+LpiDRyJOo15mBu7aV0VtOiNxzMYaul96YdvFdtqbEgnwwQ61VOMYn9nrYPRxIp0X/p2pGprOLT/xGZrfPCLv54vyhCZekOH6Miyepoj777wxW2/YRdr3FeH7Akty8vMnOKGhiXE+ZqjUugl31c2CraKKvLe+itA+nMAxkanGG34/aaanA7Rf18GjTCbIGh7HY2LH6GGjR8TU8CGkiIeD46AYxpsKQvyRsLofnwTooppx8rCGH4/8KIQ5/fH4deYCmPqOH0WSDrI+01fiurEQJur1HOx3iOLkDEvD7N+7IGCii/AdFUTP6RzunT07wJgvig78Y8zNtFYy+cYYw1VFwVhXFhROENKUaAZSOR+p+QeWNOTcABX+fPLklgN6Xv4AlHuNU56XirFuqmDdchGljRzhkaUgcTtkDf3fD5KFI385TvJPUN8/m6TFXaTCrBgp9LoM2qVXiYNUE4S2LGdmygIt2JcA3alP6AaxhSg/twqDtn2kgzmOsL8zCJhKb0bhBZd+dLKklacWoVe2JpXQX4AjO1TYvyb1JGaWNgqX/sSRrCt4beEb6NsVjT96L4Kq3AQk9N6G3Lp4sNwdR7+d/E49htqwruwA+bjmJ7l6cwXhDT2A1WPjaNEWCv2ZZ9HSN4j0TTkH/mKVqLR8EAMTboBwSBm98cgcTFdPoZWR9XjgjT7EDVPWyUedfAtpJrWHCG9HQyzknq3E8lcPyJOJr2TlOnuU+O4El8xUqYJOFNqG6WDLlW7ibD0F9CfP47wUCXohrrN+Wu5RaHELxfwSTe7w2A3SOvqD6rbaksLlZ9kd8xPp99C7sG7VMAlV5iMD1XFYG5CHouutgc+YH9pzCfwIMqQPFn8nGTJ+uGWmJCb+85Xa6itE1jGZcOw94djEMnSocYcnTbosJFVyYmfXofXh/9BXk0t2pMTi5Yu2aNGdxKiMz8YLv74ybZeqiXtUHy20FuIGLPfENSU76WD1Dsb7qR0kye1GsZB6eLVRlroM8kDS0AHvpetSbQtV0m2nRAttVdBydSOIJUrRkj+2aL6sE0tv7cNerwL2VnsorbYpq/e7XoDS2k00dEgAKwqFwctIvt5ScS5cOeMAj6U2kyKdJJjY94jM3udARZuTwIavF6L+scXU4CDEXDkDgrYX4MPHFLz5ahpHZB0/DGoCKltHws6KFGbGmXKUVzeHmIlSuttXFcaDVXHs8yfEGc9IpnMsmHl7sLY4wfpXzoXY6H2sUEMkatidhsaBk/R6gT64Z7ihxIAWuaSmgGFnO6mzjTYKPo1jrT5cA5nSZ6Svk5+UrrpG13Gl0W95JHD3O8FFTT0SrKCIYTn2IGzWVD+2IAkl86IhQN8NDcMlIPbULzbg43fIIs/x0cIz7Ap+bZCqUIQf6z+B0OMe6qqnQjITLhKz9+PUU8mKfNlSSiotOXBNMBHWsaH4oucE3e6cgt/KvevecnTBPsmIOuoYk60X+rEwLxuVRv7DvqdhWHm3ClyrNOg6l11MvFALmuy/BHd13E3nKQzTydPnMHHOYqKUtg+PvD1MPtXVw/Rjpcx/leEwX0aSWkTqEbfNUeSk8lPOqv2BmLfmEwota6JXNISw6eILmi46lZo9OAPh38Rxlq8blo3UMbvN48l7epce1J+B9reH6Dtsxo1eMVTZbyMqdYTTyh3jGCDjCsNiPPrFMww21o+hd/kb6vt7L7yoSCEpnRtwUVkGyL8qohyr91Q2zBRWjQ8Rv6oLKCXgyFSlDqJ05Rhmr/RizfIuEQm+KJCOUaQNqiZorr2EuAcr41BUO5EX7MHM/gJ8I+IH71Y9gX6vY1SOrSL82QcZCe2rwJEroxIH71OjUjHUi4ogEgIaEPkjiz22aymY6pdC3VwF+Pm9kNHgysF2q3PwKeg4Fd/lBdmVFtj+qQm3/ZGCRKahbkP2M1w4fzeklCaCRtAmuHTiJghWCOFzyS50N9+EG20GSYPBI1pi94XOtyygFfrSwO2LwOgH1RgsaYJL1J7Re1nuqHL2Pjn2e6TOvrKFzhZsJu4RqzC7vZw8chSElA9dVD7AFjIEt9eXJLujULgruO/5QkR0W/DN87kk3nw6TrvtCEnFVfTAj0SM3sajrU4KEGi7Ek/7O7LsuAI9+eIyLL19ii27v5idEnWGaNdVkOjdp6n/hruET9gYK6dmg8+vOWzkIS7MNrWBkGofcJo/iIuY9fUHUwzpEzOANucztOTACbwcXVRvOzUMmdP32TWxZbRSWA5mSSWSxDpvWBihDSKrn+I8xwsgqbkZ6sfqwFNyDJftXEQf71pH+qMWUtP8aFh0ugVlz3/D3nXhsL05BdZ9/gxlNYfwj6gg0Zl2mpiDPrT1OYJhYmN97p2FMLE6i3inRODDZYvRNPg8Hp5iyFzvv0W2h3qS15tKawe1lQn3lAjXqiGa5K9JIvc1IjH+n0ewB08TXlc8We1zDiZ/VcCk8jV0vtELvbqZyPW4ynnlfxWfxzuiRiOFMpdTTMQUG1TKPE7PQQFYdm8kq6y0SHEuAI+7h9rHS0JxoiRNXhdC+hyfg/xRX5R7qsZoLa6il6acBy+pBvyxcSo3SqSE7O0Rh/FTEqhiJAcRbBE4HtmCf/7+ZF7XFqGFb73ZBtddzL9/oeM1j02995JJn/ynLnlSZNqsGWA+9y0sqjelk4duM2kmvsxKvWXk3q0AHCyKxWarExAk70Z2ZE7Fcx8uQgTvIpHIbYOxA1N4S3pM4On5Jk7oknuUrN9HT8m4oVOuEUy+F8YVGaPgGFZPHN5owHnTl5BpI4XOW0TI9oZtJLeNyyhL3MQDKpuxwEwODwsPQqRWB37ab0TG9JZCuV4w3SLDoWDwAG11eFQppBDa/nawk6aiILvqLjxdlQYzxo+Cnd4y1DnC4cm5aMBez0PM89VOlAoVs4fqY+ma8JOUSclECZ1YuuKGO9E5/wBkzHXRK+AA4smHcKRmoH5cRxeei8ag4t9myFwbgbFOSSTIaAk90LoXqgd2wzq/OfAyvxgr8Auj5O8EQZ9fcGZmIWmqNqcKct2krdCefpMNBFauCC50mGK9sC/H+r4NKem9zO5f/Jfh5NTizVoOUYiUgu0JMjDjbT7l5SZAyJT96BV9hzjFVqLj1TDwam+H8btDUNvPoPuVQkK2GhAcfkU1QghsFgsDpUdTcJ6QDbzqcKJuf75g4sVx+tGjgmgG1GHZlqfMFnUtqmt+G5Z1mzCOHCGUOB+JOrMCSek8DRydnE89iQh+um1CsmaKYnbUDfiixsGMnnwyQiPIrh+GpG9xMsPbO8QZC0oHlZGFEKz9k7GyUMdOok809xjiQ7W9cLNHGOW9f7KDv87hUN527HGoJc9E8qiAxFaqXaBA1C8X0K9v7PFvay9kKu4Fw9YsHOvcD1UKF3C18xpm/wIXeOmSgYJHz4PV+Ff6I+0yOS5nhDG6Cnij7yIjV6aG/GNu8HPedeJV3WbWmNNCHbyqcI3RHPwc4wZPuYGg/HoZil3dhWlTi9mYl4hFr8+AhN1nava0i/gEm2LM6iWQm2XKqMibQoGtA30XcYrhF1cHsTv+uHLbEdb5oy+YTvrQ684HYFOGJ46fGGO99ifDo5eXmGs5f8lUyQtguO0jE/nmCY0kPmCQI8pN6guFZyK3MK3OikTpVOHBRVvIrx/rsVFBkfy3dwcRkitg4mTU8KOnJOpunQbjhd6w6nsmSdXiB/JkDXT+KEbTUQYqdAbJFOVlEHNqiMwXP4eYNwvck/rIqg3N6NLeRMefrqQ7vLeRyO4kOKKmhw9UNoOExzCZWCjM7ToXDf4pLPKbRqDHyjDcVHsaC5YJ4+Oq13BQpYdQJWnuClVnInDlnwYb9uOPbFfA60G49/4pVH2TBBtWcbFgaCUciouF9P2F9MYqWfyxdpgo17UxXmKzqOxTMVjyMRPyc3txg90WM3L0CqESJ1H0gydJVFeBoccjZHd+JL36ELCt/ygV+STO4/pYksMXBLAsh+L9pBiIy1WDct9y+n5Ehqr+4OC0iOF6RwlFtNp+mM6Vr6YXlf8yllLXGNFWSvOPiKK6yUxIC15Guz9O4S3e0UG3jDQzx/vvkAVhLMmauECedtQD07MKo7JiceTHXSZv9yrYx1wH3V5NKK6Yjam96/BtUQ4rauQGFwSCQWSJJB6K9YXgfhX4+SQY/Eu3ow+3jiy/EoedraWQdHAOZFTdgNhyIzT8uhOL94nDLhNCxA4YQ7x2EvH4XU8yHtXCkbV9jN6+OCjrdIYrTTvBM34AperT4L/4aXi3Z5Jllouw6P8WQicOoNKaeTCyg4NHdevJXXl3ejU3mkxIPYB3HnOxMHE1/jT650U++804/96xpwuR+1ufxDfNRQevcqiszCVPTU5DpV8ix8tGBr7VnqXzze6C3oApCa87TYp010Iaiyii7M7MqDoKjYui67cey2Ej5C3Q/NF5mv9pH+ovzoGW87LkdX45p28ygalKqcDZwp/g47UclvNlkP56+ZMEr5Fnrv8IoD9v9ZDfwUuo/ZdSENFs50hHHCPin/cQQ2KJwZsUuRKL12OKYSxxW28OnvMz6NkdqkThzymq/18oq2h7DtV+30LprEK66oAqCXzjyA7JTeOOv28nJ3qe0IEpIugMR1ExXRGh9BflLJ3F1PAtw6AaBZiUHoFOy8PY9EUCn1eshI7+ZLj5253ei3OGmgkxfNuyBhLa16M3/3oovD8ThbsrsabhFC518kWlb/3kYoUd/i3mYzYFfsasGR101tIBRtQyBaHhEjwXSSeK3+1xWMQcVM9bUjmzDmju4Aehdxch53ol8La+xB/md7CyrItdMdcDjh5qhOZrBAws/mJQjyhIfKpEC7VCkqh7Dv5ryAbz2G9Q3p9JlDdOhbeSGtD3Kxrth9WhPMAPjoEKveNC6dGyApKbvQHuzT4B3DPR9NqJC1ix5RyNfFFD/bUE6E2+k2Tj7TTyRa0BE/VX4s3qSdJ2qI2sEHSEwBgPCHQsgvZtoaijfASS4DhEfbWFxuVhMDg3lW2rXQsBMndgfqkAd+uF5UyYsbHZZtEPzDb1ZHbTue1gukya5XNPY5w8LEnqG3E6RUwQm02aiP7C9bBJ7DrcDncj00qcacnqGpB8UYEDa57BYfcZNL/8LHPsZSg0qSVj/GNh7qducTK9cCpUND6krwo2wgdhUfQYPoAeNhQaxf+QuTPsgK/sIzE7shh7XX8CzXAgY3QPTtk4g35lJUHGOBkDpi6FNAEj/J5uwLjlXoDFEuV0VegsSL10jj7hq8Moo0b4HBwDBRq3icu2CVKqLsWm+8dhd6MiLn3Pmgk11BGOSipsOLGQLm97SL9uQOoUIExf2UqR6f+Y0/wW4MYQJeS/BHRhP1KTazx6L0EPG2UVoFdHA+q8FKEl9DhxPSVLtfgXcj5//Uuv6S2EggIFkJshS5QWO8HcjrdomjED8kEWR/fw4/rq0+C0dCpnqHsu/jrWQfmnfYXty5pxl+1V5nD6LSwiS2iOXhtzwU2Z41vXQO39muiGIHFeaW8o/apzmjy7XwMGCipwxioIjX2iIUgulOzZZ4hbVmuhfmM8+t83wTCL+wgyZ5BZEIyOu2Og0mCMBl3ix40hbVRllJ+b37UUvJXTUN+5q+6DSCo1c9ZnLrsrQLF5B9uZFw61XVcw2qGSikpr0N6rcrS1OQFHUxugwX0RiCUkQlSgKGswuAHD5Geilmg/jX1aDA0x1VRCroXozs7BNZ7SdOGrddDPyEOVsyer6exFirl59Vf000AjrBG+jqWzmycu01xHDVC+WELzSz9Q1eh7DHMvgfiyd6hBZzJeV75GM546k59LKyBo1jdGbEIBHIIf0pd9DxlLjanEZjwcLT314XVFBMb5LEHdzaK8m4Xr6bkJBle9mU14h+fRvtaX9bxJIdZ/WwnWebwjm25o04bIMLyW107Gdizm/Xw4H/Xio/A7SKH3C0fS76wG+R12qPr2Lgod6ATVZHfalneW7nNj8ahOGlE6P53KG+6mexYN0t7WKKr96SzeMhLA73Oe4F5jLpwz+g+2TL1Ddj2MpdrKevBVywx/ql6j9el63OKjO8nx5THQFfWCY96chF2Jquy30b3YeiKbXj8UT6zFNKAwNQf2fkrEye9XmOzTBMuqb4LJmV/kb3YbaR0NIIqlGfDHo46y8ffRxO4b0RvIhCXqX7DmdAIdgOmomLEKExtfg/yeRmqlYASep4cY0SYDUHpawpjd59VL8d2lr0xnwKmZhAYc+Y9qLrFAnfFFzOjRLiay3Ry0g6bjvsM7cd0Ua5SZugZXKJexAusMyOqoBlpwJhiLfjvTnsl7GPqwCPwHrRmRleuYJSvyYXzeUpjclA5SCacIx68IRKRn0c2HY1DiwApYZzrE8DmKgntpG82RTKT6ry+CVVYERByygszhCPo2tg6x14XOSQhFe/4sGpCth5Hd/hjjJ0CtlKVooO8bEiJ8BKfrJJH4xzvou/nhDLxl4Mt/csA+W0xt7HLJxYCH9GS5I4kNCyOCj0YxIb6XtVSxgcrpdei3IIcNO2eAEwN88P5NEGmzWo/ZnpkoUHaVdQx+izbzc2EkwR7p2ji0Uo4HW5UVYPdcAbv2OuDOHGHkmNfRtbf3Y6VYBlhP/0oiva6B7IdiWH2vn2oesybqU27gun/9USFFDX8mb4A9nU20/M9DpneolJnnJ0SDolLIXNEG8IoX4D6puUPuT7JUMe429ORUkSzvl3R4vS9s/DVJos3L6Br72TwDbg91bTtLjj6chm87JMBr/hNqISHJXbSYpVt22OHwwXdse9wixtVuKnfEQ5gOxp8me20FuGrCkqhR5oJNbap4aEoJqTz/gHG32gym8ttBsTqXdH1ZQnLviXA5+k3IDH8iNa+24SJLQ0yb6GCGxIxBxD6Fbgrupza2mdC+pwPnB2aA+a94WrB/Hh5qXk29H7ng1PcO8Nq1DfdurqK6gsL0lEk0m7Shkf196T070HWSGM1QRvV5v4g1zwJjRwNoaJoFjbkjTvcmpIHZ3kvQfdgf52tch1TkgfDmRKpARDHkQxsorxbCmz2CaPNQBltvSNOB1jSM+1ZOn4y1oHP7SfrAVosUyWmxVz30mCIfSk1y5vA2fsunYuJWcNfXGZYvuU8dBsSw4NYWaF4zRqoXxdQ9P7QXr96Pxb0zc6lU92+SbJTNhBdI46uT8aQp7CnOyUuErYemYODgZcIbKAFt68U4YnYDXmotgr2tDyGoJQ7Up0TSOIESWlkxDwrcWRg7Jko+6Oyn9ksm6LXtlvSZ8w0IvaWF2Xvaof1FEqP2zg4t26Vp36os4soThZsi6qD4xRFS/2bBMoUTuCuuHiqDr0JL12NGtEEPdlgWUhmnyxhWXgurOQvgk08KGCvfgUtTJ0nQvetYWO9MTmuM0N9K54klSPE4k3JoZe+H4lqeIFQYib2PjsOnP1/I6vxfxDPTGcMKpOBt4Ek4VJSMb6qNWSPtCCheoUqXPP7COCs248KQQUz+qwkmNXbofyiGfXRZBe4HS2PrmhhIOHMAOo8kQ7SoLVlj6IJPdh6HwCsB8OWPEGYmU5wRNMpoqRMU3joIyUobYcJ/W33E9WGSxzkBunmC7OztT9jOlt1w134zKVRcApmX09kcvwqmX2saGo0lwJ2Ai7jdKY7jFzEXq19wMGbONbIjXgZ+HPaBcvfzaKW0jsDqP+yLRiCG43ZQuvcIOE8rxX0GBfTyu2+E0coC6zV5xIAvACK5M6mB8V8iPp5HU5clUcXvYnDZtYcaPD2P9jvKyJ/GMBTNno5z7SJhwyF7lKh9Rp+eESHnWv3xvfxvkj0uQPS7U/GTbwM1a4pm8sUzyMN8aXh9fRCL2x2h7Xc8TmtdB/acbLw7UQ2bp+XA3Rm19INKPHC//ySX1uWwK88XkIEWe9gulAkaL5+xa7+ehQdNlqgu/u+O9Tk2upfguOy/rud2m3FSdaQBF9vJzPJukrnSjIzIR4PplkyM8V8LHE44Ub5mjK/X8ODd9TTQ1qzHooNzGfVWW1BZVQL40ZK4vHwGS41c8Zd9NAwfr/pngbaYIMujjm1bqbi0O/JfjabXW25RFXlrIlw5zqjqv4ANn0+R0J8n8dacDvz4XIiU+67HpUX/usz7ergzNwgLZyVR2Rl6sCplOtfqQA6t3bkbBdJ1YWDZO+rKX08FAzqwne8sbDUIhfHnLWDYl4tVJzTxh98stPUfIp8NElDreTc1Kj+Pt2QSMe2cB6l/lgcbt00wnEt6REwxkwzli7FPzsvSB4tqiIWiEHhvVKC+bffB/uBtCLkhBK8/OsD+W3kgXP2O8743mz60M6Qt7zm8dycjUdCSH68b+MKHteXUW/8eRI2uhJP3+uiL5mUMLheCzIU+GDLyzTShOovw5erB/wBQSwMELQAAAAgAAAAhADNyD/7//////////wkAFAB0c19iMS5ucHkBABAAgAEAAAAAAABSAQAAAAAAAJvsF+obEMnIUMZQrZ6SWpxcpG6loG6TZqKuo6Cell9UUpSYF59flJIKEndLzClOBYoXZyQWpAL5GmYmOpo6CrUK5AMuzyV/d/3XSN3DuZHJ+mpHi0140mGbn8adNtvsDKz+7bhjI9ejY6uxJsumU1LN5tMUb9ulR+/tYdh80jJxpc0eucd/9tSev72r6y67TSi37p5QVb896hYXbNgqn+3OXbVlt07WgT2ZsUdsOCau393CX2nr4HPFdsqsA3suSnfYKqpq2YqrzLRhOP/FRneZ8J45RTp7cz+G7e71vm3tW9xhs76Kea/bVlYblXmHbVyYa20fhT/ZVSLTZNP38p2NPUfdnoqpn208dV9YL1Ges+dq8MPdG9NzrQ+73LNptJCyZWFYZ8Myl8sm72Loniv/5u9x+/POpuK6m82BCXtsDHnfWk/o07K5tqxol/cRyb0AUEsDBC0AAAAIAAAAIQAX5l6r//////////8JABQAdHNfVzIubnB5AQAQAIAgAAAAAAAACx4AAAAAAACdd/c714/3vqwSRWirZItkr+fjnCIjNBQNGiTKLGmXksxESAiZDe3yojIe5yjtoq20kzTfaSoN+fT9F77nt3Ouc67rXOe6z32fkzV15hRPn15Sq6U26AcGrVgUpW+vqS8sttQ31tRfvCxqZdTCpX7LogKD/l/cZWH4iqB/8RXBCyOD/vkG1pbGmhbmhsaaGzX/P62vMPoI+KkOgSlD48izwArfh6jXKwWF8riju/D71EQq/KKA2c9HwxQzD75xZibuNY6mD1IycHB8C0UZT0Xp/4VjwqkcPKKgwdfP7CXWjRWl3Yrgx8F5KOnqxMkl8nwzaQbk31XliGXn4en8a6gwKJfeL3oHy9K3YPva1/Qh3llct7CFSkecwwsv1Kj4cxqdmnGWWpUC+eWroZgZUkBfNVU4xeQehNYfQKdj88l3iaWgr7+BZ2TZctXL/jyyUyTMDqUJE3tz15gBuHzeUPbf+Vr881eWBvxO48CT43jqwxp+px8BrYn10O0sBd+jJrDzrXO05gvzYNEZH9QvZ6kFwXzedBRn7lGkk+oecKG3Bf5S3SKWmG+TJJWZ4dL2c6K1kR1vKJQl4XOl2L52DtgrWKPejvEoZLeC4YPblPLCDn4OOQPTQ93Rb888jlSaApvK5PCxpTJ/WjsFK9rHQvRKN9x6eyCvXxBBVmF/YdEuOTyp+8bewyobZRteiCOn3KZ7ae3wihuEpwEbqP7LXHzNe3HcBUtcoLwegkLqqabuOZ3rCuYtU9I58VYx1St9wf55AawtK4svDu4lwwu5sK7zgbB81hncHvkG2spicPWKNNx+sYFkbdZzwvwDaD4smUz9E/BDlha/dVyBig9/iNoF3yhwVQabhngJpkMNuOuUBrbWOKLLhR3YnSHh2b/d2KIiFp005VEKK0AhK5s9I3/T47IHZP7elof+UOBH4Z+hNXIhvmpS4ucpSjyiwJDzn6fhvucREFHsTf5/BuHNyueC/5ipVPtoEEo+dtdOvUI44FUeTtddzAsfVNPW7h77y039+UnzTh76PQftZdIhV92PDb9upgPVh8EjwISPJo3jXQ+qwfZgM+1JaoCMahUavf2zkOWgj8qCQH8ut8PXgw/qkk5PZonSGnw/IxmCHPryX9kMDLurw1u+Vwoj9qug6j4n0pyUjG9r/0fTnkqNv6fiia9uZrB56g97M6+Lkn3+g3jTjV54v/AaC6mm3BCVBJ5Bk8jcX2D3wF91qz9/Fp5WXYYlUvrU+sMSu+ziKefKEdrjacYfPyaw5tq7wkDvAaSdokkZ4M5VjfJkPDYMDrZKCd1ThnN44TKalLiZreNs6U1iLe0vzBF/LFHlBxONUfhszQobd6Ldx7N01XMVNg0PZrtHcjh79gCsjhrPw+9mwNYvqrA8YRCtjFgFPnOuUEjcUPqteJWeaI7Ah5oe3DS4DT7NE1j1fhkH/Qzmo+rbaHDaFvzfxS9ot14fh2z35CSfffzr4ytuclGpPxYXh+uaB2ODagTsC46BP2dOwLLg8bhKOgOWlxlwdoM82pRthchwV5xc50aB1xHD1KaKVa9/CDsVCqnCfRrfaKhhmeQNwhL5S3DuYjIrPPfAQ4W78NSNYjw6YCJfjmkQj68thvKTmyC+tIuurS3GR9Z76nDfJYqacpqerFDnKOlUOnt3ixAV/xXWBI/h40WN4rv7hbh4ci983zUXOqpnS77r5oufTqrgeac74sR3+nhgbD6c6HJD6Uva3FjwBVa9K6UQ9x00b5UdDL6nx77bCtFlsRe2v87A9KEdgvL+Xjw5fD3PEd6KisX6eKu9iorK/xPlHirR8lnWYmtRKX1M3It5LkchbMRrSEuZxo8by9hdVo5L60dI1jbUcq+2lXD+uTWfT5wG03JPStZXG4p+mYaCfC8pUJtdCcqz0mh7yTa4X3UR1yofgTzVwzBZvV3UeZmIjW45KD/sAAycf1VoVsnnrnP3oH6uGvxp/QSXNgbx1vt2rHWeIPZRHWwycsOV86TRzytPKIi1pZG33XFtWBA/iNgLztcm4LFvZsKokeq4S6eF5Kz6kK18CkqsGiBgtDHKf5SC2GgL/rjLTlhcL4dfZsXRxtw9HD04FB9q1VFKgiK/UtZFDUGDPyvJs0n5FsmDE6ao09lJczuaBfvO+ygz+DnUwi4szhwv5L3WARfbcdz70wou2Nwt/v2bSUetXcWnmsrkZzaKb1jY4o3AL+As6ycobHtIVUUF1JMlTeZFtoJJ3UhqNH8FEw7moOIZWf5h6MphGj2kMvg0b8oajNlnJ0NbQ5HwtUUGkp0TYcP8UPGh2QKSuSAI+sei0LpLDXvXI6tqaIsK456AqVEFDI6aRtf3nEFzp1oc3bZGKGlKRQvVd8IS7INVOwwF09dxoPKkkSbphnNIXSltGvdOjNb4n3DJuh5uLFyHm0Os8abDJHZKSUN1C1eauESXp2r/4++25RT5Q4s/vYmG014aQtD0AXwwbj0k6E/FnA+Z9Pv2YXhlPg6vdkVTuoIJe5mp4dryMTzHfzZfW6jKHwU3lDudiq4v/5JtTAa1PJvIBaH9aN7naJ7vrcShjyZi5ZergoXScE6P6Y8RuZegxrabVg7MhRNz1NFI2pAcFH05uvEKTZs+kJd/eygkXL4E8z2kKX9jPqb2vchjoiRYoBPCc+uTeJxoRs+/5Auuyu+Fa5HSwqzzYTisXYnHbiJK6/hLA4Z5Y1xXs1B0b7gQ5quKCyLK6fukfaSvZYivqqfy/PGxNDFBkztvXUWNzkWg1O8CnV8+nDoT/KHVbQkssdyD64Ino/Sob3QzK5yHJ/yk1ZdNMNVcn1urTcit9RVEv6ik4VZmuO3EdrgVkYz3MqsgOHImfTv0V7jq5yvuaT8OVulX0eb+Z9o5TqZupNVwfDarAJLPrMXUmgox4uYbeCf2BZNpNji80xr3qT0QSoOjuWDUZ7iTHAEyc1Rx7KSTks4NT4WYllx8eLwKh9rMw7KQHOrcWAsx5z7DkYfbhfW1A6m1LBLNzo8Soxoncls6SXrpRPM8dyS/zy2wfMhPyPuYTNdMl/O9lhV0MKsCOpyfw/mRcrx8qCLejX0JPy6OBx3NftxUVlvXGFoAOy4+h7EXc9C1K5282+P43Cc5Wr20E7SrI/lDLxeUHgRo0rAWnl5xwprWAD5trMxKMvep14gpHBLvhc88FNj0UApNy3sB69ZIQckVS1zdHoiff2ngLTmi8n6fwAc98FWYOyqYpEFKdCT3vHpF1g27BIOdCfTXoRx1TvSnJHRESeUUVBo4ve7KbVW2Sv6nBScU0NlgjSCvNQ2vryynkm4Wj/iO5s+HjQSV3+Ug9lbgoQq1FN5pjzpWNmLQ31Ji6oNKDj0U8ngf1HcniuvyFmHmyTmw5Ushavs850W3f1PvzwNgbOAEtAu3p8QpU7D0eSLfWOOImpdzIVrFn9s+5ZC9bgLmwyHR+b4J5R05je53q3DY/kvsVB6L06/egUQpWfTWm8jeZvNhkl21ODdzMJoe/wsPXAfxG94sXrjgi8nPrdDp6lgOvjNRLEo4jRkbTvCZ6Peig/ZToT7UkloGbeO82SfgonMK2dxJ5qS3tfDD+A4MnyjHw4+kY3+nHDD7OwXaXMpg9Ow3cHmCMhqE9oGItByweyLw+xuVYkNAH8nfv6PF/pZz4VfsLnH2KE/80JFI+5Yak4S74bZ5q2Ri5VW4f2MKbxMfCKn2GbjmjifHXCwTTF6MRKX5AvtrV3OPzDo68HYxl/M7qol5ScdqxpCewnRODB3JKW/S+EKGM65Yp4xF4VEQ8fkTbdxlD+fOtNGSsoPUcX8hSbcVQdimLD5wOYHqEkay1SIBjRofwhstRf7xM41Tmpgbt90AX/V0XC19El417hSLVsbWvbatxPbMa1BSkoMWWlW4qyYUlIZ+x/dPUiHz2DF4PDJfOD7NjVWb98I0xc1gvSsAJ+yuofx4f05Wd+DfdiNZ2z0eva1doJVOws1kA9pTPgH3Kz+C2Mu68PCSNoW5HoJcjcEYr7Sda17a8IdcN/RybaDhfAhelexEL0tl9KqshEfz4wSDQy6QVhiPQeP2skxrO1isLcdjtUowfpox5vVUU4pMiaAihuLsNi/Oe2SH0QX9uEqqN6frVEHUzxvCjzt9UPt+MPckpiBvDcC5wn5waP4rHrczE7UNjNBhTTL2NtbiZcr5tDo3GB1qU8QYbxH1F+yhh2djuf6TDI5/vxTOrLLnhK9LePmMmXz2ij0+T58OhySxEBwwno0FVVxy3gWVpsng7W2bIMDtFQyeNh6dd5RA5FITcfaJeJw+vwD2vnpJV49o0ZByZW6tleE+PX0wPOkAXDk3AztDJLSsUgbf7b4OwQ2N4ubLw3nwR3k8qxBI39AXF30+CLKHm+tybIyBWorItXcKLJD7h+2EZIx4OBkfel7Ezat6oSTZAXUGNohFkiO4algIOGwA/N8hGXb6/Y0O2pwg1YypKI48BSeW5uHN1+Z8C5RhN/TDsXcv0X6DOJzZrI+pTV9AcVcIhvxMReNlZzHcvC+7zswXs1drguPqodz1fRe3jYtg22HZonmFJnuPiwF3tR2061oT7DljLtakhePBDx9g6NLfQmev78L/5oXCpeWJkja1K9xssIM9Lspi5K0C+vvWCO36FYoj5AaS3b97++ULR/RNHM2md1NxYVopBzd4YaxlFgaULBa3/q2FjLHF8GKLmlA5p4X2lhqg/+FREFY2kAtqerH1kWCQC42FB6lrefEbJWhU/ED6ZbuhL63EAct8eGb5QO70PUZFlxNYJ7AP6y5aDk0OA7h0lw5az6wEi1n/9jw5jXYLm3Ho7rOk+Z81j52XgVI7X4mpdwailfNS8fjXHIifYIOK6xrF00tHc34mSC5F2ENjdSn9khhCr6F1nFShLc7ceBQpKh9Dv8/EKjVFDBrugPU3dWlF4gE81A3oZXpB+DluAx2McIT9z5xYpUIaXm19AQmPwmD1p+PC+d25mLJwMyw7egYCdo/FBxPs6M4Hfb56IJCfXH8nfH9fA9MwkZxsP4Hkxh2YIDsAuxdUQUVBNfSUBsGnBfN54+9iYVi4g7D/sStFW8+EnbmOPH/rFaFp/Fjq3fyB/GpTSfFdKHVdNML1/9nTjiez2HuNt+Sgrawk5389VBzvCDE2JNRl/6Emm3VUqzQWt356IUgp+PKMlgM4LDARF7Vngt7mPvww6A6VOntwcWQRPv38G+Kvt1DxoGZomq2Nd+KrcLa6IyrfGYkOpnKkV50LTc7yvPPHKjK3VeURFsUotzse3jTNEAxGNmLR3i6S21pNaw+ngPePbVigGo4WU2q4/elWDg0ZzrO7m7mhuIAmmafyXp8wtPy9jheoMalfOsk70lx5hMo9on87zzuXEurm0ZKhvcg9fzWu+rQT7HZPl1hYy0D8hVj89sCPtS6os09LPUSpGbB/uSybWOdTlI8+z76uhFt6ZFiuOoK1vEfy8X4SnGGxF5VG55DGtWWU9/mPcM06AeYNz4V+ogpIRemRz5IcIULnEZ3u18KmGc6Ud9QVM+L3wKJidyzvtQ3djafR1zV74UDTSfAYYcgJz3WEJbebcenOaHFU5do6fcMyViruoT39CqmjSo19Z0thXYUZxDUOx0J7RzaYfIsWXgR0gRIh530a3rP8DHPy/OD28hK7N4EH4cOvfzndxfA0LpavNFri4opkcV+vNAza2leQ6Gvh5f7+VPW+nn9PT8dL0UXAsXPx9GY5emq2E21XJHDDS3Mho8eGx9yewwFYQf7jL4gjNI0p95IoNPg/rOt4d1LSa2szWB8+jt8vnhd3O27nExZ6lPtlvBj4OBoPtF5lp8AzkrN2+7lijh+/6VCAVePVMDZ8AZfrVUDM6pfiybFj+cTGWxinNYxzvqlwWLc6PFurg4K5KiodPlOntnkYr/E5av+824ODwhZycoIKH0/oK8zevZ846Tq0OP2iK++82Ozyc5q5Rw29ZE7R88QssSAkEY0VPgjXL2nwtLfz8dRjI1z63JZnPTeB8wVV6DPXHe1/9+LBWv35dWQeHOqzh7dX/BastgfjpCYfkE/z4oiP/35vqy4ST7mg+QdTlNr3VfLNKxNy9k7kQid79LJ14qUOCWJo9hkM1lnL2YVHaO7GlZzv+QwerWP69GIZTv1jzI2nDbkstUvyLiKenD8asW+oG+yZmUBH1MNQa8wxdHJ25xhL+3+8744+jyvJQ84Zn6Z/kJzflIByR5XQ/3UM1hu1009PJ36rXUNnNP6jrXHbRZtLw3jZ20PkqOoCm//Lw3sj3wkO+7Lh+OtVGCk7BhccuEr1l6+LB6/XCBJ3cxZffKRZe2Zi1pAyyN5bzFG+xeRj+R8033LC/tmZfPNvGzmY/sPM3XzY6FBIvDwN53wzoXbZJsFy8WIeaDsGdXri4af3LTG51YZXrt5NoVVTaPf4lSjK2UBtzHTQ+XgBdpyTxXY/Yz7R9qeu+KgN+RUFSfSmJeP7eVGQcOSYGOuZyXIzRvKglA/iw7spXDnGlcd0qWLGg0v07lgbf7gixw+SXbH1uiscnZ7B2nfj+deFjVSbspOXWupgs2wE3egfiVvtTfnr7iW0d4m9WLklHMoPDMOXfeeL6cHB2PfOTKi8Vk7uz3ZyZnEgrRq1jDs/p4PHhP9h6RJdVB4owjbpxWJP71CxscUCKqyymBUtoOy+MQb92MRaj6fAYcMWuhrWHx+rewvZEX35To88a/Y9A2XrjrBJeB619zmAN45OZI1ev3DLwE3Ujy14gEuXEFHig231r+jo+rmo2CeAY2+024cltpDi9WyhK92T00ckoFarEdfHF+KVZnXOjvtJASfq2TEr5R/eQmDrtQKqtXBAv47BgnLLLUqyUKYXP2bjKdkMkFlcwZEn9lNMv4tcHGxHSnkzeYWZIkX8/oPxwz1wVW4ADCnuD0YGnyDdSopPhqfglOQDouPplZQwwQXrAjMhW82OPV7Fw2Gr+aiXb47j00fBjBp77Jr5gEpLr+Ogh9tIXzILbf6Ow+c7EiHwoiKNiNTCpMq1mDW9hA60z8Qlkt7cW8GD3Y75S5aFy0CqkzqprbCD7hodbq0/CUOmqOA09e3Iozaz2ogmMpWMgVLpPEgIyMRbg6TQ/VI/7qnty0EnNvMKfWnu8IwW9lnqcz+hh+pHJbFB/QW44GzLg0rjyao9EbQ156BifAW76NYLAbujqy/tyhHS101nww1jBa+fO6FBoxWWWhai1ww3vj+qGUJ9AvHv5STOnZ0lxOQl82tvOdp+OhC8fpZT6L9//dLfbzTopw53nrAnuQVD2DJRCV1KY9DXOh+l+nZJ/s6ZS99mz2L3bTvxpfoIaGtM56C4GNg7YRc9u5mAjlt8seFJHz4lvwj3TV6N1y+aweM+IVRobM7No45CX81BbPF4N7Zp5PGfgGBQjFFEx2wpfvk4Bw8PeIKTN1RSj+Z7cO/qzwmpbzj/uhvWeKzB8dfHYpRKPs3wTCcHqdHkkNQjqP0p52X6O0Q5Qx2aFXscLTq38bSqFrZpqxfC3x2iwdqz6oKNrDjC2kWSNGc1BuiY4Ynhu0G51BSPnZcF3z//ONhtCLadGUR28X/I6/1ybPe8KfhbJeGA0D50pH+S8N1ImjRumnD+mEpYk3ZDWPAiDfb4x8H4rxlQMCeLPzSaoHXAEMwLyGcIX8zaI4bUduidhiBrW7z/Ogj8hPfompBPLr7n6v4rHYkxGy5S9SYlLqpNQ0XLOJw8RB0n7ouXSG0fIPnz5Bi2VC/lyNuBvPFnOHxKXAsbLtqiTfwncvz4r0a9gS4rLeY/j2ro2iZvFGu3CbrX5vIioyzG8lmiv40mZc0/R3IgQ1NzdcAkcTIbzSrD/cHH8X3tKThanAMaeu7cMd+PJ96dBLr0CvwiV7FUZQbrJjym+0YzIG/5daq9owf97LPx524tXJS8WzQbfYwtqnrhjtPJ1F9GW9RVO8POvBBN7o/DRdPrYex9FVZwcgP3ZmM6v2kxGt86QDY5nVhbsYz6+f2HY+qc2Wnp6to3OwfAKe+FSE+nYEDnH1T21+GOKw58Oy2XN5bHw5aO3fhr8AQc0VYgXO1qgfB9OXzE9zXIBX4jTcddHK79oG6kdLSwg5Q4+No9+Hw4o84k2R+dL9vzWPcfwm23OkoanEM+d4azYtg+Urb6jy5n75e4HVYRThrYCWd2KoruXQnsYqXLfXW9odRDCX8mVdCzFQL/VLhAN0MOUnSoHC/Y4YC+L+vptUcuNT8/jdlBJ9nrVAnU7kvBDXomMClXDyHlJrkUTeTv3m8o+Eul2P3mGIQ49eZE0RczZt7HK3lFXBa2gS+6dYi2p7Ohj8cbWm/4FkKGDJUs66eG2VO9cL2NyHFGW2lumTq56RRgc2AJqyyvoPDx5fRb5z1c3Xccns0/Bv1H/5tx1b9ecgbhZQU9tiwsp4nhEbTUdTfaLFoK4vTNeO6dO6jMIlLx2MWtr8zQ464x67xJghrTN0LlrVWsWDlFaNCvJu96T4xNJrHAagWvnJuBMzSP4oXqb7CtcAQZnV4p6bM6DhW07PHF1eH89Mte6NjpII6o9eAfR2X5T9YScD21BZe+F8l7exzNP/cUp6rtpFkbk9BklhINejkc7GkomfXVxdzBytChWw0b/QaBfGtfcZnLaFjUHQn39nwSS12C2ct3IE0/lytKZR6EDaYaKC91A6wHR/GmGAF9Ze+QZlwOmVhu5Cnja8SI3oNBmjfCzE93KPFDCtx80kSztGJwySppHi9vyCURN+hdr34Stwe+1PvZPeIhLrTJt0DMiYrmddaGeOmHMVvf6JaMNfyn755SeEddi8NLM9itYwBGluxCpwsl6GPYKKqPN2eNgC0Ye9enRmy7LcZc0aUgzwtQeVyJijtuwq67g+h5qhJ3mGXxhbM3JVWZEUxyDC3VA7CX6Yq64HgtDLtfIcjGJfGtSQacPFcd7j7UZyFiGDYabOViXR/0iRvG+nol9GbGRE48t5s9TZPY81GK+FZBmwe5hghWyvsgyfQHfdTYgd8vpOLWkBeCveNCXP92B/RdtY1X/vwjeh5Po309m/Dva0X8cXwPOL2Mhd/DxnHky5nicMcQNPDbgpddr5HSwjVw3WQKp/e6CAp2YbR4dg5mGhRRQrYbrpZZzKVn5+Eeh3YYGh7LOTG66BoUiMrnalnj0SFeXDaUm50fUePJefjMpYkKro6B7uB+aDn8Dez/Mprd9uvBsrLpkHZkK6uGfKXlYT3Q1j6Gj/h0wm6lEzBpjTRO+lEiPCqsEWwf9dCY4N5YePIc1ZkMwXPRqbDRehet617PD3onkVZpNH7dvgaG9PxHf84awKZ3zqw5+xTsOO1LJ+8P4U2GJTB0UgJ0zLuGxU3LMLbpLXwy0SS5Hc582K0Pn/wSxxH3jThdvxu0naew/35N8Dxry4fzisDuQDrqymYLES0juP2Wt8SvoS/XOgQL5UZb2LCyW3CQl4IDa4PA7GYA5qvUgNuadmq1lMGj1xWgV7EGj/3iCKfLIuiB733S+jCG59kVQPr6UbBJfggPWSbNM5Y3oKyMwNdvpmDmsaWs5mDA32WryKi9AqcOicCCOfKo2+0MWR9G4Z/10pyqpoVH7hpy7Oh/Wu9SBy8eR2GeaR23ZdYIs6TDhE3XTWlxjDLeGLUKBn8tlxiMzYNM3wJefGArDlh+E9Yr2XJucaekduxeKv2+jpdoSFCtvBN0t/Tjj7fm8+VcN2wdtkDQ2/EUKvSNQNVQDzusfoDuvlk0OG8xJH7yq/tl+wGWHHhEevWZmKqXhg4KK/GYoxyba60XN877Ane2xfKa0mB4e0iUmIfL22m76YDWl0hce24vp7zQA/etd2jIi07R9d46bmp3FSq/bcYRr/Pw0KNHYmCFJu5R2coKUvex9UgnWTY3ALalccIRR37xnwVe29hCPr/34TVbea7LUsO/I4p4t89B7LDTI3q8BibKl4DOLR+utXDjh5YVdNXRG5ZoCmgQHCOcHBhFg6RH0qXSdfzY8TDrm90Seg7L84yXo3l/L3+Ud+tLnelx3OexDIXsCeEmR3vk+EQ6WXVMOHF4svgg4Za4K/AleBcVk+pCK0iV6oc7Z4YIdXLzhSinLJj6czM5t6/lo6NqqCFoM9WubKahpiNwVXCRfbqqjajuG4jP5FT5UMxBmDpRi8+6+8Cp8HKhcN0QdBumhEtXl+LiSfkwW0YNwzJn4zrDXJ5eGI53O0y5n16ccObMZDF50XtormiC0gPeGHungL72RGJJ34f0f1BLAwQtAAAACAAAACEA3Axwqf//////////CQAUAHRzX2IyLm5weQEAEAAAAQAAAAAAAM0AAAAAAAAAm+wX6hsQychQxlCtnpJanFykbqWgbpNmoq6joJ6WX1RSlJgXn1+UkgoSd0vMKU4FihdnJBakAvkaxkY6mjoKtQrkA67siwts3Y6Y2wbLLrNu33Tayuvbmp15f+xtSk4ds/Y/+23P5Pj7e54lhe6+pMxjt3TtBptHr6Kte2Zt31Ngy227O6V7d61Ypm101M5dGbcZrR9bNtncysrd82arnm33X5W9++7w7DV8v3LvbmelPXH1z2ymX6i3uWvTYp346oDNccn7NnwHz9oCAFBLAwQtAAAACAAAACEAVd9sdP//////////CQAUAHRzX1czLm5weQEAEAAAAQAAAAAAAM8AAAAAAAAAm+wX6hsQychQxlCtnpJanFykbqWgbpNmoq6joJ6WX1RSlJgXn1+UkgoSd0vMKU4FihdnJBakAvkaxkY6CoaaOgq1CuQCrooba/ctt5uxL6w5zaY/YptNmf4Tmy1i6vuEF03am2O20O6+dond25XVdive/N+35Zrxvh+yInsnLc60Se+/tLfEaJGtT87OfTUfWmwZbQPstLfo7FP5v8f28ZRF+7xab9mtED1td239DjvJiW12Qvd+7i3KMd3HezjfzlWsa9+C1Wr7hH6f3wcAUEsDBC0AAAAIAAAAIQCits59//////////8JABQAdHNfYjMubnB5AQAQAIQAAAAAAAAASAAAAAAAAACb7BfqGxDJyFDGUK2eklqcXKRupaBuk2airqOgnpZfVFKUmBefX5SSChJ3S8wpTgWKF2ckFqQC+RqGOpo6CrUKFACumSLt+wBQSwMELQAAAAgAAAAhANcoqvP//////////wkAFABzYV9XMS5ucHkBABAAgBQAAAAAAADfEgAAAAAAAJ2X9z/X//vF7U1EVnZFVqkUXq/n4yJR0kAaKKFIaZglJDuUkJWRUJLKSBnxej4u7SQaihQKlQqptFR69+n7L3zPb9f5+dzOuV+Zq9etcnTl59vHF6Hn7RO8NUiPo6XHbDPVM9LS2+YfFBLktcfDP8jb5//8pV67gn3++cHbvQJ8/t2zTU2MtBbM1zfSitT6f0piTC0VldUt6cLUy0TIyxAGNapA+tlKYvNS1LJPbgplGwepz65CWnv4GHsnvBlqyzOgvc0M3DxXgeDFDGJzrgsKpk+D08IJpETgF/vigANaaE+SXToz8J1uHJnUXAfJqjIkMnyEKk++gJp346QtzwCWLVAguB8oBndRyYJiEvdW1TJlx27IT1RGpC/pWQM+y7fLE3Adfyn+Fkembl0emR/wGhTeJ2PbhCqIBVaCS+oQzR2jzHCwPk4REcDwR0qUO0eWW5TFEsH8GOQourMgNIBfx6ZThjwghiYxZCSgBk7n9bDxG+fgBpEE4h7mjd6pHhBxSb95v6cDyO5/TYvCvnJXTF8CzT884UYMwK0jNeSobi6cM5Kmeppl5PyoPL4d+0Tg6zf68gnSwiuSxF9qPzzYsIsrcMSY5D5aB2u8xcHPMpiEByohJ3o/CGmrkvTXcawHaOAxcQ4JX2RAeJ1H6Nk583Bekg3JOJtP9uwowTqbUbYZr6Do7Z3QLaqOzk6CYGiSBR1/T2JOLuA0+3wcp9Io+fIqkcpzgO+BBLlfxEh2xVTLg/sbsd5nJoocc0T/5y+x6T2PqXJSZAL5s2mY/xKM5bfA82Irmic74klnzGo4abwH9x30AlspQdwrHoPseW8QKG2FqB2a+O3uLbDYHEaPn81Bj9WDsMohDnu9TNHHORWHvRzxzcVGlEyvolPNa4DbXI+1cjxetbY5s3peHQRUbaFtHWHs76ylkHVxI42KnUV7P96HFeKZsOQYh3nSHkkniuuhV/YifS0jAsuFPNntu+QwPOoWeghKg/WMzwx6bcCeRxk42lVOtZzvglaSKp5+pADjXhXsykNnaPGrchQxXQqVLU6w+tM5dnihH4+Y/oaj2v206+l7OoEVVFhjD9QFy8E+WRXqseQzHb3/FZtOd0BbeDm+Za7TSf0suudtJrOWHcK6iTTc1TQPdRIHSDmXhw938JG/0h2Mr0U8PE78xZub24B2f52hSm+A9eDFkpTXVrS6UxLt3ifi6zhbkm3CYwvIX3JA8SpEqAzCIq8aZuO197RFtwvyz+Sg0scT2GsthKlrosl+81y64pUGyZrRw968E49vyvKxwUO4mSesSHbYPmHKAwiE87GQXfQOJl8eICtC/ShVaYakoQYIJ72k83EMvebjgd4FZyH+vDx01CnBnDY3vHr6FsKOCupflsCGSHaTus/9tLHqExNjJ4UPlMzAaW8wiY3UwetSUhAbwxJRnadMf7gbDAn6QffBMeozRRvqpJ2IdTWlckZ78OBlB8Zxzzj6LOkhX7+fpPHHPDH20R0wt5+GNEYKlX4VY0GANBQGZyEGi9PazuN4rz+NXXktkZlw9iUTa16gzHM+8sF+CpgfUINLixvZJc2pUJ3eQPNGS2lbrwlEJtiRqd2z2Wrj5Zh9yg3a1b3R9+NSNErWZN/Ly1MRJcrKlczH6hVmJC7rG64UELdUuhCDPu15PMV7IfTVYmfuKr/3xFciE0a7CfIUt2Mmfy+NtnLnXtoN2H40ljyM0Ue5/l4Sipm42SEN8+siMUxmMUxW6UGt13IiMzRM9nb1EnJ4O0wrX4gzw/JQX/sRRh5MJwcHCnCCHCNXp+SQmLRSNuoD4PJeJOF9flCxdhrCeAYRl7tKYr4toClf01GnUQFNLPPpnP49IL88nt33cB52a/pBbj+CpWsKKI7PwIHb4bTn2Tla84mhuT6NaPKvgDkHWxmeUT7x+HmXmDekwHjmBtC2nsrOVlGgP7WzqYRvBTpGFiKnuxZP3o9D1U0p1OBhCJh9ZqnDukCUFbvAWlsLgqm/Cc0JV2OOR0yQyFZJbPdp5V4fNqCcJ+EoUJGNjzPFcHtxNHNH4gWJEAvB9ULWOGr1kZaoV5Hd2i4YmZ5OS7Mc4WfrCLs6fzpu/vqeRjsWQcc3OfR03QIv0q6TE9tLkTsuCNPl6mmBTjxslXkDOQvM8P4VS/jZ4wI7TEcJG+CALorW9NtUDxoakkkuX08nxV0peHNvJUiIFBPHahGa5HSDzOw5A3qylnjcsAoW7psgzVnqENZ6DswvviciU8vA48hpXLzOh9ia7IAhfQEiceorKuXHMGoyiZhXoweL6Rs2v5YLt3jbwe2/Rny3fZTGsZ+4Qd+kwDQ5n7w9eAd8PzTQ4uUXUXZZKM1TlGneOVjDe9H3mHzK1AWtM2nY3TgF1j+2xZpQCUvrUU1oGa/F4e+/KVf5Ex4sFYH0u75gxV7AgO9qcDmnBJfrL8SPmnL0W/EbjG7ggKRrGZSUqdCfgytgIexHIlBDvNb54K1gcUhpP8BarIpHDyUp8OKMoH+/Fhim/aSHtePA2yuenH+YT907wqn5zWhg+R+DUUUdXZLZRPld1MjfWAbaWu8A87eSGu1tpXaNys0PLq+iQ012ZORdI/FSnkt+zUISGhjDiutfRoltO0F4fy04/ZpqaSXkCE43V4CYyXmub85WVi1KGHOTeQQPfcP3A4vwT9cunAfFzPoxgKRKO9K3bZgZUPRDsX95jzkdCSeTh8j3gXxqdHkjJgmP8Yz3X8CbSsWY7bGJDpm3Y9sMRdx2cjP8qF+AcmFvrvhK64LpLxtoSBxgnk+00u6+dNCyOwnwTJY5vewPfRqvQ697piAvJwn2uQzCDJd/m+RRiO/Er1FRzT3QWscP3cMldPKHIiiUrefILZ2DR89fhPcG80nzvMtUckEthN7fAQocaWjr+UvTwx7D7sW12KlXTpJ/JuLtglQwHvvCzFqWA54NMWQ0qhLei40B3yFFPGoSBKazjmBQTR6bbCQHHD295rKiVtg0FID8kRy60lmeCKWHoruVGNyWdMOWyJXAZ3GX5k0TgqIwd7C2EwWo3Y96XxJI8O9LTE/gNCTJlsh/RhQT1y6DHUuesJ0/a0iciBmuXCrEpkSFYjynl5oJfeTqawwTCK0kl4T96OTrenpa4ihcKu+Cq4IuVODGbVoc/wOMrYTRzkUR+R9EUZftB+mLaDeo111DhlIL8ZRGHEoKeeMTI0e42ScKO9inoKdggjWvlhJGNA6CCsfJvdsvmedWMnTLbT007HlH3fM6UfdsO72+pRnddf71z91k3sZ0cTgha9bsb+QB7j8EQehyCkksI+DM/GTITxn0zJlB/eYIwNbsIWbd2g9YJWiAPwviwTCkEHMEhXGndxeRTf6BotdtyIonimS98QtWuXMq+RhgTYUWWeKgTBk6zDgG0X8Nm2/0jKKM0CCusctHX3Me16NMg4bU6aOE4006Bw7DTAMnqM5djWelM8ByphTzX4I7iW5yBBvcAM+yq+m7wG3MtZ0NNMhvFh3M7SLuBqmgd1MY6r2GyRKJOzRG/wSqb89CZVtFy9qDS8nmxAtM/IGNJH9WGdrXN5GqhhxQtPfAqhMJUJzmhIpzi3hnVOrRIqQNAwqbUZ2vn15SrYGo3zkkxWGU63g3gk7O1UDT4Hy8NlEOZ0X64QGrQveVlTJJhboYNOBIFz0/CmPmN8hss3oK03YD78ljaijixLa0B8At2TUYZ3WG2mpR9H16BYf/OwruE12Y3WMOuq6HwMvpOklaaApSHEOsUT/F3jpoCLOFnDGOqhHpu/fxrQpL9L4oolNYMrlUFkxErsfg3coiMN0igt5WcajmK4OCa/QsvRvGCXsmFV8YxsOfhha2JC2A/mnNQJvmrdhnKcYeULNhk05WMppZacD5kADSn4ohy/YoEV5lgS8Gt4My/yEUi7GECV4qWLWEYPI6LjEzW4LlgbnQV+hF/mTctRAzXYcXTzhwHduSQD19Kla6bQCNV7mcWg0p3LHKk15+F0e+DKrDplBNXOvnSwtKpYm6gBv8uCCIAhEfmW2OrmAd8wz2BMzCY1x7mFv6g2hc7qcjxgm4eOQC2TCFJYUnR7FcVQdNE8vxucwG+vTEQoyubkczzgwIPWpIV4XsQqmvd0mRvBL0fNgEd+eJQ4ZvKXN+IAkmT1rDpddmVFwnD/mqB7nSgsdw5uvlxOS3c5OCvxKWHeDQRxY6sNgzhUY88sRIfW3oNdkCXxa8Zc1XUjzbpYNqEfa4p4SH3WdHoKetkTgcWgbj1AJdY5BEvtNA8/4keupVD3HKLkXbQEoUPK+Ri1Hn6A9XVUgvnI9btnTwLtZKk1fjk/hwtBmOpadA3vQkYqveTdrPvWRTJqLAavwrDK31wLzeXHTInYcq4gQSZvDgo18srL6XgSesu8xvLjmOwluLMDdiCu7r/EqtpRfin11zGc3Uy7BeZjOwwjxIEJwGkq90mJuHr9GPs4Sax62sQHOzGl3z6C79cowDc3/9JFMTXkGEQhlI2s6AFUZWIB+wmmiPNkBLtjuQfmPcvugUeElzcU6xpGVa8FsyG7fg9f1CmHjDF16eOwX1a3LpU0EJGNnkBBp5y2DmA31S3ZdKRL32gF3iL9r9290iK1YWjJUyoGKon7trbTlZI8oB+ryIqEdNtZSda4CbQ+fi1QgVwMY1KHGtAq6vSIJjaS+o0bU4Os5NJ5H9Hk0SLhpwVWTLvx+gBUVt0mi8siMe/jgP7Fc5k+SNf7mdG0oxZzwChT/qggWINZ/qOYLTI3Xo+aM1DP/5+bw6g3J4X84PmQWB9ItmPcbvMgW/221Ud62g5QU9ltwZuQR+Jvfgyu0n2BVVRmLCRdmxbcE46xvLDG4bpieze2mGYD395bqc4RtNgjV9BoTfTpqq/MxmVF03Q6rrKfJ7jQuoFHdRkcxtILw5DguTgIp8OgphuuY4FvGY7A27SHafKSRVM49AQ0YlOd19mpirZ8KgIz+qtoaD3fRTWD36hp3PGSZJhUJgEp6K7l7eqBEkhZtXesIPuSP0g3gBrpvqD5O7Z7IFyxWou00NNk1bzGgWv6LSN0qhkDyiJVMOofmcMWK/P4oa9X0BwQtKIGjNj/6CT6lpYjykLn9DHdovYuFpFSjyimWca8zwMK8Fkp9LWNbs/cgOXHIFx/wktlwlGnvz86CT8ccSYWOgZREMkxpE0hSUyaGT7ZA6Mxh0lEqYKPlvQKK/sS03R8i37q2M8fnj0BX/EsUPI9HsuAJ2twLpLO5K7nUlHdjxcBj1XJIwqS4O/+Q2wK71a1FuaDPUzTdAXxtek33HVSoaVYU+D9OxVO4s4ztQhDNAirotlMbFU7OhrLSd6tpHQmrYNgi2iyZXvuhiybV0ukdwuCnDUcFy6OYVrPtzANh37wjI69NQ4TbIK5MH73NpoLW1Eja495IavxPwuTIW6FUDFLhjAPHB3tAei/RaoiKaOvNT/mk/yejLXhr/xQINZdKZq0tfoJq5AtwKvg2tBbJ0Tnw/cQlrgCmWJ2C38BKirFsLe39H8tSqzxAppUquV8BHXCXSSvg5Y2Rk7yl6b2E6Dc2Vpxmv5ckCmWjy9l0JKnQl/eM2MdgYIoeBUZS91rcIbihOEDcdcXR9zdcs3KIBz3TioDFACOadywG34d109q9LpCeNj/zXHwYTQXOYJ2H86L7IG5uUN+GXgFs4Z8oRmGUyThNUd0N6mjktSlVBHTE5sP8eCIO+3eTOP2YyfOJFKWMDwqtzcNOTAlTJVGaLL0SQov3iLH9LNY2/Jgx8cl/x7SEkC2d00S1uI0TteB9HNUMBHSvM0OX4OCwSz4AWAVsMMYgDPvKK6IwsI3+rO+ickcO8wrZIaFmRjnVKdhTWtJD7L+3pypMr8enGSrriiBmdNx6LiZxFaCs4HX+HfWanb//A2vz4Qm4puoCtkTYe+JuIV98G0tatR2CMLwSFCzsYLDkEQ6tk0HHiPuvjqkV2dPylL5oEcKvBQJPZzH+MclAO/FtN4dDWTIgO8ieLxaogrJ5SBb089Ck8Cnwv/2OfK13hPN4I0Gk5QJTn91NPJou+0tYDt1Bxyn/uPutkdwcMl6eh4tlX9L+G18RYW5dIvJNsPlFoCBmjf4meZA5xXj1KKoqj4MhzScKvsp7p7EylOJiG0UoVpPtkLsDhE8TBJBFinznizV35cNxKD3oTd6JwZz4u+JdRvmwbenX8ECqlrIUw9jJOnSzD5/bBqPv1Hjc6PgokZVTgbkgElvcA9k24gJrzNvpsZjAxSJDHeXxOuKViJ8TcU4WnQZJQO54ONaUpvCmGLBpLmKHhoD/yyR/DygRpUCvKxrVVXJz1WIs6J2bioMds7FgqjeJ6GWj0IxqL1HlQ8zmRLHQvZlewZ8gyCxeO0HAO9g0q0W4BGbwj/p3mXBmE/xTi2QbBGHJQ1Zex1X1K192YJJzJCrrNRL35+DcD/B9QSwMELQAAAAgAAAAhAIX5NQ7//////////wkAFABzYV9iMS5ucHkBABAAAAEAAAAAAADNAAAAAAAAAJvsF+obEMnIUMZQrZ6SWpxcpG6loG6TZqKuo6Cell9UUpSYF59flJIKEndLzClOBYoXZyQWpAL5GsZGOpo6CrUK5AOuLb8C9tjmydm8md1jfabs8B6tjhAbnmfpe67x/dh9t5/bpt327p61uz33lLPu2vN940eryz1rdhdWqu9atT9/z9RLq22kGNRtWr2271l26Zb1XdEe61//Vu128Pu4x8pzlk2x5qudnmyl1mERz20YArR3HmzjspnL+dUmQOuLTdaGBTabHrPsAQBQSwMELQAAAAgAAAAhANkA/Gj//////////wkAFABzYV9XMi5ucHkBABAAgAgAAAAAAADhBwAAAAAAAJ3I+SOV+R7AcUO2kKHFHl1kHfsS5/l+HrI2YyYpFS0iR5QoW6ayC21akIQ5TGUt2izxfD+nxJiKMkpKiatOEoNWpLp37r9w37+9Xzm/+P7s7fedWJzYPoNgfvTWKANHHQMmxMbAVMcgJDIqJiowIiAyKpj/P3cPDI/m/+PRoYG7+P+8obWVqY6lnZGpToLO/9nc4KEH1MdzEWyWzyHxyYTtd9bA+DA5PHZ9gfCSeRGqjqZDrFsdORNlROs7lIWx2iyVhBMYr2XSkKSUAU05P8FIXiG8epqH9qFenMV/VIRDllGksfQg+mQthW2d29DsZDc9rfIAbq20xlSlU9j4pxSo7IzGPpf9gN2FtODtMLz84V/kcEM98Mt+Q4fKGjzi1UmsijIhUXAcTl/pw+DcG9hWwDEnCzvIpOxd6N9SSCzUzEnb7ClaKLxNnfI0HFvmecO6+DGismo3xjtMQ/jEARx3NIcKu0w6bTjXMeWXF5C+YBLbl4dD5UgwL8NJDjhnpA3SfrRiNBYmr1igA9vO62oY5vavKqNfX37kCTq3oJfqfOH2ZFU27oMP8HX1UClOG92MlNCzshxUdt/AMFEL2T3tTHPjJqlrEB+dZDqx89wwWb3lO5S4kQuDb8xAs+k0vv0hGPZEuELZUjXgOuJhqGIeFBsuI2HJUqzPsffEffcW0mauAO+SZDGmtBvzzLPoK2uGCmTCaGRIEcisSYVYBSG1KrXA/I+lZDb9MTFW1ccdLQbY7xQOm2d+Jf32w+RsSQa18eqjmS0uTdOfbeF8nz/ObjgE8V9ysWizgHQ8WIPGAYdh4+gnsndTObVrHcVDkd3AO5eL4p7yxKLSBNglz5ndOZHMDETjFp4M5msbY4RtA/goHyFaU01U/ryE8LgqBwVjJnAg6SzMO/k3cejPQdl3FaDoI4fyB3ppQuJ6XqL7S6opmoM9lhfxxdQfqO4hSUrO8uHlRDpR9U5H6dNrQf6RuNCvV1EI6x1pTv4pernuADivKKaL55lxGgGh1C1EjS1XioTTvoHN/etOkf2P/PDGzzVwRVQNfSklkJ/cibL5CdjbWNeUtXIZz1osB2bujZFz7gXUPyIFXFSTcUbdEe58FVCBbANkiw+A7c37wPRG457wBBTsvwoujYUo+0ScFQWuhewgNXSIOw2iDRmQmxqEPissYDL5FZQNhABNDqVVf3rRQs8OerD+J17Fih2c/zMXzJvjBmkxF2h6zwbc0NtKlsSfYRoz3MC3Zw3Y/+2HQUYMsLKawk/iNtTbzB013iuTRJsB6MzVwDsBy4lT+TSw3p+JdooMjKilYZ5AFXe61dMxI1X2YWsRJ7NCCe8vMAYf4x/RIyEbi3EpHZuphlpRFopxr3CcWwEvFi6hz79mEP+pjbDMLp8MxBvAXVtZhrdtPcmb8ABnnWB4apKDj7L8sUtVghreXAk9A7EQtuEZJLb8DjP9VlgVJMUq6sWg+fVRrn2lPntGIw1uV1WTdokw3HhZEW1HtlOHkbfIJCXRQ8HXwOrKUQzUl2S3HZalKnfNhaV369DTWV9Y92UMBtlp6n7iGnzVr4Uvg1ngtrkWmRRtsnV3Lfg7KcI3qgvmTcm0StcPHB9shQRZK3AeR2j6NYXuu3af2S9XgeqWyrDvUzr6qCizoZ8PoSCvADQmAlA+UkiX/1EAH8ZL4NqtE1zEVBcEN3zlZudKUDmTDM4jxxBWgxnYlW9nlM8sgin+dYxt4aGDVgesVZQTKrwZYO75SkLHjgJMjW8H49IY6HSwAZMbflTaei6t7eAz58Nf0nfiEaj01orMq5DDSbMSvCvWQn9vM4XR2Wi89Fsx5N8OoLMifvNiKin0kKnFHXOEcNtSDPRKOXrtSyi66h2hroo9GH64nYhJ7kQdmWY4xtmT9FQOiuffxzInWQjYM0T6P3tzPdXfmEZhJum6+hB2VE+Qnr+24OoiKfZY/49wbV8x8X+yk3OzbCPVn4/SurhU9NTzp3WLnaF1OB7G6z0J+3QrtPemkBI3yggfsxguSiXLUo5yhtcvcEqJJtzW710JKtTA2HstsM8WkdyNptTl8hCO2z9hvvndgV/rq0FfppzG7R1mGtUPgFjkbdAY0UXNqmk6apRPK/IvQXjNYmHkwgr8mN1E6UUKC41n6SqjIu5IxhdySMUf+1oQ9vpKolG2JdxRqSW6Xs8gSDoBtbpz6casZDjYtYSk65bwPqWG0tq0YWSsr3Afk1gcXPmAOEiZsnvsTTBt6iQKzI6iFPOYkcDqZmmTCoZfqYC7PpiD4Woz+vziPWbGQhbUwB3FfVNwUWIrGZhfhodMh4i65wyjqTeHdV4QgkpNkiyzrZ8cN3Oj9fN0MU17D1larA5dQ1a0QvMCWRdeSI8HCmjyruXIumbCw73joFh7HtvsX5DlxcvgU8wwvC5cC30aWgj8cbSrnqVXjSqpSpcpCg+mU8WpVIybTcHt+4PooNtfPNveCRAxN0HMNgc3rXKG7O1jMLGpHWo8nhNS9YqY805ga+0J7DZxJK3nr3A2qtWYrH8R9hY/o845T5uz5n5rbmy5DlFxF0D4WkTjWozR/3U4Zh9Oo6LjsXA99B7vdSCiooI9DYhdQmoGMqFWbylhpFzh3+VmWNbVwQRLDEBN7iAnet1COwW+ID0xis/lvsebdfJo4H8Wx7SONd8SZJLJGWV69k0b/hdQSwMELQAAAAgAAAAhAKVuLRj//////////wkAFABzYV9iMi5ucHkBABAAwAAAAAAAAACJAAAAAAAAAJvsF+obEMnIUMZQrZ6SWpxcpG6loG6TZqKuo6Cell9UUpSYF59flJIKEndLzClOBYoXZyQWpAL5GoZmOpo6CrUK5AOuD1FfrXu9F+wR3mW25+FmRtvzr7fbdMVUW9dlGdnof2m3XfW9w7bSU3av3fG5NosKj+8u2Lfe5uqVfht980t7rU+w7QYAUEsDBC0AAAAIAAAAIQBQo9x5//////////8JABQAc2FfVzMubnB5AQAQAIABAAAAAAAAVQEAAAAAAACb7BfqGxDJyFDGUK2eklqcXKRupaBuk2airqOgnpZfVFKUmBefX5SSChJ3S8wpTgWKF2ckFqQC+RqGZjoKJpo6CrUK5AKu8nKpfefaOe22XyrYt117ue2+1s97Pbjm7rPVEtnnE/bY9ulpq33LWrTsshUk7LS7uvZNb0rZZx/3xOY04xHbqfNv290uadsb6LfNzuxH/94XVq77aso19zll3be7ymViF+Gxw7YmKHI//76X+5TEH+ypjV1p9zrjz76nHvvseOpk7Pu3f7K97Kq4f0tgg/UK4S22B9z7bfU3MdpnOO/Zt/j30n2Nmz/ZxgRw7F94knPf9p2tezLZFuzrtHOza3m91Y5tae3e7S/Z7aMcZffFqcyzW7F0n130smu2/zhi7QQUptoxNxzcm2iwYp+ByFW78oA7+84IrNwnpNS5b1dq1r7cT3529x399jLNSNkHAFBLAwQtAAAACAAAACEAZC/ex///////////CQAUAHNhX2IzLm5weQEAEACQAAAAAAAAAFUAAAAAAAAAm+wX6hsQychQxlCtnpJanFykbqWgbpNmoq6joJ6WX1RSlJgXn1+UkgoSd0vMKU4FihdnJBakAvkaJjqaOgq1ChQArnN3RPZN4PK3DXnvY2tfaW4LAFBLAwQtAAAACAAAACEA4rcIq///////////DQAUAGZlYXRfbWVhbi5ucHkBABAAHAEAAAAAAADRAAAAAAAAAJvsF+obEMnIUMZQrZ6SWpxcpG6loG6TZqKuo6Cell9UUpSYF59flJIKEndLzClOBYoXZyQWpAL5GsaWOpo6CrUK5AOurD9Cdszt0g7rKxfaq/91tH9odMj+VXCe/Tx5Afuzp+vsXxu1251OFHYw7DliP72Rz77PXMReQuCtnZSpkx0DQ4M9AxS0v/lnp3yYwf6c9E47ccUVtuXr2e2lF663g8mzZf0As5812Nub/Guwm9POYH+nmsF+x+Q1dn9CVtnK+n2x0zu7whamPlP+oh0AUEsDBC0AAAAIAAAAIQC8zCpg//////////8MABQAZmVhdF9zdGQubnB5AQAQABwBAAAAAAAAzgAAAAAAAACb7BfqGxDJyFDGUK2eklqcXKRupaBuk2airqOgnpZfVFKUmBefX5SSChJ3S8wpTgWKF2ckFqQC+RrGljqaOgq1CuQDLlPZOLtimQf2+2JF7dnWLbU7OSHSPvbXY7svrPV2Jl9n2XOmb7GbkLPNXr+0xt7niLjd3/9KdiJ5lnaqd0Xsy89oG8HwlHPz7CaJz7fbw/HdNth0mu2aaZPsgtTC7GDyPPf+g9mtb+/agfD03Yvt/E4vsTv447dtjWOZLVfkRDu/RzZw9fx7f9sBAFBLAQItAC0AAAAIAAAAIQCyLrrahCQAAIAnAAAJAAAAAAAAAAAAAACAAQAAAAB0c19XMS5ucHlQSwECLQAtAAAACAAAACEAM3IP/lIBAACAAQAACQAAAAAAAAAAAAAAgAG/JAAAdHNfYjEubnB5UEsBAi0ALQAAAAgAAAAhABfmXqsLHgAAgCAAAAkAAAAAAAAAAAAAAIABTCYAAHRzX1cyLm5weVBLAQItAC0AAAAIAAAAIQDcDHCpzQAAAAABAAAJAAAAAAAAAAAAAACAAZJEAAB0c19iMi5ucHlQSwECLQAtAAAACAAAACEAVd9sdM8AAAAAAQAACQAAAAAAAAAAAAAAgAGaRQAAdHNfVzMubnB5UEsBAi0ALQAAAAgAAAAhAKK2zn1IAAAAhAAAAAkAAAAAAAAAAAAAAIABpEYAAHRzX2IzLm5weVBLAQItAC0AAAAIAAAAIQDXKKrz3xIAAIAUAAAJAAAAAAAAAAAAAACAASdHAABzYV9XMS5ucHlQSwECLQAtAAAACAAAACEAhfk1Ds0AAAAAAQAACQAAAAAAAAAAAAAAgAFBWgAAc2FfYjEubnB5UEsBAi0ALQAAAAgAAAAhANkA/GjhBwAAgAgAAAkAAAAAAAAAAAAAAIABSVsAAHNhX1cyLm5weVBLAQItAC0AAAAIAAAAIQClbi0YiQAAAMAAAAAJAAAAAAAAAAAAAACAAWVjAABzYV9iMi5ucHlQSwECLQAtAAAACAAAACEAUKPceVUBAACAAQAACQAAAAAAAAAAAAAAgAEpZAAAc2FfVzMubnB5UEsBAi0ALQAAAAgAAAAhAGQv3sdVAAAAkAAAAAkAAAAAAAAAAAAAAIABuWUAAHNhX2IzLm5weVBLAQItAC0AAAAIAAAAIQDitwir0QAAABwBAAANAAAAAAAAAAAAAACAAUlmAABmZWF0X21lYW4ubnB5UEsBAi0ALQAAAAgAAAAhALzMKmDOAAAAHAEAAAwAAAAAAAAAAAAAAIABWWcAAGZlYXRfc3RkLm5weVBLBQYAAAAADgAOAAkDAABlaAAAAAA="

_POLICY_MODEL = None

def _load_policy_model():
    global _POLICY_MODEL
    if _POLICY_MODEL is not None:
        return _POLICY_MODEL
    if not _HAS_NUMPY:
        return None
    try:
        raw = base64.b64decode(_POLICY_B64)
        buf = io.BytesIO(raw)
        data = np.load(buf)
        _POLICY_MODEL = {k: data[k] for k in data.files}
        return _POLICY_MODEL
    except Exception:
        return None


def _neural_ship_allocator(global_feats, source_feats, target_feats, capture_ratio):
    """Predict ship fraction [0, 1, 2, 3] -> [skip, min, 50%, all]."""
    model = _load_policy_model()
    if model is None:
        return 3  # default to 'all'
    try:
        ratio_feat = np.array([min(capture_ratio, 5.0) / 5.0], dtype=np.float32)
        pair = np.concatenate([global_feats, source_feats, target_feats, ratio_feat]).reshape(1, -1)
        z1 = pair @ model['sa_W1'] + model['sa_b1']
        a1 = np.maximum(0, z1)
        z2 = a1 @ model['sa_W2'] + model['sa_b2']
        a2 = np.maximum(0, z2)
        z3 = a2 @ model['sa_W3'] + model['sa_b3']
        return int(np.argmax(z3[0]))
    except Exception:
        return 3

def _neural_target_score(global_feats, source_feats, target_feats):
    """Score a (source, target) pair using the trained TargetScorer.
    Returns attack probability [0,1] or None if model unavailable."""
    model = _load_policy_model()
    if model is None:
        return None
    try:
        pair = np.concatenate([global_feats, source_feats, target_feats]).reshape(1, -1)
        pair = (pair - model['feat_mean']) / (model['feat_std'] + 1e-8)
        z1 = pair @ model['ts_W1'] + model['ts_b1']
        a1 = np.maximum(0, z1)
        z2 = a1 @ model['ts_W2'] + model['ts_b2']
        a2 = np.maximum(0, z2)
        z3 = a2 @ model['ts_W3'] + model['ts_b3']
        return float(1.0 / (1.0 + np.exp(-np.clip(z3, -20, 20)))[0, 0])
    except Exception:
        return None


def _build_planet_features(planet, player, planets):
    """Build per-planet feature vector (12 dims) matching training format."""
    is_mine = 1.0 if planet.owner == player else 0.0
    is_enemy = 1.0 if planet.owner >= 0 and planet.owner != player else 0.0
    is_neutral = 1.0 if planet.owner == -1 else 0.0
    d_enemy = 999.0
    for ep in planets:
        if ep.owner >= 0 and ep.owner != player:
            d = _dist(planet.x, planet.y, ep.x, ep.y)
            if d < d_enemy:
                d_enemy = d
    orbital_r = _dist(planet.x, planet.y, CENTER_X, CENTER_Y)
    is_orb = 1.0 if orbital_r + planet.radius < ROTATION_LIMIT else 0.0
    return np.array([
        is_mine, is_enemy, is_neutral,
        planet.x / BOARD_SIZE, planet.y / BOARD_SIZE,
        planet.radius / 5.0, min(planet.ships, 500) / 500.0,
        planet.production / 5.0, min(d_enemy, 100.0) / 100.0,
        0.0, 0.0, is_orb,
    ], dtype=np.float32)


def _build_global_features(world):
    """Build global feature vector (15 dims) matching training format."""
    player = world.player
    my_ships = my_prod = my_count = 0
    enemy_ships = enemy_prod = enemy_count = 0
    neutral_ships = neutral_count = 0
    nearest_enemy = 999.0
    for p in world.planets:
        if p.owner == player:
            my_ships += p.ships; my_prod += p.production; my_count += 1
        elif p.owner == -1:
            neutral_ships += p.ships; neutral_count += 1
        else:
            enemy_ships += p.ships; enemy_prod += p.production; enemy_count += 1
    for p in world.my_planets:
        for e in world.enemy_planets:
            d = _dist(p.x, p.y, e.x, e.y)
            if d < nearest_enemy:
                nearest_enemy = d
    my_fships = enemy_fships = 0
    for f in world.fleets:
        if f.owner == player: my_fships += f.ships
        elif f.owner >= 0: enemy_fships += f.ships
    total_my = my_ships + my_fships
    total_enemy = enemy_ships + enemy_fships
    total_prod = my_prod + enemy_prod + 1
    total_planets = my_count + enemy_count + neutral_count + 1
    return np.array([
        world.step / 500.0, total_my / 500.0, my_prod / 30.0, my_count / 20.0,
        total_enemy / 500.0, enemy_prod / 30.0, enemy_count / 20.0,
        neutral_ships / 200.0, neutral_count / 20.0,
        my_fships / 200.0, enemy_fships / 200.0,
        my_prod / total_prod, total_my / max(1, total_my + total_enemy),
        my_count / total_planets, nearest_enemy / 100.0,
    ], dtype=np.float32)


# ============================================================
# GAME MEMORY
# ============================================================

_MEMORY = {
    "turn": -1,
    "last_obs_step": -1,
    "pending_launches": [],
    "strike_target": defaultdict(int),
    "blacklist": {},
    "capture_buffer_mult": 1.0,
    "path_tolerance": 0.25,
    "tracked_planets": {},
    "last_decisions": [],
    # V10: vulture tracking
    "prev_planet_owners": {},  # planet_id -> owner last turn
    "vulture_targets": {},     # planet_id -> (new_owner, flip_turn, garrison_est)
    # V10: consolidation
    "empire_history": [],
    "consolidate_until": -1,
}


def _reset_memory():
    _MEMORY["turn"] = -1
    _MEMORY["last_obs_step"] = -1
    _MEMORY["pending_launches"] = []
    _MEMORY["strike_target"] = defaultdict(int)
    _MEMORY["blacklist"] = {}
    _MEMORY["capture_buffer_mult"] = 1.0
    _MEMORY["path_tolerance"] = 0.25
    _MEMORY["tracked_planets"] = {}
    _MEMORY["last_decisions"] = []
    _MEMORY["prev_planet_owners"] = {}
    _MEMORY["vulture_targets"] = {}
    _MEMORY["empire_history"] = []
    _MEMORY["consolidate_until"] = -1


# ============================================================
# UTILITY MATH (preserved from V3 — battle-tested)
# ============================================================

def _obs_get(obs, key, default=None):
    if isinstance(obs, dict):
        return obs.get(key, default)
    return getattr(obs, key, default)


def _as_planets(raw):
    return [Planet(int(p[0]), int(p[1]), float(p[2]), float(p[3]),
                   float(p[4]), int(p[5]), int(p[6])) for p in raw]


def _as_fleets(raw):
    return [Fleet(int(f[0]), int(f[1]), float(f[2]), float(f[3]),
                  float(f[4]), int(f[5]), int(f[6])) for f in raw]


def _dist(ax, ay, bx, by):
    return math.hypot(ax - bx, ay - by)


def _fleet_speed(ships):
    ships = max(1, int(ships))
    scale = min(1.0, max(0.0, math.log(ships) / math.log(1000.0)))
    return 1.0 + (MAX_SPEED - 1.0) * (scale ** 1.5)


def _segment_circle_distance_sq(ax, ay, bx, by, cx, cy):
    dx = bx - ax
    dy = by - ay
    denom = dx * dx + dy * dy
    if denom <= RAY_EPS:
        return (ax - cx) ** 2 + (ay - cy) ** 2
    t = ((cx - ax) * dx + (cy - ay) * dy) / denom
    t = max(0.0, min(1.0, t))
    px = ax + t * dx
    py = ay + t * dy
    return (px - cx) ** 2 + (py - cy) ** 2


def _is_orbiting(planet):
    return _dist(planet.x, planet.y, CENTER_X, CENTER_Y) + planet.radius < ROTATION_LIMIT


def _rotate_point(x, y, turns, angular_velocity):
    if abs(angular_velocity) <= RAY_EPS or turns <= 0.0:
        return x, y
    dx = x - CENTER_X
    dy = y - CENTER_Y
    angle = angular_velocity * turns
    ca = math.cos(angle)
    sa = math.sin(angle)
    return CENTER_X + dx * ca - dy * sa, CENTER_Y + dx * sa + dy * ca


def _build_comet_paths(obs):
    comet_paths = {}
    raw_groups = _obs_get(obs, "comets", []) or []
    for group in raw_groups:
        if isinstance(group, dict):
            planet_ids = group.get("planet_ids", []) or []
            paths = group.get("paths", []) or []
            path_index = int(group.get("path_index", 0) or 0)
        else:
            planet_ids = getattr(group, "planet_ids", []) or []
            paths = getattr(group, "paths", []) or []
            path_index = int(getattr(group, "path_index", 0) or 0)
        for i, planet_id in enumerate(planet_ids):
            if i < len(paths):
                comet_paths[int(planet_id)] = (paths[i], path_index)
    return comet_paths


def _predict_position(planet, turns, angular_velocity, comet_paths):
    comet_data = comet_paths.get(planet.id)
    if comet_data:
        path, index = comet_data
        if path:
            target_index = int(round(index + max(0.0, turns)))
            target_index = min(len(path) - 1, max(0, target_index))
            point = path[target_index]
            return float(point[0]), float(point[1])
    if _is_orbiting(planet):
        return _rotate_point(planet.x, planet.y, turns, angular_velocity)
    return planet.x, planet.y


def _comet_remaining_turns(planet, comet_paths):
    data = comet_paths.get(planet.id)
    if not data:
        return 999
    path, index = data
    return max(0, len(path) - int(index) - 1) if path else 0


def _line_hits_sun(ax, ay, bx, by):
    limit = SUN_RADIUS + 0.35
    return _segment_circle_distance_sq(ax, ay, bx, by, CENTER_X, CENTER_Y) <= limit * limit


def _path_is_clear(source, target, tx, ty, planets, tolerance=0.25):
    if _line_hits_sun(source.x, source.y, tx, ty):
        return False
    dx = tx - source.x
    dy = ty - source.y
    length_sq = dx * dx + dy * dy
    if length_sq <= RAY_EPS:
        return False
    for p in planets:
        if p.id == source.id or p.id == target.id:
            continue
        along = ((p.x - source.x) * dx + (p.y - source.y) * dy) / length_sq
        if along <= 0.03 or along >= 0.97:
            continue
        radius = p.radius + tolerance
        if _segment_circle_distance_sq(source.x, source.y, tx, ty, p.x, p.y) <= radius * radius:
            return False
    return True


def _aim_solution(source, target, ships, angular_velocity, comet_paths, planets, tolerance):
    eta = _dist(source.x, source.y, target.x, target.y) / _fleet_speed(ships)
    tx, ty = target.x, target.y
    for _ in range(4):
        tx, ty = _predict_position(target, eta, angular_velocity, comet_paths)
        eta = _dist(source.x, source.y, tx, ty) / _fleet_speed(ships)
    if not _path_is_clear(source, target, tx, ty, planets, tolerance):
        return None
    return math.atan2(ty - source.y, tx - source.x), eta, tx, ty


def _first_hit_for_fleet(fleet, planets, angular_velocity, comet_paths, horizon=45):
    speed = _fleet_speed(fleet.ships)
    ux = math.cos(fleet.angle)
    uy = math.sin(fleet.angle)
    px = fleet.x
    py = fleet.y
    for turn in range(1, horizon + 1):
        nx = fleet.x + ux * speed * turn
        ny = fleet.y + uy * speed * turn
        if nx < 0.0 or nx > BOARD_SIZE or ny < 0.0 or ny > BOARD_SIZE:
            return None
        if _line_hits_sun(px, py, nx, ny):
            return None
        best = None
        best_dist = float("inf")
        for p in planets:
            if p.id == fleet.from_planet_id:
                continue
            tx, ty = _predict_position(p, turn, angular_velocity, comet_paths)
            radius = p.radius + 0.35
            d_sq = _segment_circle_distance_sq(px, py, nx, ny, tx, ty)
            if d_sq <= radius * radius:
                d = _dist(px, py, tx, ty)
                if d < best_dist:
                    best = p
                    best_dist = d
        if best is not None:
            return best.id, turn
        px, py = nx, ny
    return None


# ============================================================
# V10: VULTURE TRACKING
# ============================================================

def _update_vulture_targets(world):
    """Detect planets that just changed hands between enemies -> vulture opportunity."""
    prev = _MEMORY.get("prev_planet_owners", {})
    vulture = _MEMORY["vulture_targets"]
    turn = world.step

    # Expire old vulture targets (stale after 8 turns)
    expired = [pid for pid, (_, ft, _) in vulture.items() if turn - ft > 8]
    for pid in expired:
        del vulture[pid]

    for p in world.planets:
        old_owner = prev.get(p.id, p.owner)
        if old_owner != p.owner and old_owner >= 0 and p.owner >= 0:
            # Planet flipped between two enemies — neither is us
            if old_owner != world.player and p.owner != world.player:
                vulture[p.id] = (p.owner, turn, p.ships)

    # Update prev for next turn
    _MEMORY["prev_planet_owners"] = {p.id: p.owner for p in world.planets}


# ============================================================
# V10: CONSOLIDATION
# ============================================================

def _update_empire_stability(world):
    """Trigger short consolidation after sharp frontier loss."""
    my_planets = len(world.my_planets)
    my_prod = sum(p.production for p in world.my_planets)
    my_total = sum(p.ships for p in world.my_planets)
    my_total += sum(f.ships for f in world.fleets if f.owner == world.player)

    history = _MEMORY["empire_history"]
    history.append((world.step, my_planets, my_prod, my_total))
    cutoff = world.step - 36
    _MEMORY["empire_history"] = [h for h in history if h[0] >= cutoff]

    if world.step < 55 or my_planets <= 0:
        return
    recent = [h for h in _MEMORY["empire_history"] if h[0] >= world.step - 28]
    if not recent:
        return
    peak = max(recent, key=lambda h: (h[1], h[2], h[3]))
    if peak[1] >= 10 and my_planets <= peak[1] - 3:
        until = world.step + 18
        if until > _MEMORY.get("consolidate_until", -1):
            _MEMORY["consolidate_until"] = until
            _log("consolidate_trigger", peak_planets=peak[1], current=my_planets)


# ============================================================
# BITACORA (stderr JSONL; Kaggle captures into agent logs)
# ============================================================

def _log(event, **fields):
    try:
        record = {"turn": _MEMORY.get("turn", -1), "event": event}
        record.update(fields)
        sys.stderr.write(json.dumps(record) + "\n")
    except Exception:
        pass


# ============================================================
# OBSERVE
# ============================================================

class WorldState:
    __slots__ = (
        "player", "step", "angular_velocity",
        "planets", "fleets", "planet_by_id",
        "my_planets", "enemy_planets", "neutral_planets",
        "comet_paths", "fleet_forecasts",
    )

    def __init__(self, obs):
        self.player = int(_obs_get(obs, "player", 0) or 0)
        self.step = int(_obs_get(obs, "step", 0) or 0)
        self.angular_velocity = float(_obs_get(obs, "angular_velocity", 0.0) or 0.0)
        self.planets = _as_planets(_obs_get(obs, "planets", []) or [])
        self.fleets = _as_fleets(_obs_get(obs, "fleets", []) or [])
        self.comet_paths = _build_comet_paths(obs)
        self.planet_by_id = {p.id: p for p in self.planets}

        self.my_planets = [p for p in self.planets if p.owner == self.player]
        self.enemy_planets = [p for p in self.planets
                              if p.owner not in (-1, self.player)]
        self.neutral_planets = [p for p in self.planets if p.owner == -1]

        self.fleet_forecasts = {}
        for fleet in self.fleets:
            hit = _first_hit_for_fleet(fleet, self.planets,
                                       self.angular_velocity, self.comet_paths)
            if hit is not None:
                self.fleet_forecasts[fleet.id] = hit


# ============================================================
# ORIENT
# ============================================================

class Context:
    __slots__ = (
        "world",
        "friendly_to_enemy", "friendly_to_mine",
        "enemy_to_mine", "enemy_eta_to_mine",
        "owner_power", "leader_owner", "active_owners",
        "is_duel", "duel_opening", "ffa_opening", "ffa_behind",
        "surplus_by_id", "reserve_by_id",
        "target_scores", "win_prob", "consolidating",
        "_global_feats", "_planet_feats_cache",
    )

    def __init__(self, world):
        self.world = world
        self.win_prob = _evaluate_position(world)
        self.consolidating = _MEMORY.get("consolidate_until", -1) > world.step
        self._build_fleet_commitments()
        self._build_power_table()
        self._build_reserves_and_surplus()
        self._score_targets()


    def _build_fleet_commitments(self):
        w = self.world
        self.friendly_to_enemy = defaultdict(int)
        self.friendly_to_mine = defaultdict(int)
        self.enemy_to_mine = defaultdict(int)
        self.enemy_eta_to_mine = {}

        for fleet in w.fleets:
            hit = w.fleet_forecasts.get(fleet.id)
            if hit is None:
                continue
            target_id, eta = hit
            target = w.planet_by_id.get(target_id)
            if target is None:
                continue

            if fleet.owner == w.player:
                if target.owner == w.player:
                    self.friendly_to_mine[target_id] += fleet.ships
                else:
                    self.friendly_to_enemy[target_id] += fleet.ships
            elif target.owner == w.player:
                self.enemy_to_mine[target_id] += fleet.ships
                prev = self.enemy_eta_to_mine.get(target_id, eta)
                self.enemy_eta_to_mine[target_id] = min(prev, eta)


    def _build_power_table(self):
        w = self.world
        power = defaultdict(float)
        for p in w.planets:
            if p.owner >= 0:
                power[p.owner] += p.ships + p.production * 18.0
        for f in w.fleets:
            if f.owner >= 0:
                power[f.owner] += f.ships
        self.owner_power = dict(power)
        self.active_owners = sorted(power)
        self.is_duel = len(self.active_owners) <= 2
        self.duel_opening = self.is_duel and w.step < 45
        enemies = [o for o in power if o != w.player]
        self.leader_owner = max(enemies, key=lambda o: power[o]) if enemies else -1
        leader_power = power.get(self.leader_owner, 0.0)
        my_power = power.get(w.player, 0.0)
        self.ffa_opening = (not self.is_duel) and w.step < 72
        self.ffa_behind = (
            (not self.is_duel) and
            70 <= w.step < 155 and
            self.leader_owner != -1 and
            my_power < leader_power * 0.80
        )


    def _build_reserves_and_surplus(self):
        w = self.world
        self.reserve_by_id = {}
        self.surplus_by_id = {}
        for p in w.my_planets:
            nearest_enemy = min(
                (_dist(p.x, p.y, e.x, e.y) for e in w.enemy_planets),
                default=999.0,
            )
            reserve = self._reserve_for(p, nearest_enemy)
            self.reserve_by_id[p.id] = reserve
            self.surplus_by_id[p.id] = max(0, p.ships - reserve)


    def _reserve_for(self, planet, nearest_enemy):
        """Dynamic reserve — V10: winner-calibrated (lower during expansion)."""
        w = self.world
        step = w.step
        incoming = self.enemy_to_mine.get(planet.id, 0)

        # V10: consolidation adds a soft reserve floor
        consolidation_floor = 0
        if self.consolidating and step >= 55 and incoming <= 0:
            if nearest_enemy < 34.0:
                consolidation_floor = planet.production * 2 + 4
            else:
                consolidation_floor = planet.production + 2

        # Very early game: skeleton crew while we expand.
        if step < 12 and incoming <= 0:
            return 1

        if self.duel_opening and incoming <= 0:
            if step < 22:
                return 1
            return max(1, planet.production // 2)

        # V10: FFA opening reserves slightly lowered from V7 but not as aggressive as initial V10
        if self.ffa_opening and incoming <= 0:
            if nearest_enemy < 18.0:
                return max(3, planet.production, consolidation_floor)
            if step < 48:
                return max(1, planet.production // 2, consolidation_floor)
            return max(2, planet.production, consolidation_floor)

        if self.ffa_behind and incoming <= 0 and nearest_enemy >= 28.0:
            return max(3, planet.production + 1, consolidation_floor)

        if len(w.my_planets) <= 2 and step < 60 and incoming <= 0:
            return max(1, planet.production // 2, consolidation_floor)

        if step < 90 and incoming <= 0:
            return max(2, planet.production, consolidation_floor)

        base = max(4, 2 + planet.production)
        if step >= 80:
            base = max(base, 7 + planet.production * 2)
        if step >= 130:
            base = max(base, 10 + planet.production * 3)
        if nearest_enemy < 25.0:
            base += 4
        elif nearest_enemy < 38.0:
            base += 2
        base = max(base, consolidation_floor)

        if incoming <= 0:
            return base

        eta = self.enemy_eta_to_mine.get(planet.id, 12)
        produced = int(max(0, eta - 1) * planet.production)
        return max(base, incoming + 3 - produced)


    def _score_targets(self):
        """Pre-score targets: heuristic base + neural bonus (V11)."""
        w = self.world
        self.target_scores = {}

        # V11: precompute global features for neural scorer
        if _HAS_NUMPY:
            self._global_feats = _build_global_features(w)
            self._planet_feats_cache = {}
            for p in w.planets:
                self._planet_feats_cache[p.id] = _build_planet_features(p, w.player, w.planets)
        else:
            self._global_feats = None

        for t in w.planets:
            if t.owner == w.player:
                continue
            if t.id in _MEMORY["blacklist"] and _MEMORY["blacklist"][t.id] > _MEMORY["turn"]:
                continue
            base = t.production * (92.0 if t.owner == -1 else 118.0)
            if self.duel_opening and t.owner == -1:
                base += t.production * 70.0
                base += max(0.0, 18.0 - t.ships) * 2.2
            if self.ffa_opening and t.owner == -1:
                base += t.production * 26.0
                base += max(0.0, 18.0 - t.ships) * 0.9
                if t.production >= 3 and t.ships <= 16:
                    base += 24.0
            if self.ffa_behind and t.owner == self.leader_owner:
                base += 110.0
            if t.owner == self.leader_owner:
                base += 72.0
            elif t.owner not in (-1, w.player):
                base += min(42.0, self.owner_power.get(t.owner, 0.0) / 45.0)
            base += max(0.0, 30.0 - t.ships) * 0.9
            if t.id in w.comet_paths:
                remaining = _comet_remaining_turns(t, w.comet_paths)
                base -= 80.0 if remaining < 28 else 18.0

            # V10: vulture bonus — planets recently taken in inter-enemy fighting
            if t.id in _MEMORY["vulture_targets"]:
                _, flip_turn, est_garrison = _MEMORY["vulture_targets"][t.id]
                recency = max(0, 8 - (w.step - flip_turn))
                base += 65.0 * (recency / 8.0)
                if t.ships <= est_garrison + 3:
                    base += 30.0  # garrison hasn't recovered

            # V10: value-based adjustment — when behind, be slightly more aggressive
            if self.win_prob < 0.35 and not self.is_duel:
                if t.owner >= 0 and t.owner != w.player:
                    base += 15.0 * (0.35 - self.win_prob)
            elif self.win_prob > 0.65 and self.consolidating:
                if t.owner == -1:
                    base -= 15.0 * (self.win_prob - 0.65)

            # V11: neural target scorer bonus
            if self._global_feats is not None and not self.duel_opening:
                # Average neural score across owned planets as sources
                neural_scores = []
                for src in w.my_planets[:8]:  # limit for speed
                    src_f = self._planet_feats_cache.get(src.id)
                    tgt_f = self._planet_feats_cache.get(t.id)
                    if src_f is not None and tgt_f is not None:
                        ns = _neural_target_score(self._global_feats, src_f, tgt_f)
                        if ns is not None:
                            neural_scores.append(ns)
                if neural_scores:
                    avg_neural = sum(neural_scores) / len(neural_scores)
                    # Scale to heuristic range based on game mode
                    if self.is_duel:
                        base += (avg_neural - 0.25) * 250.0
                    else:
                        base += (avg_neural - 0.25) * 75.0

            self.target_scores[t.id] = base


    def capture_need(self, target, eta):
        w = self.world
        if target.owner == w.player:
            return 0
        if target.owner == -1:
            raw = target.ships + 1
        else:
            growth = int(math.ceil(max(0.0, eta - 1.0) * target.production))
            raw = target.ships + growth + 1
        already_sent = self.friendly_to_enemy.get(target.id, 0)
        remaining = max(0, raw - already_sent)
        return int(math.ceil(remaining * _MEMORY["capture_buffer_mult"]))


# ============================================================
# DECIDE — priority cascade with multi-source coordination
# ============================================================

PRI_EMERGENCY = 0
PRI_INTERCEPT = 1
PRI_DUEL_OPEN = 2
PRI_VULTURE   = 3   # V10: between DUEL_OPEN and REINFORCE
PRI_REINFORCE = 3
PRI_SNIPE     = 4
PRI_PRESSURE  = 5
PRI_EXPAND    = 6


def _min_launch_size(step):
    # V10: slightly bigger minimum fleets (winners avg 15.6 vs our 11.1)
    if step < 30:
        return 4
    if step < 90:
        return 6
    return 7


def _concentration_minimum(target, step):
    if target.owner == -1:
        return 5 if step < 30 else 7
    return max(9, target.production * 3 + (7 if step >= 80 else 0))


def decide(world, ctx):
    """Priority cascade with V10 multi-source coordination."""
    decisions = []

    # ------- Priority 0: EMERGENCY_DEFEND -------
    threatened = []
    for p in world.my_planets:
        incoming = ctx.enemy_to_mine.get(p.id, 0)
        if incoming <= 0:
            continue
        eta = ctx.enemy_eta_to_mine.get(p.id, 12)
        defenders = p.ships + int(max(0, eta - 1) * p.production)
        defenders += ctx.friendly_to_mine.get(p.id, 0)
        deficit = incoming + 2 - defenders
        if deficit > 0:
            threatened.append((eta, deficit, p))

    threatened.sort(key=lambda t: t[0])

    used_surplus = defaultdict(int)
    for enemy_eta, deficit, target in threatened:
        supporters = sorted(
            (s for s in world.my_planets if s.id != target.id and
             ctx.surplus_by_id.get(s.id, 0) - used_surplus[s.id] > 0),
            key=lambda s: _dist(s.x, s.y, target.x, target.y),
        )
        need = deficit
        emergency_min = max(3, _min_launch_size(world.step) - 1)
        for source in supporters:
            if need <= 0:
                break
            avail = ctx.surplus_by_id.get(source.id, 0) - used_surplus[source.id]
            if avail < emergency_min:
                continue
            send = min(avail, max(need, emergency_min))
            aim = _aim_solution(source, target, send,
                                world.angular_velocity, world.comet_paths,
                                world.planets, _MEMORY["path_tolerance"])
            if aim is None:
                continue
            angle, arrival_eta, _, _ = aim
            if arrival_eta > enemy_eta + 3:
                continue
            decisions.append((PRI_EMERGENCY, TAG_EMERGENCY, source, target, int(send), angle))
            used_surplus[source.id] += send
            need -= send

    # ------- V10: Multi-source coordinated attacks -------
    coordinated_used = set()
    if not ctx.is_duel and not ctx.ffa_opening and len(world.my_planets) >= 5:
        coord_decisions = _find_coordinated_attacks(world, ctx, used_surplus)
        for cd in coord_decisions:
            decisions.append(cd)
            coordinated_used.add(cd[2].id)  # mark source as used

    # ------- Priority 1+: one action per source -------
    source_best = {}

    for source in world.my_planets:
        if source.id in coordinated_used:
            continue
        surplus = ctx.surplus_by_id.get(source.id, 0) - used_surplus[source.id]
        if surplus < _min_launch_size(world.step):
            continue

        best = _best_move_for_source(source, surplus, world, ctx)
        if best is not None:
            _, tag, src, tgt, send, angle = best
            # V13: Use neural ship allocator
            if ctx._global_feats is not None:
                src_f = ctx._planet_feats_cache.get(src.id)
                tgt_f = ctx._planet_feats_cache.get(tgt.id)
                if src_f is not None and tgt_f is not None:
                    # Calculate heuristic capture ratio
                    aim = _aim_solution(src, tgt, send, world.angular_velocity, world.comet_paths, world.planets, _MEMORY["path_tolerance"])
                    eta = aim[1] if aim else 10.0
                    need = ctx.capture_need(tgt, eta)
                    ratio = send / max(1.0, float(need))
                    
                    alloc_class = _neural_ship_allocator(ctx._global_feats, src_f, tgt_f, ratio)
                    
                    if alloc_class == 0:
                        continue  # Skip attack
                    elif alloc_class == 1:
                        send = min(send, max(need, _min_launch_size(world.step)))
                    elif alloc_class == 2:
                        send = min(send, max(surplus // 2, need))
                    # else alloc_class == 3: keep send as surplus (all)
                    
                    best = (_, tag, src, tgt, int(send), angle)

            source_best[source.id] = best

    for source_id, move in source_best.items():
        decisions.append(move)

    if not decisions:
        decisions.append((99, TAG_STOCKPILE, None, None, 0, 0.0))

    return decisions


def _find_coordinated_attacks(world, ctx, used_surplus):
    """V10: Find high-value targets where 2-3 planets can converge."""
    step = world.step
    candidates = []

    for target in world.planets:
        if target.owner == world.player or target.owner == -1:
            continue
        score = ctx.target_scores.get(target.id, 0.0)
        if score < 150.0:
            continue  # only coordinate on high-value targets
        if target.id in _MEMORY["blacklist"] and _MEMORY["blacklist"][target.id] > _MEMORY["turn"]:
            continue

        # Find sources that can reach this target
        sources_for_target = []
        for source in world.my_planets:
            surplus = ctx.surplus_by_id.get(source.id, 0) - used_surplus.get(source.id, 0)
            if surplus < _min_launch_size(step) // 2:
                continue
            aim = _aim_solution(source, target, surplus,
                                world.angular_velocity, world.comet_paths,
                                world.planets, _MEMORY["path_tolerance"])
            if aim is None:
                continue
            angle, eta, _, _ = aim
            sources_for_target.append((source, surplus, angle, eta))

        if len(sources_for_target) < 2:
            continue

        # Check if combined force can capture but no single source can
        sources_for_target.sort(key=lambda s: s[3])  # sort by ETA
        total_avail = sum(s[1] for s in sources_for_target[:3])
        avg_eta = sum(s[3] for s in sources_for_target[:3]) / min(3, len(sources_for_target))
        need = ctx.capture_need(target, avg_eta)

        if need <= 0:
            continue
        # Only coordinate if no single source can do it alone but combined can
        max_single = max(s[1] for s in sources_for_target[:3])
        if max_single >= need:
            continue  # single source can handle it, no need to coordinate
        if total_avail < need:
            continue  # even combined can't do it

        candidates.append((score, target, sources_for_target[:3], need))

    # Pick the best coordinated target
    candidates.sort(key=lambda c: -c[0])
    results = []

    for score, target, sources, need in candidates[:1]:  # at most 1 coordinated attack per turn
        remaining_need = need
        for source, surplus, angle, eta in sources:
            if remaining_need <= 0:
                break
            send = min(surplus, remaining_need + 3)  # slight over-send for safety
            send = max(send, _min_launch_size(step) // 2)
            send = min(send, surplus)
            if send < 3:
                continue
            results.append((PRI_VULTURE, TAG_COORDINATED, source, target, int(send), angle))
            used_surplus[source.id] = used_surplus.get(source.id, 0) + send
            remaining_need -= send

    return results


def _best_move_for_source(source, surplus, world, ctx):
    """Find the single best move for this source. V10: includes vulture priority."""
    step = world.step
    best = None
    best_rank = (99, -1e18)

    for target in world.planets:
        if target.owner == world.player or target.id == source.id:
            continue
        if target.id in _MEMORY["blacklist"] and _MEMORY["blacklist"][target.id] > _MEMORY["turn"]:
            continue
        if target.id in world.comet_paths and _comet_remaining_turns(target, world.comet_paths) < 18:
            continue

        probe = max(_min_launch_size(step),
                    min(surplus, target.ships + target.production * 2 + 8))
        aim = _aim_solution(source, target, probe,
                            world.angular_velocity, world.comet_paths,
                            world.planets, _MEMORY["path_tolerance"])
        if aim is None:
            continue
        angle, eta, _, _ = aim

        need = ctx.capture_need(target, eta)
        if need <= 0:
            continue

        send = max(need, _concentration_minimum(target, step))
        buffer = max(2, int(math.ceil(need * (0.15 if target.owner == -1 else 0.25))))
        send = need + buffer if need + buffer > send else send
        send = min(send, surplus)
        if send < _min_launch_size(step) or send < need:
            continue

        # Classify the action — V10: vulture detection
        if target.owner == world.player:
            continue
        if _is_intercept_opportunity(target, eta, ctx, world):
            priority = PRI_INTERCEPT
            tag = TAG_INTERCEPT
        elif target.id in _MEMORY["vulture_targets"] and target.owner >= 0:
            priority = PRI_VULTURE
            tag = TAG_VULTURE
        elif ctx.duel_opening and target.owner == -1:
            priority = PRI_DUEL_OPEN
            tag = TAG_DUEL_OPEN
        elif target.owner == ctx.leader_owner and ctx.leader_owner != -1:
            priority = PRI_PRESSURE
            tag = TAG_PRESSURE
        elif target.owner == -1:
            if target.ships <= 8 and _dist(source.x, source.y, target.x, target.y) < 30:
                priority = PRI_EXPAND
                tag = TAG_EXPAND
            else:
                priority = PRI_SNIPE
                tag = TAG_SNIPE
        else:
            priority = PRI_SNIPE
            tag = TAG_SNIPE

        # Score inside the priority bucket.
        base = ctx.target_scores.get(target.id, 0.0)
        distance = max(1.0, _dist(source.x, source.y, target.x, target.y))
        if ctx.duel_opening and target.owner == -1:
            score = base - send * 1.2 - distance * 1.45 - eta * 2.0
            if target.production >= 3:
                score += 45.0
            if target.ships <= 12:
                score += 28.0
            score /= math.sqrt(max(1, send))
        elif ctx.ffa_opening and target.owner == -1:
            score = base - send * 1.55 - distance * 0.72 - eta * 1.35
            if target.production >= 3:
                score += 18.0
            if target.ships <= 14:
                score += 14.0
            score /= max(1.0, math.sqrt(max(1, send)) * 1.35)
        else:
            score = base - send * 1.9 - distance * 0.55 - eta * 1.2
            score /= max(1, send)

        rank = (priority, -score)
        if rank < best_rank:
            best_rank = rank
            best = (priority, tag, source, target, int(send), angle)

    return best


def _is_intercept_opportunity(target, my_eta, ctx, world):
    if target.owner != -1:
        return False
    for fleet in world.fleets:
        if fleet.owner == world.player:
            continue
        hit = world.fleet_forecasts.get(fleet.id)
        if hit is None:
            continue
        if hit[0] != target.id:
            continue
        enemy_eta = hit[1]
        if my_eta < enemy_eta + 2:
            return True
    return False


# ============================================================
# ACT — invariant firewall + emit moves
# ============================================================

def act(world, ctx, decisions):
    moves = []
    used_by_source = defaultdict(int)
    non_emergency_launched = set()
    tagged = []

    decisions.sort(key=lambda d: d[0])

    for priority, tag, source, target, ships, angle in decisions:
        if source is None or target is None or ships <= 0:
            continue

        # V10: relax I6 for coordinated attacks — allow multiple launches per source
        # if they target different planets via coordination
        if priority != PRI_EMERGENCY and tag != TAG_COORDINATED:
            if source.id in non_emergency_launched:
                continue

        planet_now = world.planet_by_id.get(source.id)
        if planet_now is None:
            continue
        already_used = used_by_source[source.id]
        actual_available = planet_now.ships - already_used

        if priority == PRI_EMERGENCY:
            max_send = actual_available
        else:
            reserve = ctx.reserve_by_id.get(source.id, 0)
            max_send = max(0, actual_available - reserve)

        min_launch = _min_launch_size(world.step)
        if tag == TAG_COORDINATED:
            min_launch = max(3, min_launch // 2)
        if max_send < min_launch:
            continue
        send = min(ships, max_send)

        if send <= 0 or send > planet_now.ships:
            continue

        aim = _aim_solution(source, target, send,
                            world.angular_velocity, world.comet_paths,
                            world.planets, _MEMORY["path_tolerance"])
        if aim is None:
            continue
        angle, eta, _, _ = aim

        moves.append([int(source.id), float(angle), int(send)])
        used_by_source[source.id] += send
        if priority != PRI_EMERGENCY and tag != TAG_COORDINATED:
            non_emergency_launched.add(source.id)

        tagged.append({
            "tag": tag,
            "priority": priority,
            "source": int(source.id),
            "target": int(target.id),
            "ships": int(send),
            "eta": float(eta),
            "target_owner": int(target.owner),
        })

    if tagged:
        _log("act", moves=tagged)

    _MEMORY["last_decisions"] = list(_MEMORY.get("last_decisions", [])) + tagged
    return moves


# ============================================================
# LEARN — 3-strike within-game adaptation
# ============================================================

def learn(world, ctx):
    turn = world.step
    _MEMORY["turn"] = turn

    expired = [tid for tid, release in _MEMORY["blacklist"].items() if release <= turn]
    for tid in expired:
        del _MEMORY["blacklist"][tid]

    last = _MEMORY.get("last_decisions", [])

    still_pending = []
    for d in last:
        if d["priority"] == PRI_EMERGENCY:
            continue
        if d["eta"] > 1.5:
            d["eta"] -= 1.0
            still_pending.append(d)
            continue

        target_id = d["target"]
        target_now = world.planet_by_id.get(target_id)
        if target_now is None:
            continue
        expected_owner = world.player

        if target_now.owner == expected_owner:
            if _MEMORY["strike_target"][target_id] > 0:
                _MEMORY["strike_target"][target_id] -= 1
            _log("learn_success", target=target_id, tag=d["tag"])
        else:
            _MEMORY["strike_target"][target_id] += 1
            strikes = _MEMORY["strike_target"][target_id]
            _log("learn_miss", target=target_id, tag=d["tag"], strikes=strikes,
                 expected_owner=expected_owner, actual_owner=int(target_now.owner))

            if strikes >= 3:
                _MEMORY["blacklist"][target_id] = turn + 25
                _MEMORY["strike_target"][target_id] = 0
                _MEMORY["capture_buffer_mult"] = min(1.6, _MEMORY["capture_buffer_mult"] + 0.08)
                _MEMORY["path_tolerance"] = min(0.55, _MEMORY["path_tolerance"] + 0.05)
                _log("learn_rewrite", target=target_id,
                     blacklist_until=turn + 25,
                     capture_mult=_MEMORY["capture_buffer_mult"],
                     path_tolerance=_MEMORY["path_tolerance"])

    _MEMORY["last_decisions"] = still_pending
    _MEMORY["tracked_planets"] = {p.id: (p.owner, p.ships) for p in world.planets}


# ============================================================
# AGENT ENTRY POINT
# ============================================================

def agent(obs):
    try:
        # OBSERVE
        world = WorldState(obs)

        last_step = _MEMORY.get("last_obs_step", -1)
        if last_step > world.step or (world.step <= 1 and last_step > 1):
            _reset_memory()

        # LEARN
        learn(world, None)
        _MEMORY["last_obs_step"] = world.step

        if not world.my_planets:
            _log("eliminated")
            return []
        if not world.enemy_planets and not world.neutral_planets:
            _log("sole_survivor")
            return []

        # V10: vulture and consolidation tracking
        _update_vulture_targets(world)
        _update_empire_stability(world)

        # ORIENT
        ctx = Context(world)

        # DECIDE
        decisions = decide(world, ctx)

        # ACT
        moves = act(world, ctx, decisions)

        if world.step % 25 == 0:
            _log("tick",
                 step=world.step,
                 my_planets=len(world.my_planets),
                 my_ships=sum(p.ships for p in world.my_planets),
                 leader=int(ctx.leader_owner),
                 win_prob=round(ctx.win_prob, 3),
                 consolidating=bool(ctx.consolidating),
                 capture_mult=_MEMORY["capture_buffer_mult"])

        return moves

    except Exception as e:
        _log("agent_error", error=repr(e))
        return []
