POLICY_WEIGHTS_B64 = "UEsDBC0AAAAIAAAAIQCyLrra//////////8JABQAdHNfVzEubnB5AQAQAIAnAAAAAAAAhCQAAAAAAACdl/c/19/7x5HMIiMjhIZNihKv57le0lTJlqySUELRpqHMRBnJTFEoK5H9PNeLRDtUqCghLVTSUN7q0/df+F6/ncftds755brdb/dH8gZHK5tN/Hz7+UI1t3nv8QrWNFPTZHyMNfXUNH12Be8N9gzcvCt4m/f/5as8/fd4/8v3bPfc7f3vrGVkqqe2xFhbT+2I2v9zxEoGJan8q8dgohNDHt05S8e3LqXrvU5j8tFaKtE7nwj1WcMF+5/MnNbMeuExEcINfM1Cow3vzO4BJvNGBe4ej4KCC+kQaKwAsS7L4O+OAqZ2lxA37Pwe3L0rqf512hM0XrMCg9uDYa6/Pmz69QG2f3LFoq+reXVJSai92hMdR49QQf8sHKmJglCRSfqVJuHNIz30TOxKKLeOqE/1aGMEbPtZdlIPHFbN5FoozSHRr8Lw0+ooMj9LDG9sXUhTAhZDWM6B+u6qE/gxZCMsVRHj3a1JhroAGfz+XY+m6O0lO0uv03iVmdgbooIW/oO0V18ahApcMVW5DLPf1pHPbvLQPZ8lRgcEYM+pDPKN28Bm67F0j6EyrFSaSfMvW9MwSXkebBWAlyVqzOWsBPrrlyRsOPAUj/E/Z0J/NuLbmF4i/yuH5lRmkT9f+eB2lyL8dOUxfzVLKV/KQt68nX+ovrY4T1JECyffvIdFfC8xonA2Gr/YTFP2FtIkp3g095NhMjMt4JzOSiKxNRwKB2ZDk8l9EOfNo3bCtQwXKqFeYD1uf+wPn9o84UPEMpK4swXfrxLh+p0+AM1DNuBQqQsrh2eBz6wO0N5oCeN6AuA48Ie9N6OLaPptIgtOFNHhnEmScV0Vy7v6yOTyp7h003qwnL8KA3Mi0ehtPBrnTKHNYxuA/XubdgXNhadLKlC3JQtSDwpR7pWrZLvPWZxp4A3Hc1eQIHdpOsNHCfm/VhLx28c5v+cK8nJaivFIQCb+VHuGqR++0lOJk2zbswLQ9flF0nor8eoyD/Rx+0LtVTbT3Im1qO9iBAMrT+HR3c+ITeA6jOmVwE9nazBQv4zECqtz/9Rao4VUPJTpFLEXst1B34fgzT4H3LRuAwURc/y7s4H1ft3PMelsZO9Xr4a3s2aQY0fPYdP0I4x25yHsE/KB8WO1eMHDEZQ0C7D9RxZWFF0jwo1SsOf6U+Jdm4Yzg6uIfO8d8Odm04mtdWhjnkOmBrwn1Kcc99opc3Pt5VFdLhbcdS9Rb1UOHrt0FXy6F8HvS8KwcfEYiZq6Aba/HiAzrgbB6g532BVcT5e7nAEdy1wQ1K9hPTbmg/PNmdQnbx4q3N+Ez+eshK4vDCZZ1JGOefLcyOXxtH5FImciMYG224bDyfdlIFplgjJHpTAhLpM91TrCiLT5oag8F7t5S7CvKpIOPxPC0O/6VEFWCMVsf8NxWIOzDi+DYEhjXk3LoHydNbDdII6Ujc2CDC0/eusRS0a/TZBUL3Hg/jHFsJBhsr3rJHWY1ki31PNhvgLgmzmryavNf5nVz8MxTvQg5hvwgZLNN9pv4gEXppsyNyIzcNR1BbpsKcGLrhJgmyQMr/Sa2YoDSXh3ooWm61nUT+vygpCZhfi3mYNy3/bDt2lXIY/vBMr9iQRJZUdyTOcoxjXfgM2cdjbv4FUmtmcurlMQ4G0fFATLvBCiRBai7uhN1Kq9gae12sh06e2gd+8zNWEt6ALPQLzd4wpUS5DIiE5S/xU+WC3rCrU/MiDDaBD/xEQRVm8qpOwqQnMTZW7ZZ3PiZGcF1UNJEGyzEtX9A2EKLxzXVo9QGcVLKPVqAVzpmY1zPQRJnsUrTj0xYLxnhyBfvhOqtw+Qg2FKKPnBAx5WLSVp4bWcTcFJ8PagSX3psC3ut3zGnJXWhmNWHqj89gsjeeI6I/mnGVxerIfKlwwGBXAgJKOCLhBPpeHTYsm9yw6QEq2Jyze5QYPPIL1W7AA1x1NhT9NmUDdcAXqbgoHf8zN9vtGTHuEOovEyE2ht14PcR8nEI/ce1c9FHExIhwp2HhZH9tMct0GqeNaOrLVvJfo8JXrkUDYKJQyT3WPHcOJgJlSkpcPzEXGcvlgCwsrTyb7wIXh+YCmI5l7DqTFzQfz3CTCb/QbM/roRWeYBDeC0owIRhgcFa8C2zQ2lT4mxH3Em+7yIC4Jl6Vg/RRkv/U2B27U/mTfz5HH23jS6W8OYaLtswtofq6C4wx9aHjymbxokqa6oHZ2fGYdTghWxqfUSyPdH4fL4uRA1cox+2jPMnDZKR9kHs9Fl8AN1OXKfnFi+kFsxuwZE3m3FP7luxFGjhBo4n6BjOw7SfN834JJwhgZWNILi4DwM2R1Ghs78R0PinUiISj0JF0xmL6lLwr7meLRbGwaJP5Zhyo2NoKHfQh9ZCUJLqiA8d1HiSlrO4TbrJGPq/Fls+ngIZuWEQ63SNbL+/Uw8EniIlpzxwIIzL2lnXg+5YCFG/DrL0bhpBB4+mk4Xh4lg5agf5tZsRcH384j6jqlQ8mc3DDumgdH5y0yAIZcYfV2Lyimj8HnVdDx8wYl5d9CPM798BRm9UwreOv1M+Uge/Ef/I7051sRm5B/jnLogKDaNiZt1hxptu4tM8Dh53CNOyzal0m1Dyfj70Wp89buHlV2zFqbsXI/Rp0zMxPr1selWEdX2yCJqY7IYv+g8WXw8Eja8k0T+YGOuNU8FD0ZdpA++CpNO7gRRW5qN3s4J5JeINdPQkIQh6oVYfNcLpe5+Jmr/dnDkVgWRn5wBiXiH9H48hebCafBszR/2i38hGHjEM7GKxZgks41ovKiHsUeyPIVbO2mc3gjZFX8c9A0FQcV1lON0p5RsGTEj9vP/cEoeP2AGridgX9B5qLLo55SmK7KSP/diZcc22vguCUb9dfFJgwlKWjnjRe1U2PIqFx5PM4C5z6Kp9T4HuHDpOAru/kpNFueB6kcVuNRiBhctBojtvvOorWdJhpJluKKtYXgz9w649Kgw+0Y3weOfj8mTo2+ggFeH7i/syX+xXMzNH2FqR9NJ2sVyZlHNORjdJkOKJp0wudwJry+4SuU02tk7VwS4R18Jw5rHAayQww1yLKuGkUltIZ0cPt63tyY41eUgPtg5SWYlFGLcNnW6y9WY7Ld7T44mCPN6g/TAwi8PJRLfMaWGxmRP4BU4KDlIt36p42ReuYYHyguZBZIy4FR9GnvdGFxbkEnsrk6jt1Ny0GmtAibH/2PMKUFUXaKIPx7cI7a1HKbJv4zzoOE9DVhUD/lXntHnW2qw660LOq8IRasjZ6izyzTYvjIbnRe8JuInj0P7wHHyKrSWOs7Xhq+lAShyuxdVVX7BljR9Uqh8Ez6uDQX7oyWcgh+tZHH1MTTWEEfhvUuI+rckNDQTYRf/Y3rSST8U2cJPQ25vgUN3i0jmzDRaf9oH7/FFAHZ7sdfrBMDP9wbNlf7AnA//jGa3hmli4jdI8iwgl8/VYlvoH85/E/XAV51CZnhdxrfuUSgqaA/ex9TQNToaxL9O5x3XAiwWDMMH6SVYlnuLOB24RW5LryODMx5T3wuf8XZgHm7o4KF8ny5GSRVil5E2rPi7gJT07CcrnrjindtXwSb5NllfuBl2SK2hB/TWkpbpJ1DDvZ9UbOs1q4m9j5EPBpnumzbMkPYpUjkaRH2d35GdZzR4l91fodShDPj18yG94FSFj9+dpbeP7YHUSmlQSRiGu4c6GZZ7GDsMD6POggVQ2rgLl32OheL849ilGYgC/YRInj2CN1zn0szOErL7axgKfkuk0l054Fa3Hl1Ti2EsLphGu0qQET9jLCjOg653a6EzUA6SU5MBT/BxZ33TojvGPOAPJxqSAhXIT6kx+ne/EDfk70Y6fmkZWFRK4QpNEapodph1X2cMmlpbUF/tAdvvfw7FagIx4t592ikZTvyCRqhqQzs1iO0mZtMzQPa9AHyr6GP5Anyob9xJyA67gGck76HfzvM4+qQY6iLKyZLFLsyjt8+YGe8VqbytMvdZ2CkWBNIZzocC5PqnEZJrhjLpAtyc0TtmJ6u6GTfh6bhzfSI7dFWHlh07Q8fFlrCWY6H0zb0AMCmRwpNrl2PTwsP1j2ZM0AUtxcS6Kp9+LpiDRyJOo15mBu7aV0VtOiNxzMYaul96YdvFdtqbEgnwwQ61VOMYn9nrYPRxIp0X/p2pGprOLT/xGZrfPCLv54vyhCZekOH6Miyepoj777wxW2/YRdr3FeH7Akty8vMnOKGhiXE+ZqjUugl31c2CraKKvLe+itA+nMAxkanGG34/aaanA7Rf18GjTCbIGh7HY2LH6GGjR8TU8CGkiIeD46AYxpsKQvyRsLofnwTooppx8rCGH4/8KIQ5/fH4deYCmPqOH0WSDrI+01fiurEQJur1HOx3iOLkDEvD7N+7IGCii/AdFUTP6RzunT07wJgvig78Y8zNtFYy+cYYw1VFwVhXFhROENKUaAZSOR+p+QeWNOTcABX+fPLklgN6Xv4AlHuNU56XirFuqmDdchGljRzhkaUgcTtkDf3fD5KFI385TvJPUN8/m6TFXaTCrBgp9LoM2qVXiYNUE4S2LGdmygIt2JcA3alP6AaxhSg/twqDtn2kgzmOsL8zCJhKb0bhBZd+dLKklacWoVe2JpXQX4AjO1TYvyb1JGaWNgqX/sSRrCt4beEb6NsVjT96L4Kq3AQk9N6G3Lp4sNwdR7+d/E49htqwruwA+bjmJ7l6cwXhDT2A1WPjaNEWCv2ZZ9HSN4j0TTkH/mKVqLR8EAMTboBwSBm98cgcTFdPoZWR9XjgjT7EDVPWyUedfAtpJrWHCG9HQyzknq3E8lcPyJOJr2TlOnuU+O4El8xUqYJOFNqG6WDLlW7ibD0F9CfP47wUCXohrrN+Wu5RaHELxfwSTe7w2A3SOvqD6rbaksLlZ9kd8xPp99C7sG7VMAlV5iMD1XFYG5CHouutgc+YH9pzCfwIMqQPFn8nGTJ+uGWmJCb+85Xa6itE1jGZcOw94djEMnSocYcnTbosJFVyYmfXofXh/9BXk0t2pMTi5Yu2aNGdxKiMz8YLv74ybZeqiXtUHy20FuIGLPfENSU76WD1Dsb7qR0kye1GsZB6eLVRlroM8kDS0AHvpetSbQtV0m2nRAttVdBydSOIJUrRkj+2aL6sE0tv7cNerwL2VnsorbYpq/e7XoDS2k00dEgAKwqFwctIvt5ScS5cOeMAj6U2kyKdJJjY94jM3udARZuTwIavF6L+scXU4CDEXDkDgrYX4MPHFLz5ahpHZB0/DGoCKltHws6KFGbGmXKUVzeHmIlSuttXFcaDVXHs8yfEGc9IpnMsmHl7sLY4wfpXzoXY6H2sUEMkatidhsaBk/R6gT64Z7ihxIAWuaSmgGFnO6mzjTYKPo1jrT5cA5nSZ6Svk5+UrrpG13Gl0W95JHD3O8FFTT0SrKCIYTn2IGzWVD+2IAkl86IhQN8NDcMlIPbULzbg43fIIs/x0cIz7Ap+bZCqUIQf6z+B0OMe6qqnQjITLhKz9+PUU8mKfNlSSiotOXBNMBHWsaH4oucE3e6cgt/KvevecnTBPsmIOuoYk60X+rEwLxuVRv7DvqdhWHm3ClyrNOg6l11MvFALmuy/BHd13E3nKQzTydPnMHHOYqKUtg+PvD1MPtXVw/Rjpcx/leEwX0aSWkTqEbfNUeSk8lPOqv2BmLfmEwota6JXNISw6eILmi46lZo9OAPh38Rxlq8blo3UMbvN48l7epce1J+B9reH6Dtsxo1eMVTZbyMqdYTTyh3jGCDjCsNiPPrFMww21o+hd/kb6vt7L7yoSCEpnRtwUVkGyL8qohyr91Q2zBRWjQ8Rv6oLKCXgyFSlDqJ05Rhmr/RizfIuEQm+KJCOUaQNqiZorr2EuAcr41BUO5EX7MHM/gJ8I+IH71Y9gX6vY1SOrSL82QcZCe2rwJEroxIH71OjUjHUi4ogEgIaEPkjiz22aymY6pdC3VwF+Pm9kNHgysF2q3PwKeg4Fd/lBdmVFtj+qQm3/ZGCRKahbkP2M1w4fzeklCaCRtAmuHTiJghWCOFzyS50N9+EG20GSYPBI1pi94XOtyygFfrSwO2LwOgH1RgsaYJL1J7Re1nuqHL2Pjn2e6TOvrKFzhZsJu4RqzC7vZw8chSElA9dVD7AFjIEt9eXJLujULgruO/5QkR0W/DN87kk3nw6TrvtCEnFVfTAj0SM3sajrU4KEGi7Ek/7O7LsuAI9+eIyLL19ii27v5idEnWGaNdVkOjdp6n/hruET9gYK6dmg8+vOWzkIS7MNrWBkGofcJo/iIuY9fUHUwzpEzOANucztOTACbwcXVRvOzUMmdP32TWxZbRSWA5mSSWSxDpvWBihDSKrn+I8xwsgqbkZ6sfqwFNyDJftXEQf71pH+qMWUtP8aFh0ugVlz3/D3nXhsL05BdZ9/gxlNYfwj6gg0Zl2mpiDPrT1OYJhYmN97p2FMLE6i3inRODDZYvRNPg8Hp5iyFzvv0W2h3qS15tKawe1lQn3lAjXqiGa5K9JIvc1IjH+n0ewB08TXlc8We1zDiZ/VcCk8jV0vtELvbqZyPW4ynnlfxWfxzuiRiOFMpdTTMQUG1TKPE7PQQFYdm8kq6y0SHEuAI+7h9rHS0JxoiRNXhdC+hyfg/xRX5R7qsZoLa6il6acBy+pBvyxcSo3SqSE7O0Rh/FTEqhiJAcRbBE4HtmCf/7+ZF7XFqGFb73ZBtddzL9/oeM1j02995JJn/ynLnlSZNqsGWA+9y0sqjelk4duM2kmvsxKvWXk3q0AHCyKxWarExAk70Z2ZE7Fcx8uQgTvIpHIbYOxA1N4S3pM4On5Jk7oknuUrN9HT8m4oVOuEUy+F8YVGaPgGFZPHN5owHnTl5BpI4XOW0TI9oZtJLeNyyhL3MQDKpuxwEwODwsPQqRWB37ab0TG9JZCuV4w3SLDoWDwAG11eFQppBDa/nawk6aiILvqLjxdlQYzxo+Cnd4y1DnC4cm5aMBez0PM89VOlAoVs4fqY+ma8JOUSclECZ1YuuKGO9E5/wBkzHXRK+AA4smHcKRmoH5cRxeei8ag4t9myFwbgbFOSSTIaAk90LoXqgd2wzq/OfAyvxgr8Auj5O8EQZ9fcGZmIWmqNqcKct2krdCefpMNBFauCC50mGK9sC/H+r4NKem9zO5f/Jfh5NTizVoOUYiUgu0JMjDjbT7l5SZAyJT96BV9hzjFVqLj1TDwam+H8btDUNvPoPuVQkK2GhAcfkU1QghsFgsDpUdTcJ6QDbzqcKJuf75g4sVx+tGjgmgG1GHZlqfMFnUtqmt+G5Z1mzCOHCGUOB+JOrMCSek8DRydnE89iQh+um1CsmaKYnbUDfiixsGMnnwyQiPIrh+GpG9xMsPbO8QZC0oHlZGFEKz9k7GyUMdOok809xjiQ7W9cLNHGOW9f7KDv87hUN527HGoJc9E8qiAxFaqXaBA1C8X0K9v7PFvay9kKu4Fw9YsHOvcD1UKF3C18xpm/wIXeOmSgYJHz4PV+Ff6I+0yOS5nhDG6Cnij7yIjV6aG/GNu8HPedeJV3WbWmNNCHbyqcI3RHPwc4wZPuYGg/HoZil3dhWlTi9mYl4hFr8+AhN1nava0i/gEm2LM6iWQm2XKqMibQoGtA30XcYrhF1cHsTv+uHLbEdb5oy+YTvrQ684HYFOGJ46fGGO99ifDo5eXmGs5f8lUyQtguO0jE/nmCY0kPmCQI8pN6guFZyK3MK3OikTpVOHBRVvIrx/rsVFBkfy3dwcRkitg4mTU8KOnJOpunQbjhd6w6nsmSdXiB/JkDXT+KEbTUQYqdAbJFOVlEHNqiMwXP4eYNwvck/rIqg3N6NLeRMefrqQ7vLeRyO4kOKKmhw9UNoOExzCZWCjM7ToXDf4pLPKbRqDHyjDcVHsaC5YJ4+Oq13BQpYdQJWnuClVnInDlnwYb9uOPbFfA60G49/4pVH2TBBtWcbFgaCUciouF9P2F9MYqWfyxdpgo17UxXmKzqOxTMVjyMRPyc3txg90WM3L0CqESJ1H0gydJVFeBoccjZHd+JL36ELCt/ygV+STO4/pYksMXBLAsh+L9pBiIy1WDct9y+n5Ehqr+4OC0iOF6RwlFtNp+mM6Vr6YXlf8yllLXGNFWSvOPiKK6yUxIC15Guz9O4S3e0UG3jDQzx/vvkAVhLMmauECedtQD07MKo7JiceTHXSZv9yrYx1wH3V5NKK6Yjam96/BtUQ4rauQGFwSCQWSJJB6K9YXgfhX4+SQY/Eu3ow+3jiy/EoedraWQdHAOZFTdgNhyIzT8uhOL94nDLhNCxA4YQ7x2EvH4XU8yHtXCkbV9jN6+OCjrdIYrTTvBM34AperT4L/4aXi3Z5Jllouw6P8WQicOoNKaeTCyg4NHdevJXXl3ejU3mkxIPYB3HnOxMHE1/jT650U++804/96xpwuR+1ufxDfNRQevcqiszCVPTU5DpV8ix8tGBr7VnqXzze6C3oApCa87TYp010Iaiyii7M7MqDoKjYui67cey2Ej5C3Q/NF5mv9pH+ovzoGW87LkdX45p28ygalKqcDZwp/g47UclvNlkP56+ZMEr5Fnrv8IoD9v9ZDfwUuo/ZdSENFs50hHHCPin/cQQ2KJwZsUuRKL12OKYSxxW28OnvMz6NkdqkThzymq/18oq2h7DtV+30LprEK66oAqCXzjyA7JTeOOv28nJ3qe0IEpIugMR1ExXRGh9BflLJ3F1PAtw6AaBZiUHoFOy8PY9EUCn1eshI7+ZLj5253ei3OGmgkxfNuyBhLa16M3/3oovD8ThbsrsabhFC518kWlb/3kYoUd/i3mYzYFfsasGR101tIBRtQyBaHhEjwXSSeK3+1xWMQcVM9bUjmzDmju4Aehdxch53ol8La+xB/md7CyrItdMdcDjh5qhOZrBAws/mJQjyhIfKpEC7VCkqh7Dv5ryAbz2G9Q3p9JlDdOhbeSGtD3Kxrth9WhPMAPjoEKveNC6dGyApKbvQHuzT4B3DPR9NqJC1ix5RyNfFFD/bUE6E2+k2Tj7TTyRa0BE/VX4s3qSdJ2qI2sEHSEwBgPCHQsgvZtoaijfASS4DhEfbWFxuVhMDg3lW2rXQsBMndgfqkAd+uF5UyYsbHZZtEPzDb1ZHbTue1gukya5XNPY5w8LEnqG3E6RUwQm02aiP7C9bBJ7DrcDncj00qcacnqGpB8UYEDa57BYfcZNL/8LHPsZSg0qSVj/GNh7qducTK9cCpUND6krwo2wgdhUfQYPoAeNhQaxf+QuTPsgK/sIzE7shh7XX8CzXAgY3QPTtk4g35lJUHGOBkDpi6FNAEj/J5uwLjlXoDFEuV0VegsSL10jj7hq8Moo0b4HBwDBRq3icu2CVKqLsWm+8dhd6MiLn3Pmgk11BGOSipsOLGQLm97SL9uQOoUIExf2UqR6f+Y0/wW4MYQJeS/BHRhP1KTazx6L0EPG2UVoFdHA+q8FKEl9DhxPSVLtfgXcj5//Uuv6S2EggIFkJshS5QWO8HcjrdomjED8kEWR/fw4/rq0+C0dCpnqHsu/jrWQfmnfYXty5pxl+1V5nD6LSwiS2iOXhtzwU2Z41vXQO39muiGIHFeaW8o/apzmjy7XwMGCipwxioIjX2iIUgulOzZZ4hbVmuhfmM8+t83wTCL+wgyZ5BZEIyOu2Og0mCMBl3ix40hbVRllJ+b37UUvJXTUN+5q+6DSCo1c9ZnLrsrQLF5B9uZFw61XVcw2qGSikpr0N6rcrS1OQFHUxugwX0RiCUkQlSgKGswuAHD5Geilmg/jX1aDA0x1VRCroXozs7BNZ7SdOGrddDPyEOVsyer6exFirl59Vf000AjrBG+jqWzmycu01xHDVC+WELzSz9Q1eh7DHMvgfiyd6hBZzJeV75GM546k59LKyBo1jdGbEIBHIIf0pd9DxlLjanEZjwcLT314XVFBMb5LEHdzaK8m4Xr6bkJBle9mU14h+fRvtaX9bxJIdZ/WwnWebwjm25o04bIMLyW107Gdizm/Xw4H/Xio/A7SKH3C0fS76wG+R12qPr2Lgod6ATVZHfalneW7nNj8ahOGlE6P53KG+6mexYN0t7WKKr96SzeMhLA73Oe4F5jLpwz+g+2TL1Ddj2MpdrKevBVywx/ql6j9el63OKjO8nx5THQFfWCY96chF2Jquy30b3YeiKbXj8UT6zFNKAwNQf2fkrEye9XmOzTBMuqb4LJmV/kb3YbaR0NIIqlGfDHo46y8ffRxO4b0RvIhCXqX7DmdAIdgOmomLEKExtfg/yeRmqlYASep4cY0SYDUHpawpjd59VL8d2lr0xnwKmZhAYc+Y9qLrFAnfFFzOjRLiay3Ry0g6bjvsM7cd0Ua5SZugZXKJexAusMyOqoBlpwJhiLfjvTnsl7GPqwCPwHrRmRleuYJSvyYXzeUpjclA5SCacIx68IRKRn0c2HY1DiwApYZzrE8DmKgntpG82RTKT6ry+CVVYERByygszhCPo2tg6x14XOSQhFe/4sGpCth5Hd/hjjJ0CtlKVooO8bEiJ8BKfrJJH4xzvou/nhDLxl4Mt/csA+W0xt7HLJxYCH9GS5I4kNCyOCj0YxIb6XtVSxgcrpdei3IIcNO2eAEwN88P5NEGmzWo/ZnpkoUHaVdQx+izbzc2EkwR7p2ji0Uo4HW5UVYPdcAbv2OuDOHGHkmNfRtbf3Y6VYBlhP/0oiva6B7IdiWH2vn2oesybqU27gun/9USFFDX8mb4A9nU20/M9DpneolJnnJ0SDolLIXNEG8IoX4D6puUPuT7JUMe429ORUkSzvl3R4vS9s/DVJos3L6Br72TwDbg91bTtLjj6chm87JMBr/hNqISHJXbSYpVt22OHwwXdse9wixtVuKnfEQ5gOxp8me20FuGrCkqhR5oJNbap4aEoJqTz/gHG32gym8ttBsTqXdH1ZQnLviXA5+k3IDH8iNa+24SJLQ0yb6GCGxIxBxD6Fbgrupza2mdC+pwPnB2aA+a94WrB/Hh5qXk29H7ng1PcO8Nq1DfdurqK6gsL0lEk0m7Shkf196T070HWSGM1QRvV5v4g1zwJjRwNoaJoFjbkjTvcmpIHZ3kvQfdgf52tch1TkgfDmRKpARDHkQxsorxbCmz2CaPNQBltvSNOB1jSM+1ZOn4y1oHP7SfrAVosUyWmxVz30mCIfSk1y5vA2fsunYuJWcNfXGZYvuU8dBsSw4NYWaF4zRqoXxdQ9P7QXr96Pxb0zc6lU92+SbJTNhBdI46uT8aQp7CnOyUuErYemYODgZcIbKAFt68U4YnYDXmotgr2tDyGoJQ7Up0TSOIESWlkxDwrcWRg7Jko+6Oyn9ksm6LXtlvSZ8w0IvaWF2Xvaof1FEqP2zg4t26Vp36os4soThZsi6qD4xRFS/2bBMoUTuCuuHiqDr0JL12NGtEEPdlgWUhmnyxhWXgurOQvgk08KGCvfgUtTJ0nQvetYWO9MTmuM0N9K54klSPE4k3JoZe+H4lqeIFQYib2PjsOnP1/I6vxfxDPTGcMKpOBt4Ek4VJSMb6qNWSPtCCheoUqXPP7COCs248KQQUz+qwkmNXbofyiGfXRZBe4HS2PrmhhIOHMAOo8kQ7SoLVlj6IJPdh6HwCsB8OWPEGYmU5wRNMpoqRMU3joIyUobYcJ/W33E9WGSxzkBunmC7OztT9jOlt1w134zKVRcApmX09kcvwqmX2saGo0lwJ2Ai7jdKY7jFzEXq19wMGbONbIjXgZ+HPaBcvfzaKW0jsDqP+yLRiCG43ZQuvcIOE8rxX0GBfTyu2+E0coC6zV5xIAvACK5M6mB8V8iPp5HU5clUcXvYnDZtYcaPD2P9jvKyJ/GMBTNno5z7SJhwyF7lKh9Rp+eESHnWv3xvfxvkj0uQPS7U/GTbwM1a4pm8sUzyMN8aXh9fRCL2x2h7Xc8TmtdB/acbLw7UQ2bp+XA3Rm19INKPHC//ySX1uWwK88XkIEWe9gulAkaL5+xa7+ehQdNlqgu/u+O9Tk2upfguOy/rud2m3FSdaQBF9vJzPJukrnSjIzIR4PplkyM8V8LHE44Ub5mjK/X8ODd9TTQ1qzHooNzGfVWW1BZVQL40ZK4vHwGS41c8Zd9NAwfr/pngbaYIMujjm1bqbi0O/JfjabXW25RFXlrIlw5zqjqv4ANn0+R0J8n8dacDvz4XIiU+67HpUX/usz7ergzNwgLZyVR2Rl6sCplOtfqQA6t3bkbBdJ1YWDZO+rKX08FAzqwne8sbDUIhfHnLWDYl4tVJzTxh98stPUfIp8NElDreTc1Kj+Pt2QSMe2cB6l/lgcbt00wnEt6REwxkwzli7FPzsvSB4tqiIWiEHhvVKC+bffB/uBtCLkhBK8/OsD+W3kgXP2O8743mz60M6Qt7zm8dycjUdCSH68b+MKHteXUW/8eRI2uhJP3+uiL5mUMLheCzIU+GDLyzTShOovw5erB/wBQSwMELQAAAAgAAAAhADNyD/7//////////wkAFAB0c19iMS5ucHkBABAAgAEAAAAAAABSAQAAAAAAAJvsF+obEMnIUMZQrZ6SWpxcpG6loG6TZqKuo6Cell9UUpSYF59flJIKEndLzClOBYoXZyQWpAL5GmYmOpo6CrUK5AMuzyV/d/3XSN3DuZHJ+mpHi0140mGbn8adNtvsDKz+7bhjI9ejY6uxJsumU1LN5tMUb9ulR+/tYdh80jJxpc0eucd/9tSev72r6y67TSi37p5QVb896hYXbNgqn+3OXbVlt07WgT2ZsUdsOCau393CX2nr4HPFdsqsA3suSnfYKqpq2YqrzLRhOP/FRneZ8J45RTp7cz+G7e71vm3tW9xhs76Kea/bVlYblXmHbVyYa20fhT/ZVSLTZNP38p2NPUfdnoqpn208dV9YL1Ges+dq8MPdG9NzrQ+73LNptJCyZWFYZ8Myl8sm72Loniv/5u9x+/POpuK6m82BCXtsDHnfWk/o07K5tqxol/cRyb0AUEsDBC0AAAAIAAAAIQAX5l6r//////////8JABQAdHNfVzIubnB5AQAQAIAgAAAAAAAACx4AAAAAAACdd/c714/3vqwSRWirZItkr+fjnCIjNBQNGiTKLGmXksxESAiZDe3yojIe5yjtoq20kzTfaSoN+fT9F77nt3Ouc67rXOe6z32fkzV15hRPn15Sq6U26AcGrVgUpW+vqS8sttQ31tRfvCxqZdTCpX7LogKD/l/cZWH4iqB/8RXBCyOD/vkG1pbGmhbmhsaaGzX/P62vMPoI+KkOgSlD48izwArfh6jXKwWF8riju/D71EQq/KKA2c9HwxQzD75xZibuNY6mD1IycHB8C0UZT0Xp/4VjwqkcPKKgwdfP7CXWjRWl3Yrgx8F5KOnqxMkl8nwzaQbk31XliGXn4en8a6gwKJfeL3oHy9K3YPva1/Qh3llct7CFSkecwwsv1Kj4cxqdmnGWWpUC+eWroZgZUkBfNVU4xeQehNYfQKdj88l3iaWgr7+BZ2TZctXL/jyyUyTMDqUJE3tz15gBuHzeUPbf+Vr881eWBvxO48CT43jqwxp+px8BrYn10O0sBd+jJrDzrXO05gvzYNEZH9QvZ6kFwXzedBRn7lGkk+oecKG3Bf5S3SKWmG+TJJWZ4dL2c6K1kR1vKJQl4XOl2L52DtgrWKPejvEoZLeC4YPblPLCDn4OOQPTQ93Rb888jlSaApvK5PCxpTJ/WjsFK9rHQvRKN9x6eyCvXxBBVmF/YdEuOTyp+8bewyobZRteiCOn3KZ7ae3wihuEpwEbqP7LXHzNe3HcBUtcoLwegkLqqabuOZ3rCuYtU9I58VYx1St9wf55AawtK4svDu4lwwu5sK7zgbB81hncHvkG2spicPWKNNx+sYFkbdZzwvwDaD4smUz9E/BDlha/dVyBig9/iNoF3yhwVQabhngJpkMNuOuUBrbWOKLLhR3YnSHh2b/d2KIiFp005VEKK0AhK5s9I3/T47IHZP7elof+UOBH4Z+hNXIhvmpS4ucpSjyiwJDzn6fhvucREFHsTf5/BuHNyueC/5ipVPtoEEo+dtdOvUI44FUeTtddzAsfVNPW7h77y039+UnzTh76PQftZdIhV92PDb9upgPVh8EjwISPJo3jXQ+qwfZgM+1JaoCMahUavf2zkOWgj8qCQH8ut8PXgw/qkk5PZonSGnw/IxmCHPryX9kMDLurw1u+Vwoj9qug6j4n0pyUjG9r/0fTnkqNv6fiia9uZrB56g97M6+Lkn3+g3jTjV54v/AaC6mm3BCVBJ5Bk8jcX2D3wF91qz9/Fp5WXYYlUvrU+sMSu+ziKefKEdrjacYfPyaw5tq7wkDvAaSdokkZ4M5VjfJkPDYMDrZKCd1ThnN44TKalLiZreNs6U1iLe0vzBF/LFHlBxONUfhszQobd6Ldx7N01XMVNg0PZrtHcjh79gCsjhrPw+9mwNYvqrA8YRCtjFgFPnOuUEjcUPqteJWeaI7Ah5oe3DS4DT7NE1j1fhkH/Qzmo+rbaHDaFvzfxS9ot14fh2z35CSfffzr4ytuclGpPxYXh+uaB2ODagTsC46BP2dOwLLg8bhKOgOWlxlwdoM82pRthchwV5xc50aB1xHD1KaKVa9/CDsVCqnCfRrfaKhhmeQNwhL5S3DuYjIrPPfAQ4W78NSNYjw6YCJfjmkQj68thvKTmyC+tIuurS3GR9Z76nDfJYqacpqerFDnKOlUOnt3ixAV/xXWBI/h40WN4rv7hbh4ci983zUXOqpnS77r5oufTqrgeac74sR3+nhgbD6c6HJD6Uva3FjwBVa9K6UQ9x00b5UdDL6nx77bCtFlsRe2v87A9KEdgvL+Xjw5fD3PEd6KisX6eKu9iorK/xPlHirR8lnWYmtRKX1M3It5LkchbMRrSEuZxo8by9hdVo5L60dI1jbUcq+2lXD+uTWfT5wG03JPStZXG4p+mYaCfC8pUJtdCcqz0mh7yTa4X3UR1yofgTzVwzBZvV3UeZmIjW45KD/sAAycf1VoVsnnrnP3oH6uGvxp/QSXNgbx1vt2rHWeIPZRHWwycsOV86TRzytPKIi1pZG33XFtWBA/iNgLztcm4LFvZsKokeq4S6eF5Kz6kK18CkqsGiBgtDHKf5SC2GgL/rjLTlhcL4dfZsXRxtw9HD04FB9q1VFKgiK/UtZFDUGDPyvJs0n5FsmDE6ao09lJczuaBfvO+ygz+DnUwi4szhwv5L3WARfbcdz70wou2Nwt/v2bSUetXcWnmsrkZzaKb1jY4o3AL+As6ycobHtIVUUF1JMlTeZFtoJJ3UhqNH8FEw7moOIZWf5h6MphGj2kMvg0b8oajNlnJ0NbQ5HwtUUGkp0TYcP8UPGh2QKSuSAI+sei0LpLDXvXI6tqaIsK456AqVEFDI6aRtf3nEFzp1oc3bZGKGlKRQvVd8IS7INVOwwF09dxoPKkkSbphnNIXSltGvdOjNb4n3DJuh5uLFyHm0Os8abDJHZKSUN1C1eauESXp2r/4++25RT5Q4s/vYmG014aQtD0AXwwbj0k6E/FnA+Z9Pv2YXhlPg6vdkVTuoIJe5mp4dryMTzHfzZfW6jKHwU3lDudiq4v/5JtTAa1PJvIBaH9aN7naJ7vrcShjyZi5ZergoXScE6P6Y8RuZegxrabVg7MhRNz1NFI2pAcFH05uvEKTZs+kJd/eygkXL4E8z2kKX9jPqb2vchjoiRYoBPCc+uTeJxoRs+/5Auuyu+Fa5HSwqzzYTisXYnHbiJK6/hLA4Z5Y1xXs1B0b7gQ5quKCyLK6fukfaSvZYivqqfy/PGxNDFBkztvXUWNzkWg1O8CnV8+nDoT/KHVbQkssdyD64Ino/Sob3QzK5yHJ/yk1ZdNMNVcn1urTcit9RVEv6ik4VZmuO3EdrgVkYz3MqsgOHImfTv0V7jq5yvuaT8OVulX0eb+Z9o5TqZupNVwfDarAJLPrMXUmgox4uYbeCf2BZNpNji80xr3qT0QSoOjuWDUZ7iTHAEyc1Rx7KSTks4NT4WYllx8eLwKh9rMw7KQHOrcWAsx5z7DkYfbhfW1A6m1LBLNzo8Soxoncls6SXrpRPM8dyS/zy2wfMhPyPuYTNdMl/O9lhV0MKsCOpyfw/mRcrx8qCLejX0JPy6OBx3NftxUVlvXGFoAOy4+h7EXc9C1K5282+P43Cc5Wr20E7SrI/lDLxeUHgRo0rAWnl5xwprWAD5trMxKMvep14gpHBLvhc88FNj0UApNy3sB69ZIQckVS1zdHoiff2ngLTmi8n6fwAc98FWYOyqYpEFKdCT3vHpF1g27BIOdCfTXoRx1TvSnJHRESeUUVBo4ve7KbVW2Sv6nBScU0NlgjSCvNQ2vryynkm4Wj/iO5s+HjQSV3+Ug9lbgoQq1FN5pjzpWNmLQ31Ji6oNKDj0U8ngf1HcniuvyFmHmyTmw5Ushavs850W3f1PvzwNgbOAEtAu3p8QpU7D0eSLfWOOImpdzIVrFn9s+5ZC9bgLmwyHR+b4J5R05je53q3DY/kvsVB6L06/egUQpWfTWm8jeZvNhkl21ODdzMJoe/wsPXAfxG94sXrjgi8nPrdDp6lgOvjNRLEo4jRkbTvCZ6Peig/ZToT7UkloGbeO82SfgonMK2dxJ5qS3tfDD+A4MnyjHw4+kY3+nHDD7OwXaXMpg9Ow3cHmCMhqE9oGItByweyLw+xuVYkNAH8nfv6PF/pZz4VfsLnH2KE/80JFI+5Yak4S74bZ5q2Ri5VW4f2MKbxMfCKn2GbjmjifHXCwTTF6MRKX5AvtrV3OPzDo68HYxl/M7qol5ScdqxpCewnRODB3JKW/S+EKGM65Yp4xF4VEQ8fkTbdxlD+fOtNGSsoPUcX8hSbcVQdimLD5wOYHqEkay1SIBjRofwhstRf7xM41Tmpgbt90AX/V0XC19El417hSLVsbWvbatxPbMa1BSkoMWWlW4qyYUlIZ+x/dPUiHz2DF4PDJfOD7NjVWb98I0xc1gvSsAJ+yuofx4f05Wd+DfdiNZ2z0eva1doJVOws1kA9pTPgH3Kz+C2Mu68PCSNoW5HoJcjcEYr7Sda17a8IdcN/RybaDhfAhelexEL0tl9KqshEfz4wSDQy6QVhiPQeP2skxrO1isLcdjtUowfpox5vVUU4pMiaAihuLsNi/Oe2SH0QX9uEqqN6frVEHUzxvCjzt9UPt+MPckpiBvDcC5wn5waP4rHrczE7UNjNBhTTL2NtbiZcr5tDo3GB1qU8QYbxH1F+yhh2djuf6TDI5/vxTOrLLnhK9LePmMmXz2ij0+T58OhySxEBwwno0FVVxy3gWVpsng7W2bIMDtFQyeNh6dd5RA5FITcfaJeJw+vwD2vnpJV49o0ZByZW6tleE+PX0wPOkAXDk3AztDJLSsUgbf7b4OwQ2N4ubLw3nwR3k8qxBI39AXF30+CLKHm+tybIyBWorItXcKLJD7h+2EZIx4OBkfel7Ezat6oSTZAXUGNohFkiO4algIOGwA/N8hGXb6/Y0O2pwg1YypKI48BSeW5uHN1+Z8C5RhN/TDsXcv0X6DOJzZrI+pTV9AcVcIhvxMReNlZzHcvC+7zswXs1drguPqodz1fRe3jYtg22HZonmFJnuPiwF3tR2061oT7DljLtakhePBDx9g6NLfQmev78L/5oXCpeWJkja1K9xssIM9Lspi5K0C+vvWCO36FYoj5AaS3b97++ULR/RNHM2md1NxYVopBzd4YaxlFgaULBa3/q2FjLHF8GKLmlA5p4X2lhqg/+FREFY2kAtqerH1kWCQC42FB6lrefEbJWhU/ED6ZbuhL63EAct8eGb5QO70PUZFlxNYJ7AP6y5aDk0OA7h0lw5az6wEi1n/9jw5jXYLm3Ho7rOk+Z81j52XgVI7X4mpdwailfNS8fjXHIifYIOK6xrF00tHc34mSC5F2ENjdSn9khhCr6F1nFShLc7ceBQpKh9Dv8/EKjVFDBrugPU3dWlF4gE81A3oZXpB+DluAx2McIT9z5xYpUIaXm19AQmPwmD1p+PC+d25mLJwMyw7egYCdo/FBxPs6M4Hfb56IJCfXH8nfH9fA9MwkZxsP4Hkxh2YIDsAuxdUQUVBNfSUBsGnBfN54+9iYVi4g7D/sStFW8+EnbmOPH/rFaFp/Fjq3fyB/GpTSfFdKHVdNML1/9nTjiez2HuNt+Sgrawk5389VBzvCDE2JNRl/6Emm3VUqzQWt356IUgp+PKMlgM4LDARF7Vngt7mPvww6A6VOntwcWQRPv38G+Kvt1DxoGZomq2Nd+KrcLa6IyrfGYkOpnKkV50LTc7yvPPHKjK3VeURFsUotzse3jTNEAxGNmLR3i6S21pNaw+ngPePbVigGo4WU2q4/elWDg0ZzrO7m7mhuIAmmafyXp8wtPy9jheoMalfOsk70lx5hMo9on87zzuXEurm0ZKhvcg9fzWu+rQT7HZPl1hYy0D8hVj89sCPtS6os09LPUSpGbB/uSybWOdTlI8+z76uhFt6ZFiuOoK1vEfy8X4SnGGxF5VG55DGtWWU9/mPcM06AeYNz4V+ogpIRemRz5IcIULnEZ3u18KmGc6Ud9QVM+L3wKJidyzvtQ3djafR1zV74UDTSfAYYcgJz3WEJbebcenOaHFU5do6fcMyViruoT39CqmjSo19Z0thXYUZxDUOx0J7RzaYfIsWXgR0gRIh530a3rP8DHPy/OD28hK7N4EH4cOvfzndxfA0LpavNFri4opkcV+vNAza2leQ6Gvh5f7+VPW+nn9PT8dL0UXAsXPx9GY5emq2E21XJHDDS3Mho8eGx9yewwFYQf7jL4gjNI0p95IoNPg/rOt4d1LSa2szWB8+jt8vnhd3O27nExZ6lPtlvBj4OBoPtF5lp8AzkrN2+7lijh+/6VCAVePVMDZ8AZfrVUDM6pfiybFj+cTGWxinNYxzvqlwWLc6PFurg4K5KiodPlOntnkYr/E5av+824ODwhZycoIKH0/oK8zevZ846Tq0OP2iK++82Ozyc5q5Rw29ZE7R88QssSAkEY0VPgjXL2nwtLfz8dRjI1z63JZnPTeB8wVV6DPXHe1/9+LBWv35dWQeHOqzh7dX/BastgfjpCYfkE/z4oiP/35vqy4ST7mg+QdTlNr3VfLNKxNy9k7kQid79LJ14qUOCWJo9hkM1lnL2YVHaO7GlZzv+QwerWP69GIZTv1jzI2nDbkstUvyLiKenD8asW+oG+yZmUBH1MNQa8wxdHJ25xhL+3+8744+jyvJQ84Zn6Z/kJzflIByR5XQ/3UM1hu1009PJ36rXUNnNP6jrXHbRZtLw3jZ20PkqOoCm//Lw3sj3wkO+7Lh+OtVGCk7BhccuEr1l6+LB6/XCBJ3cxZffKRZe2Zi1pAyyN5bzFG+xeRj+R8033LC/tmZfPNvGzmY/sPM3XzY6FBIvDwN53wzoXbZJsFy8WIeaDsGdXri4af3LTG51YZXrt5NoVVTaPf4lSjK2UBtzHTQ+XgBdpyTxXY/Yz7R9qeu+KgN+RUFSfSmJeP7eVGQcOSYGOuZyXIzRvKglA/iw7spXDnGlcd0qWLGg0v07lgbf7gixw+SXbH1uiscnZ7B2nfj+deFjVSbspOXWupgs2wE3egfiVvtTfnr7iW0d4m9WLklHMoPDMOXfeeL6cHB2PfOTKi8Vk7uz3ZyZnEgrRq1jDs/p4PHhP9h6RJdVB4owjbpxWJP71CxscUCKqyymBUtoOy+MQb92MRaj6fAYcMWuhrWHx+rewvZEX35To88a/Y9A2XrjrBJeB619zmAN45OZI1ev3DLwE3Ujy14gEuXEFHig231r+jo+rmo2CeAY2+024cltpDi9WyhK92T00ckoFarEdfHF+KVZnXOjvtJASfq2TEr5R/eQmDrtQKqtXBAv47BgnLLLUqyUKYXP2bjKdkMkFlcwZEn9lNMv4tcHGxHSnkzeYWZIkX8/oPxwz1wVW4ADCnuD0YGnyDdSopPhqfglOQDouPplZQwwQXrAjMhW82OPV7Fw2Gr+aiXb47j00fBjBp77Jr5gEpLr+Ogh9tIXzILbf6Ow+c7EiHwoiKNiNTCpMq1mDW9hA60z8Qlkt7cW8GD3Y75S5aFy0CqkzqprbCD7hodbq0/CUOmqOA09e3Iozaz2ogmMpWMgVLpPEgIyMRbg6TQ/VI/7qnty0EnNvMKfWnu8IwW9lnqcz+hh+pHJbFB/QW44GzLg0rjyao9EbQ156BifAW76NYLAbujqy/tyhHS101nww1jBa+fO6FBoxWWWhai1ww3vj+qGUJ9AvHv5STOnZ0lxOQl82tvOdp+OhC8fpZT6L9//dLfbzTopw53nrAnuQVD2DJRCV1KY9DXOh+l+nZJ/s6ZS99mz2L3bTvxpfoIaGtM56C4GNg7YRc9u5mAjlt8seFJHz4lvwj3TV6N1y+aweM+IVRobM7No45CX81BbPF4N7Zp5PGfgGBQjFFEx2wpfvk4Bw8PeIKTN1RSj+Z7cO/qzwmpbzj/uhvWeKzB8dfHYpRKPs3wTCcHqdHkkNQjqP0p52X6O0Q5Qx2aFXscLTq38bSqFrZpqxfC3x2iwdqz6oKNrDjC2kWSNGc1BuiY4Ynhu0G51BSPnZcF3z//ONhtCLadGUR28X/I6/1ybPe8KfhbJeGA0D50pH+S8N1ImjRumnD+mEpYk3ZDWPAiDfb4x8H4rxlQMCeLPzSaoHXAEMwLyGcIX8zaI4bUduidhiBrW7z/Ogj8hPfompBPLr7n6v4rHYkxGy5S9SYlLqpNQ0XLOJw8RB0n7ouXSG0fIPnz5Bi2VC/lyNuBvPFnOHxKXAsbLtqiTfwncvz4r0a9gS4rLeY/j2ro2iZvFGu3CbrX5vIioyzG8lmiv40mZc0/R3IgQ1NzdcAkcTIbzSrD/cHH8X3tKThanAMaeu7cMd+PJ96dBLr0CvwiV7FUZQbrJjym+0YzIG/5daq9owf97LPx524tXJS8WzQbfYwtqnrhjtPJ1F9GW9RVO8POvBBN7o/DRdPrYex9FVZwcgP3ZmM6v2kxGt86QDY5nVhbsYz6+f2HY+qc2Wnp6to3OwfAKe+FSE+nYEDnH1T21+GOKw58Oy2XN5bHw5aO3fhr8AQc0VYgXO1qgfB9OXzE9zXIBX4jTcddHK79oG6kdLSwg5Q4+No9+Hw4o84k2R+dL9vzWPcfwm23OkoanEM+d4azYtg+Urb6jy5n75e4HVYRThrYCWd2KoruXQnsYqXLfXW9odRDCX8mVdCzFQL/VLhAN0MOUnSoHC/Y4YC+L+vptUcuNT8/jdlBJ9nrVAnU7kvBDXomMClXDyHlJrkUTeTv3m8o+Eul2P3mGIQ49eZE0RczZt7HK3lFXBa2gS+6dYi2p7Ohj8cbWm/4FkKGDJUs66eG2VO9cL2NyHFGW2lumTq56RRgc2AJqyyvoPDx5fRb5z1c3Xccns0/Bv1H/5tx1b9ecgbhZQU9tiwsp4nhEbTUdTfaLFoK4vTNeO6dO6jMIlLx2MWtr8zQ464x67xJghrTN0LlrVWsWDlFaNCvJu96T4xNJrHAagWvnJuBMzSP4oXqb7CtcAQZnV4p6bM6DhW07PHF1eH89Mte6NjpII6o9eAfR2X5T9YScD21BZe+F8l7exzNP/cUp6rtpFkbk9BklhINejkc7GkomfXVxdzBytChWw0b/QaBfGtfcZnLaFjUHQn39nwSS12C2ct3IE0/lytKZR6EDaYaKC91A6wHR/GmGAF9Ze+QZlwOmVhu5Cnja8SI3oNBmjfCzE93KPFDCtx80kSztGJwySppHi9vyCURN+hdr34Stwe+1PvZPeIhLrTJt0DMiYrmddaGeOmHMVvf6JaMNfyn755SeEddi8NLM9itYwBGluxCpwsl6GPYKKqPN2eNgC0Ye9enRmy7LcZc0aUgzwtQeVyJijtuwq67g+h5qhJ3mGXxhbM3JVWZEUxyDC3VA7CX6Yq64HgtDLtfIcjGJfGtSQacPFcd7j7UZyFiGDYabOViXR/0iRvG+nol9GbGRE48t5s9TZPY81GK+FZBmwe5hghWyvsgyfQHfdTYgd8vpOLWkBeCveNCXP92B/RdtY1X/vwjeh5Po309m/Dva0X8cXwPOL2Mhd/DxnHky5nicMcQNPDbgpddr5HSwjVw3WQKp/e6CAp2YbR4dg5mGhRRQrYbrpZZzKVn5+Eeh3YYGh7LOTG66BoUiMrnalnj0SFeXDaUm50fUePJefjMpYkKro6B7uB+aDn8Dez/Mprd9uvBsrLpkHZkK6uGfKXlYT3Q1j6Gj/h0wm6lEzBpjTRO+lEiPCqsEWwf9dCY4N5YePIc1ZkMwXPRqbDRehet617PD3onkVZpNH7dvgaG9PxHf84awKZ3zqw5+xTsOO1LJ+8P4U2GJTB0UgJ0zLuGxU3LMLbpLXwy0SS5Hc582K0Pn/wSxxH3jThdvxu0naew/35N8Dxry4fzisDuQDrqymYLES0juP2Wt8SvoS/XOgQL5UZb2LCyW3CQl4IDa4PA7GYA5qvUgNuadmq1lMGj1xWgV7EGj/3iCKfLIuiB733S+jCG59kVQPr6UbBJfggPWSbNM5Y3oKyMwNdvpmDmsaWs5mDA32WryKi9AqcOicCCOfKo2+0MWR9G4Z/10pyqpoVH7hpy7Oh/Wu9SBy8eR2GeaR23ZdYIs6TDhE3XTWlxjDLeGLUKBn8tlxiMzYNM3wJefGArDlh+E9Yr2XJucaekduxeKv2+jpdoSFCtvBN0t/Tjj7fm8+VcN2wdtkDQ2/EUKvSNQNVQDzusfoDuvlk0OG8xJH7yq/tl+wGWHHhEevWZmKqXhg4KK/GYoxyba60XN877Ane2xfKa0mB4e0iUmIfL22m76YDWl0hce24vp7zQA/etd2jIi07R9d46bmp3FSq/bcYRr/Pw0KNHYmCFJu5R2coKUvex9UgnWTY3ALalccIRR37xnwVe29hCPr/34TVbea7LUsO/I4p4t89B7LDTI3q8BibKl4DOLR+utXDjh5YVdNXRG5ZoCmgQHCOcHBhFg6RH0qXSdfzY8TDrm90Seg7L84yXo3l/L3+Ud+tLnelx3OexDIXsCeEmR3vk+EQ6WXVMOHF4svgg4Za4K/AleBcVk+pCK0iV6oc7Z4YIdXLzhSinLJj6czM5t6/lo6NqqCFoM9WubKahpiNwVXCRfbqqjajuG4jP5FT5UMxBmDpRi8+6+8Cp8HKhcN0QdBumhEtXl+LiSfkwW0YNwzJn4zrDXJ5eGI53O0y5n16ccObMZDF50XtormiC0gPeGHungL72RGJJ34f0f1BLAwQtAAAACAAAACEA3Axwqf//////////CQAUAHRzX2IyLm5weQEAEAAAAQAAAAAAAM0AAAAAAAAAm+wX6hsQychQxlCtnpJanFykbqWgbpNmoq6joJ6WX1RSlJgXn1+UkgoSd0vMKU4FihdnJBakAvkaxkY6mjoKtQrkA67siwts3Y6Y2wbLLrNu33Tayuvbmp15f+xtSk4ds/Y/+23P5Pj7e54lhe6+pMxjt3TtBptHr6Kte2Zt31Ngy227O6V7d61Ypm101M5dGbcZrR9bNtncysrd82arnm33X5W9++7w7DV8v3LvbmelPXH1z2ymX6i3uWvTYp346oDNccn7NnwHz9oCAFBLAwQtAAAACAAAACEAVd9sdP//////////CQAUAHRzX1czLm5weQEAEAAAAQAAAAAAAM8AAAAAAAAAm+wX6hsQychQxlCtnpJanFykbqWgbpNmoq6joJ6WX1RSlJgXn1+UkgoSd0vMKU4FihdnJBakAvkaxkY6CoaaOgq1CuQCrooba/ctt5uxL6w5zaY/YptNmf4Tmy1i6vuEF03am2O20O6+dond25XVdive/N+35Zrxvh+yInsnLc60Se+/tLfEaJGtT87OfTUfWmwZbQPstLfo7FP5v8f28ZRF+7xab9mtED1td239DjvJiW12Qvd+7i3KMd3HezjfzlWsa9+C1Wr7hH6f3wcAUEsDBC0AAAAIAAAAIQCits59//////////8JABQAdHNfYjMubnB5AQAQAIQAAAAAAAAASAAAAAAAAACb7BfqGxDJyFDGUK2eklqcXKRupaBuk2airqOgnpZfVFKUmBefX5SSChJ3S8wpTgWKF2ckFqQC+RqGOpo6CrUKFACumSLt+wBQSwMELQAAAAgAAAAhANcoqvP//////////wkAFABzYV9XMS5ucHkBABAAgBQAAAAAAADfEgAAAAAAAJ2X9z/X//vF7U1EVnZFVqkUXq/n4yJR0kAaKKFIaZglJDuUkJWRUJLKSBnxej4u7SQaihQKlQqptFR69+n7L3zPb9f5+dzOuV+Zq9etcnTl59vHF6Hn7RO8NUiPo6XHbDPVM9LS2+YfFBLktcfDP8jb5//8pV67gn3++cHbvQJ8/t2zTU2MtBbM1zfSitT6f0piTC0VldUt6cLUy0TIyxAGNapA+tlKYvNS1LJPbgplGwepz65CWnv4GHsnvBlqyzOgvc0M3DxXgeDFDGJzrgsKpk+D08IJpETgF/vigANaaE+SXToz8J1uHJnUXAfJqjIkMnyEKk++gJp346QtzwCWLVAguB8oBndRyYJiEvdW1TJlx27IT1RGpC/pWQM+y7fLE3Adfyn+Fkembl0emR/wGhTeJ2PbhCqIBVaCS+oQzR2jzHCwPk4REcDwR0qUO0eWW5TFEsH8GOQourMgNIBfx6ZThjwghiYxZCSgBk7n9bDxG+fgBpEE4h7mjd6pHhBxSb95v6cDyO5/TYvCvnJXTF8CzT884UYMwK0jNeSobi6cM5Kmeppl5PyoPL4d+0Tg6zf68gnSwiuSxF9qPzzYsIsrcMSY5D5aB2u8xcHPMpiEByohJ3o/CGmrkvTXcawHaOAxcQ4JX2RAeJ1H6Nk583Bekg3JOJtP9uwowTqbUbYZr6Do7Z3QLaqOzk6CYGiSBR1/T2JOLuA0+3wcp9Io+fIqkcpzgO+BBLlfxEh2xVTLg/sbsd5nJoocc0T/5y+x6T2PqXJSZAL5s2mY/xKM5bfA82Irmic74klnzGo4abwH9x30AlspQdwrHoPseW8QKG2FqB2a+O3uLbDYHEaPn81Bj9WDsMohDnu9TNHHORWHvRzxzcVGlEyvolPNa4DbXI+1cjxetbY5s3peHQRUbaFtHWHs76ylkHVxI42KnUV7P96HFeKZsOQYh3nSHkkniuuhV/YifS0jAsuFPNntu+QwPOoWeghKg/WMzwx6bcCeRxk42lVOtZzvglaSKp5+pADjXhXsykNnaPGrchQxXQqVLU6w+tM5dnihH4+Y/oaj2v206+l7OoEVVFhjD9QFy8E+WRXqseQzHb3/FZtOd0BbeDm+Za7TSf0suudtJrOWHcK6iTTc1TQPdRIHSDmXhw938JG/0h2Mr0U8PE78xZub24B2f52hSm+A9eDFkpTXVrS6UxLt3ifi6zhbkm3CYwvIX3JA8SpEqAzCIq8aZuO197RFtwvyz+Sg0scT2GsthKlrosl+81y64pUGyZrRw968E49vyvKxwUO4mSesSHbYPmHKAwiE87GQXfQOJl8eICtC/ShVaYakoQYIJ72k83EMvebjgd4FZyH+vDx01CnBnDY3vHr6FsKOCupflsCGSHaTus/9tLHqExNjJ4UPlMzAaW8wiY3UwetSUhAbwxJRnadMf7gbDAn6QffBMeozRRvqpJ2IdTWlckZ78OBlB8Zxzzj6LOkhX7+fpPHHPDH20R0wt5+GNEYKlX4VY0GANBQGZyEGi9PazuN4rz+NXXktkZlw9iUTa16gzHM+8sF+CpgfUINLixvZJc2pUJ3eQPNGS2lbrwlEJtiRqd2z2Wrj5Zh9yg3a1b3R9+NSNErWZN/Ly1MRJcrKlczH6hVmJC7rG64UELdUuhCDPu15PMV7IfTVYmfuKr/3xFciE0a7CfIUt2Mmfy+NtnLnXtoN2H40ljyM0Ue5/l4Sipm42SEN8+siMUxmMUxW6UGt13IiMzRM9nb1EnJ4O0wrX4gzw/JQX/sRRh5MJwcHCnCCHCNXp+SQmLRSNuoD4PJeJOF9flCxdhrCeAYRl7tKYr4toClf01GnUQFNLPPpnP49IL88nt33cB52a/pBbj+CpWsKKI7PwIHb4bTn2Tla84mhuT6NaPKvgDkHWxmeUT7x+HmXmDekwHjmBtC2nsrOVlGgP7WzqYRvBTpGFiKnuxZP3o9D1U0p1OBhCJh9ZqnDukCUFbvAWlsLgqm/Cc0JV2OOR0yQyFZJbPdp5V4fNqCcJ+EoUJGNjzPFcHtxNHNH4gWJEAvB9ULWOGr1kZaoV5Hd2i4YmZ5OS7Mc4WfrCLs6fzpu/vqeRjsWQcc3OfR03QIv0q6TE9tLkTsuCNPl6mmBTjxslXkDOQvM8P4VS/jZ4wI7TEcJG+CALorW9NtUDxoakkkuX08nxV0peHNvJUiIFBPHahGa5HSDzOw5A3qylnjcsAoW7psgzVnqENZ6DswvviciU8vA48hpXLzOh9ia7IAhfQEiceorKuXHMGoyiZhXoweL6Rs2v5YLt3jbwe2/Rny3fZTGsZ+4Qd+kwDQ5n7w9eAd8PzTQ4uUXUXZZKM1TlGneOVjDe9H3mHzK1AWtM2nY3TgF1j+2xZpQCUvrUU1oGa/F4e+/KVf5Ex4sFYH0u75gxV7AgO9qcDmnBJfrL8SPmnL0W/EbjG7ggKRrGZSUqdCfgytgIexHIlBDvNb54K1gcUhpP8BarIpHDyUp8OKMoH+/Fhim/aSHtePA2yuenH+YT907wqn5zWhg+R+DUUUdXZLZRPld1MjfWAbaWu8A87eSGu1tpXaNys0PLq+iQ012ZORdI/FSnkt+zUISGhjDiutfRoltO0F4fy04/ZpqaSXkCE43V4CYyXmub85WVi1KGHOTeQQPfcP3A4vwT9cunAfFzPoxgKRKO9K3bZgZUPRDsX95jzkdCSeTh8j3gXxqdHkjJgmP8Yz3X8CbSsWY7bGJDpm3Y9sMRdx2cjP8qF+AcmFvrvhK64LpLxtoSBxgnk+00u6+dNCyOwnwTJY5vewPfRqvQ697piAvJwn2uQzCDJd/m+RRiO/Er1FRzT3QWscP3cMldPKHIiiUrefILZ2DR89fhPcG80nzvMtUckEthN7fAQocaWjr+UvTwx7D7sW12KlXTpJ/JuLtglQwHvvCzFqWA54NMWQ0qhLei40B3yFFPGoSBKazjmBQTR6bbCQHHD295rKiVtg0FID8kRy60lmeCKWHoruVGNyWdMOWyJXAZ3GX5k0TgqIwd7C2EwWo3Y96XxJI8O9LTE/gNCTJlsh/RhQT1y6DHUuesJ0/a0iciBmuXCrEpkSFYjynl5oJfeTqawwTCK0kl4T96OTrenpa4ihcKu+Cq4IuVODGbVoc/wOMrYTRzkUR+R9EUZftB+mLaDeo111DhlIL8ZRGHEoKeeMTI0e42ScKO9inoKdggjWvlhJGNA6CCsfJvdsvmedWMnTLbT007HlH3fM6UfdsO72+pRnddf71z91k3sZ0cTgha9bsb+QB7j8EQehyCkksI+DM/GTITxn0zJlB/eYIwNbsIWbd2g9YJWiAPwviwTCkEHMEhXGndxeRTf6BotdtyIonimS98QtWuXMq+RhgTYUWWeKgTBk6zDgG0X8Nm2/0jKKM0CCusctHX3Me16NMg4bU6aOE4006Bw7DTAMnqM5djWelM8ByphTzX4I7iW5yBBvcAM+yq+m7wG3MtZ0NNMhvFh3M7SLuBqmgd1MY6r2GyRKJOzRG/wSqb89CZVtFy9qDS8nmxAtM/IGNJH9WGdrXN5GqhhxQtPfAqhMJUJzmhIpzi3hnVOrRIqQNAwqbUZ2vn15SrYGo3zkkxWGU63g3gk7O1UDT4Hy8NlEOZ0X64QGrQveVlTJJhboYNOBIFz0/CmPmN8hss3oK03YD78ljaijixLa0B8At2TUYZ3WG2mpR9H16BYf/OwruE12Y3WMOuq6HwMvpOklaaApSHEOsUT/F3jpoCLOFnDGOqhHpu/fxrQpL9L4oolNYMrlUFkxErsfg3coiMN0igt5WcajmK4OCa/QsvRvGCXsmFV8YxsOfhha2JC2A/mnNQJvmrdhnKcYeULNhk05WMppZacD5kADSn4ohy/YoEV5lgS8Gt4My/yEUi7GECV4qWLWEYPI6LjEzW4LlgbnQV+hF/mTctRAzXYcXTzhwHduSQD19Kla6bQCNV7mcWg0p3LHKk15+F0e+DKrDplBNXOvnSwtKpYm6gBv8uCCIAhEfmW2OrmAd8wz2BMzCY1x7mFv6g2hc7qcjxgm4eOQC2TCFJYUnR7FcVQdNE8vxucwG+vTEQoyubkczzgwIPWpIV4XsQqmvd0mRvBL0fNgEd+eJQ4ZvKXN+IAkmT1rDpddmVFwnD/mqB7nSgsdw5uvlxOS3c5OCvxKWHeDQRxY6sNgzhUY88sRIfW3oNdkCXxa8Zc1XUjzbpYNqEfa4p4SH3WdHoKetkTgcWgbj1AJdY5BEvtNA8/4keupVD3HKLkXbQEoUPK+Ri1Hn6A9XVUgvnI9btnTwLtZKk1fjk/hwtBmOpadA3vQkYqveTdrPvWRTJqLAavwrDK31wLzeXHTInYcq4gQSZvDgo18srL6XgSesu8xvLjmOwluLMDdiCu7r/EqtpRfin11zGc3Uy7BeZjOwwjxIEJwGkq90mJuHr9GPs4Sax62sQHOzGl3z6C79cowDc3/9JFMTXkGEQhlI2s6AFUZWIB+wmmiPNkBLtjuQfmPcvugUeElzcU6xpGVa8FsyG7fg9f1CmHjDF16eOwX1a3LpU0EJGNnkBBp5y2DmA31S3ZdKRL32gF3iL9r9290iK1YWjJUyoGKon7trbTlZI8oB+ryIqEdNtZSda4CbQ+fi1QgVwMY1KHGtAq6vSIJjaS+o0bU4Os5NJ5H9Hk0SLhpwVWTLvx+gBUVt0mi8siMe/jgP7Fc5k+SNf7mdG0oxZzwChT/qggWINZ/qOYLTI3Xo+aM1DP/5+bw6g3J4X84PmQWB9ItmPcbvMgW/221Ud62g5QU9ltwZuQR+Jvfgyu0n2BVVRmLCRdmxbcE46xvLDG4bpieze2mGYD395bqc4RtNgjV9BoTfTpqq/MxmVF03Q6rrKfJ7jQuoFHdRkcxtILw5DguTgIp8OgphuuY4FvGY7A27SHafKSRVM49AQ0YlOd19mpirZ8KgIz+qtoaD3fRTWD36hp3PGSZJhUJgEp6K7l7eqBEkhZtXesIPuSP0g3gBrpvqD5O7Z7IFyxWou00NNk1bzGgWv6LSN0qhkDyiJVMOofmcMWK/P4oa9X0BwQtKIGjNj/6CT6lpYjykLn9DHdovYuFpFSjyimWca8zwMK8Fkp9LWNbs/cgOXHIFx/wktlwlGnvz86CT8ccSYWOgZREMkxpE0hSUyaGT7ZA6Mxh0lEqYKPlvQKK/sS03R8i37q2M8fnj0BX/EsUPI9HsuAJ2twLpLO5K7nUlHdjxcBj1XJIwqS4O/+Q2wK71a1FuaDPUzTdAXxtek33HVSoaVYU+D9OxVO4s4ztQhDNAirotlMbFU7OhrLSd6tpHQmrYNgi2iyZXvuhiybV0ukdwuCnDUcFy6OYVrPtzANh37wjI69NQ4TbIK5MH73NpoLW1Eja495IavxPwuTIW6FUDFLhjAPHB3tAei/RaoiKaOvNT/mk/yejLXhr/xQINZdKZq0tfoJq5AtwKvg2tBbJ0Tnw/cQlrgCmWJ2C38BKirFsLe39H8tSqzxAppUquV8BHXCXSSvg5Y2Rk7yl6b2E6Dc2Vpxmv5ckCmWjy9l0JKnQl/eM2MdgYIoeBUZS91rcIbihOEDcdcXR9zdcs3KIBz3TioDFACOadywG34d109q9LpCeNj/zXHwYTQXOYJ2H86L7IG5uUN+GXgFs4Z8oRmGUyThNUd0N6mjktSlVBHTE5sP8eCIO+3eTOP2YyfOJFKWMDwqtzcNOTAlTJVGaLL0SQov3iLH9LNY2/Jgx8cl/x7SEkC2d00S1uI0TteB9HNUMBHSvM0OX4OCwSz4AWAVsMMYgDPvKK6IwsI3+rO+ickcO8wrZIaFmRjnVKdhTWtJD7L+3pypMr8enGSrriiBmdNx6LiZxFaCs4HX+HfWanb//A2vz4Qm4puoCtkTYe+JuIV98G0tatR2CMLwSFCzsYLDkEQ6tk0HHiPuvjqkV2dPylL5oEcKvBQJPZzH+MclAO/FtN4dDWTIgO8ieLxaogrJ5SBb089Ck8Cnwv/2OfK13hPN4I0Gk5QJTn91NPJou+0tYDt1Bxyn/uPutkdwcMl6eh4tlX9L+G18RYW5dIvJNsPlFoCBmjf4meZA5xXj1KKoqj4MhzScKvsp7p7EylOJiG0UoVpPtkLsDhE8TBJBFinznizV35cNxKD3oTd6JwZz4u+JdRvmwbenX8ECqlrIUw9jJOnSzD5/bBqPv1Hjc6PgokZVTgbkgElvcA9k24gJrzNvpsZjAxSJDHeXxOuKViJ8TcU4WnQZJQO54ONaUpvCmGLBpLmKHhoD/yyR/DygRpUCvKxrVVXJz1WIs6J2bioMds7FgqjeJ6GWj0IxqL1HlQ8zmRLHQvZlewZ8gyCxeO0HAO9g0q0W4BGbwj/p3mXBmE/xTi2QbBGHJQ1Zex1X1K192YJJzJCrrNRL35+DcD/B9QSwMELQAAAAgAAAAhAIX5NQ7//////////wkAFABzYV9iMS5ucHkBABAAAAEAAAAAAADNAAAAAAAAAJvsF+obEMnIUMZQrZ6SWpxcpG6loG6TZqKuo6Cell9UUpSYF59flJIKEndLzClOBYoXZyQWpAL5GsZGOpo6CrUK5AOuLb8C9tjmydm8md1jfabs8B6tjhAbnmfpe67x/dh9t5/bpt327p61uz33lLPu2vN940eryz1rdhdWqu9atT9/z9RLq22kGNRtWr2271l26Zb1XdEe61//Vu128Pu4x8pzlk2x5qudnmyl1mERz20YArR3HmzjspnL+dUmQOuLTdaGBTabHrPsAQBQSwMELQAAAAgAAAAhANkA/Gj//////////wkAFABzYV9XMi5ucHkBABAAgAgAAAAAAADhBwAAAAAAAJ3I+SOV+R7AcUO2kKHFHl1kHfsS5/l+HrI2YyYpFS0iR5QoW6ayC21akIQ5TGUt2izxfD+nxJiKMkpKiatOEoNWpLp37r9w37+9Xzm/+P7s7fedWJzYPoNgfvTWKANHHQMmxMbAVMcgJDIqJiowIiAyKpj/P3cPDI/m/+PRoYG7+P+8obWVqY6lnZGpToLO/9nc4KEH1MdzEWyWzyHxyYTtd9bA+DA5PHZ9gfCSeRGqjqZDrFsdORNlROs7lIWx2iyVhBMYr2XSkKSUAU05P8FIXiG8epqH9qFenMV/VIRDllGksfQg+mQthW2d29DsZDc9rfIAbq20xlSlU9j4pxSo7IzGPpf9gN2FtODtMLz84V/kcEM98Mt+Q4fKGjzi1UmsijIhUXAcTl/pw+DcG9hWwDEnCzvIpOxd6N9SSCzUzEnb7ClaKLxNnfI0HFvmecO6+DGismo3xjtMQ/jEARx3NIcKu0w6bTjXMeWXF5C+YBLbl4dD5UgwL8NJDjhnpA3SfrRiNBYmr1igA9vO62oY5vavKqNfX37kCTq3oJfqfOH2ZFU27oMP8HX1UClOG92MlNCzshxUdt/AMFEL2T3tTHPjJqlrEB+dZDqx89wwWb3lO5S4kQuDb8xAs+k0vv0hGPZEuELZUjXgOuJhqGIeFBsuI2HJUqzPsffEffcW0mauAO+SZDGmtBvzzLPoK2uGCmTCaGRIEcisSYVYBSG1KrXA/I+lZDb9MTFW1ccdLQbY7xQOm2d+Jf32w+RsSQa18eqjmS0uTdOfbeF8nz/ObjgE8V9ysWizgHQ8WIPGAYdh4+gnsndTObVrHcVDkd3AO5eL4p7yxKLSBNglz5ndOZHMDETjFp4M5msbY4RtA/goHyFaU01U/ryE8LgqBwVjJnAg6SzMO/k3cejPQdl3FaDoI4fyB3ppQuJ6XqL7S6opmoM9lhfxxdQfqO4hSUrO8uHlRDpR9U5H6dNrQf6RuNCvV1EI6x1pTv4pernuADivKKaL55lxGgGh1C1EjS1XioTTvoHN/etOkf2P/PDGzzVwRVQNfSklkJ/cibL5CdjbWNeUtXIZz1osB2bujZFz7gXUPyIFXFSTcUbdEe58FVCBbANkiw+A7c37wPRG457wBBTsvwoujYUo+0ScFQWuhewgNXSIOw2iDRmQmxqEPissYDL5FZQNhABNDqVVf3rRQs8OerD+J17Fih2c/zMXzJvjBmkxF2h6zwbc0NtKlsSfYRoz3MC3Zw3Y/+2HQUYMsLKawk/iNtTbzB013iuTRJsB6MzVwDsBy4lT+TSw3p+JdooMjKilYZ5AFXe61dMxI1X2YWsRJ7NCCe8vMAYf4x/RIyEbi3EpHZuphlpRFopxr3CcWwEvFi6hz79mEP+pjbDMLp8MxBvAXVtZhrdtPcmb8ABnnWB4apKDj7L8sUtVghreXAk9A7EQtuEZJLb8DjP9VlgVJMUq6sWg+fVRrn2lPntGIw1uV1WTdokw3HhZEW1HtlOHkbfIJCXRQ8HXwOrKUQzUl2S3HZalKnfNhaV369DTWV9Y92UMBtlp6n7iGnzVr4Uvg1ngtrkWmRRtsnV3Lfg7KcI3qgvmTcm0StcPHB9shQRZK3AeR2j6NYXuu3af2S9XgeqWyrDvUzr6qCizoZ8PoSCvADQmAlA+UkiX/1EAH8ZL4NqtE1zEVBcEN3zlZudKUDmTDM4jxxBWgxnYlW9nlM8sgin+dYxt4aGDVgesVZQTKrwZYO75SkLHjgJMjW8H49IY6HSwAZMbflTaei6t7eAz58Nf0nfiEaj01orMq5DDSbMSvCvWQn9vM4XR2Wi89Fsx5N8OoLMifvNiKin0kKnFHXOEcNtSDPRKOXrtSyi66h2hroo9GH64nYhJ7kQdmWY4xtmT9FQOiuffxzInWQjYM0T6P3tzPdXfmEZhJum6+hB2VE+Qnr+24OoiKfZY/49wbV8x8X+yk3OzbCPVn4/SurhU9NTzp3WLnaF1OB7G6z0J+3QrtPemkBI3yggfsxguSiXLUo5yhtcvcEqJJtzW710JKtTA2HstsM8WkdyNptTl8hCO2z9hvvndgV/rq0FfppzG7R1mGtUPgFjkbdAY0UXNqmk6apRPK/IvQXjNYmHkwgr8mN1E6UUKC41n6SqjIu5IxhdySMUf+1oQ9vpKolG2JdxRqSW6Xs8gSDoBtbpz6casZDjYtYSk65bwPqWG0tq0YWSsr3Afk1gcXPmAOEiZsnvsTTBt6iQKzI6iFPOYkcDqZmmTCoZfqYC7PpiD4Woz+vziPWbGQhbUwB3FfVNwUWIrGZhfhodMh4i65wyjqTeHdV4QgkpNkiyzrZ8cN3Oj9fN0MU17D1larA5dQ1a0QvMCWRdeSI8HCmjyruXIumbCw73joFh7HtvsX5DlxcvgU8wwvC5cC30aWgj8cbSrnqVXjSqpSpcpCg+mU8WpVIybTcHt+4PooNtfPNveCRAxN0HMNgc3rXKG7O1jMLGpHWo8nhNS9YqY805ga+0J7DZxJK3nr3A2qtWYrH8R9hY/o845T5uz5n5rbmy5DlFxF0D4WkTjWozR/3U4Zh9Oo6LjsXA99B7vdSCiooI9DYhdQmoGMqFWbylhpFzh3+VmWNbVwQRLDEBN7iAnet1COwW+ID0xis/lvsebdfJo4H8Wx7SONd8SZJLJGWV69k0b/hdQSwMELQAAAAgAAAAhAKVuLRj//////////wkAFABzYV9iMi5ucHkBABAAwAAAAAAAAACJAAAAAAAAAJvsF+obEMnIUMZQrZ6SWpxcpG6loG6TZqKuo6Cell9UUpSYF59flJIKEndLzClOBYoXZyQWpAL5GoZmOpo6CrUK5AOuD1FfrXu9F+wR3mW25+FmRtvzr7fbdMVUW9dlGdnof2m3XfW9w7bSU3av3fG5NosKj+8u2Lfe5uqVfht980t7rU+w7QYAUEsDBC0AAAAIAAAAIQBQo9x5//////////8JABQAc2FfVzMubnB5AQAQAIABAAAAAAAAVQEAAAAAAACb7BfqGxDJyFDGUK2eklqcXKRupaBuk2airqOgnpZfVFKUmBefX5SSChJ3S8wpTgWKF2ckFqQC+RqGZjoKJpo6CrUK5AKu8nKpfefaOe22XyrYt117ue2+1s97Pbjm7rPVEtnnE/bY9ulpq33LWrTsshUk7LS7uvZNb0rZZx/3xOY04xHbqfNv290uadsb6LfNzuxH/94XVq77aso19zll3be7ymViF+Gxw7YmKHI//76X+5TEH+ypjV1p9zrjz76nHvvseOpk7Pu3f7K97Kq4f0tgg/UK4S22B9z7bfU3MdpnOO/Zt/j30n2Nmz/ZxgRw7F94knPf9p2tezLZFuzrtHOza3m91Y5tae3e7S/Z7aMcZffFqcyzW7F0n130smu2/zhi7QQUptoxNxzcm2iwYp+ByFW78oA7+84IrNwnpNS5b1dq1r7cT3529x399jLNSNkHAFBLAwQtAAAACAAAACEAZC/ex///////////CQAUAHNhX2IzLm5weQEAEACQAAAAAAAAAFUAAAAAAAAAm+wX6hsQychQxlCtnpJanFykbqWgbpNmoq6joJ6WX1RSlJgXn1+UkgoSd0vMKU4FihdnJBakAvkaJjqaOgq1ChQArnN3RPZN4PK3DXnvY2tfaW4LAFBLAwQtAAAACAAAACEA4rcIq///////////DQAUAGZlYXRfbWVhbi5ucHkBABAAHAEAAAAAAADRAAAAAAAAAJvsF+obEMnIUMZQrZ6SWpxcpG6loG6TZqKuo6Cell9UUpSYF59flJIKEndLzClOBYoXZyQWpAL5GsaWOpo6CrUK5AOurD9Cdszt0g7rKxfaq/91tH9odMj+VXCe/Tx5Afuzp+vsXxu1251OFHYw7DliP72Rz77PXMReQuCtnZSpkx0DQ4M9AxS0v/lnp3yYwf6c9E47ccUVtuXr2e2lF663g8mzZf0As5812Nub/Guwm9POYH+nmsF+x+Q1dn9CVtnK+n2x0zu7whamPlP+oh0AUEsDBC0AAAAIAAAAIQC8zCpg//////////8MABQAZmVhdF9zdGQubnB5AQAQABwBAAAAAAAAzgAAAAAAAACb7BfqGxDJyFDGUK2eklqcXKRupaBuk2airqOgnpZfVFKUmBefX5SSChJ3S8wpTgWKF2ckFqQC+RrGljqaOgq1CuQDLlPZOLtimQf2+2JF7dnWLbU7OSHSPvbXY7svrPV2Jl9n2XOmb7GbkLPNXr+0xt7niLjd3/9KdiJ5lnaqd0Xsy89oG8HwlHPz7CaJz7fbw/HdNth0mu2aaZPsgtTC7GDyPPf+g9mtb+/agfD03Yvt/E4vsTv447dtjWOZLVfkRDu/RzZw9fx7f9sBAFBLAQItAC0AAAAIAAAAIQCyLrrahCQAAIAnAAAJAAAAAAAAAAAAAACAAQAAAAB0c19XMS5ucHlQSwECLQAtAAAACAAAACEAM3IP/lIBAACAAQAACQAAAAAAAAAAAAAAgAG/JAAAdHNfYjEubnB5UEsBAi0ALQAAAAgAAAAhABfmXqsLHgAAgCAAAAkAAAAAAAAAAAAAAIABTCYAAHRzX1cyLm5weVBLAQItAC0AAAAIAAAAIQDcDHCpzQAAAAABAAAJAAAAAAAAAAAAAACAAZJEAAB0c19iMi5ucHlQSwECLQAtAAAACAAAACEAVd9sdM8AAAAAAQAACQAAAAAAAAAAAAAAgAGaRQAAdHNfVzMubnB5UEsBAi0ALQAAAAgAAAAhAKK2zn1IAAAAhAAAAAkAAAAAAAAAAAAAAIABpEYAAHRzX2IzLm5weVBLAQItAC0AAAAIAAAAIQDXKKrz3xIAAIAUAAAJAAAAAAAAAAAAAACAASdHAABzYV9XMS5ucHlQSwECLQAtAAAACAAAACEAhfk1Ds0AAAAAAQAACQAAAAAAAAAAAAAAgAFBWgAAc2FfYjEubnB5UEsBAi0ALQAAAAgAAAAhANkA/GjhBwAAgAgAAAkAAAAAAAAAAAAAAIABSVsAAHNhX1cyLm5weVBLAQItAC0AAAAIAAAAIQClbi0YiQAAAMAAAAAJAAAAAAAAAAAAAACAAWVjAABzYV9iMi5ucHlQSwECLQAtAAAACAAAACEAUKPceVUBAACAAQAACQAAAAAAAAAAAAAAgAEpZAAAc2FfVzMubnB5UEsBAi0ALQAAAAgAAAAhAGQv3sdVAAAAkAAAAAkAAAAAAAAAAAAAAIABuWUAAHNhX2IzLm5weVBLAQItAC0AAAAIAAAAIQDitwir0QAAABwBAAANAAAAAAAAAAAAAACAAUlmAABmZWF0X21lYW4ubnB5UEsBAi0ALQAAAAgAAAAhALzMKmDOAAAAHAEAAAwAAAAAAAAAAAAAAIABWWcAAGZlYXRfc3RkLm5weVBLBQYAAAAADgAOAAkDAABlaAAAAAA="
