# Auto-generated by train_value.py
# Paste this into main_v10.py
_WEIGHTS_B64 = "UEsDBC0AAAAIAAAAIQAQ0ZgR//////////8GABQAVzEubnB5AQAQAIAPAAAAAAAAzg4AAAAAAACdVuk/FIrfVcnWIkuWSpRrjZTSqr7cipCscYsshRIhJBG5RZg7EW4h+7WF7NmXr3XswxjM2Gfs2Ukpil/Pv/Ccd+e8PZ+zhF2/oa17cwuLG4unlJW1y11nqXNiUso2Z6TkxKRsHJ1dnS0dzB2draz/T1eztHex/q273Ld0sv7NpY8ryYmdUJSRE/MS+3+Cy09AUd25JhMtHu0uHbKagJ7wyaFizjKo0i9JjsoYhpArvYuCbem4qvo8RCkzCI2cV/3IsxS4IznsqUftBLGTe6s/fknEF9IGF8hj05hoGEBn5t2A1B/83jIjFFjuutSca5qKJ7Um57346sDn2hjZVLMctGLPLdurMtCicP1zf1c3yARlisbLNGOlPemKUWYL+lllBaQ+aIIF9cBngysd+Oru3PuvlflA1TJuS6rvxv0FNiaBhfl49C7xPP9sBSpKQU+AewPaPNW67xTahWusIQrq7ikglvo22DwtDajqD5xSSZ2wNYoqOCFQi30RF+eSb39Ax7mTGvKLkzD4yKCmbSIPlo4n5O4WbYJg4yy2RGodfCRX7ti/fQyl9CQ3l2uzsG6m24L2bApDst+0lEd3A2lqDz85YwQuPkvIdDJqwt3+h4nsh6dgz+3Jd/xf+zBaSo/l/joDvxf7LNxuq4ef/iHtqmWd2MPm16FkX4eyB51el10agAmCqMdkbS8quU0b/BdUh0dbcjW7xd4j4Sj7IYmOSohT/tHK79sBdM8kcrZFCZZymE6Nq/VjP7HE4sbNPtA3ERB94rYI68ltqwErzdCoFKMwfqwVPldL3ec+XYkEn91vD8c2YC5lUWe2gIZfNS2/Ux5Uw2pfpIBsfS7aXqfNvNnVC8y5U5ITz3pwPiiqKHd5GNyj9ISICxU4aMMIpa634JPBwdlmFRLq/1QQ/ZrSjOXP+ZsV1Kaw8/z4RvZOMsicNzKU5R4AqxwL0Wj3QRCT69BqcSGB6yzqW6s0A9Nw+VtKyijOKIT4+J7KB/78pyYvXGgY8V6PJ8K5ClXGuM0WswegoLzihV/VU1hz539H4Z3HeE7dLI3HdBTM8WW5mN+OT/jePa1lK0apooRD7FM9cJpY5u15lgIHS/qucyQ3QHSLey/v3jIQbr3P0X+zBFcIxG+lsyScTrRtdqprg1GPC0dieDvgBucO9dI3TBBKqzPya82ErGTj1zsnyqAmXpQ2sI8JRNqpjDgOOi6Qnp/e3NYDmxOfWR8sUbD11Wvd1vUR2GbXPyw3xoCjIcWKtQ/GgCkjrBv1cBjudq/XNXh1wV778+O3jOn4prTmnKZnE5xebBeos6cDwfBnz9XLJOjKXDadLPmInJ9iK9teVMId7qV+X49q0Mi8eIx5iY7SNcU7NjzaoUrFIfzTUBNIPpQ4kB6biYLZ7GPnVMkQ6D5n/VCoD6bjX0qeNaFjY81gLbKPwL7GeUPtTDq8FNq+daycBgtnXD9bCPeDoOYP7kj/DtDWtfY4WBQDk4uLXUeGO/DDe97DKp0k2F9qfNT4FUIr9LmYXerGW/LiMsyZMXhrxKsf/ncP7L8uG8hjXoHS//SkENmYKJ8dPSORRsVr+U3z8qQGsNp7e6ioORYNHQ4McR0awnXu9/a0sA/gn7vwqdCyFK+8tI8Tt0pEdsFA0ZLifgwJjbwyd7YKQjKwhni5C1e5HiRdKs/BC6YtFy3CeuGuCGWno0MvEGO1Zh13x2FelTrput8SXn2utqQ3TAWnBzMFhvrdSJR+WV472o9Z5VweQoZdkPyoKDJyeBx/Vj7LdH1MBstqqz1fquvgaMzC/syFRrAMvv22pqQWkrVf8mpH1GCbCE/2UG01KprLxr2y7cWHJ/i4IrfMwAvB1HHyYikG3EkVPpjRgadj+QMbQuNRoZh27uuvNnBOXxI2u0yHPy/2u2dxJqLrU8foOiEKHuY5MTp+vBf/LpOwqfkrA31UNya8b/UC+RvRP9GxDMJL3cU2vKrxYSst7atdGLhO9615hqejvba3vLXiNE6Rjj2MPFCLlAOLogU3lpFDIf4ch2U+nruXxAi43gaf2FrF+zXoQA+wcE7qr4eabe6SP7nTMILc+0hOtxM1yHNRM1cZ+CYn/6hJYQ4aEs0MdeTbUECg4cdXdzpmZ/U+txdvgwyeOTn3a604tL7588zaKJqulQVEi5Wi2NhQtYovFbO/TTT0/2oAQow0B4lGA5mEF4WLxA7o1xi/YKpSA5nfXKPalBlw6nJyp8O+blw69YUmmExCO42OI4Qd9XCt6stO5+d5KDfOU1mymATWZfFuW1tI6KO5X9BZuADTY1hTWDfrMcfT6XsDOxm4ToZ7vPsUhXtfvZFk+TKIFlmDL8XW34FrwhiXskw71imEsujQGfBduNYgiasCQjJ33N4qNQRF673pEYkV4O104bkHXxc4Vvzr9ju3sI2o+izIuRlaveasnuWNYEahoL+rVgqGa+uzKvgNQpz8Id3H3/Igtqiki+kzBPtcs46YJzZgY5G4cVhGPmZdigsp3SBDRkTgrjtnR7EqVLy98MoozKYHBTs0VKKdj2xgMvcQsG1U2w9d7kAXVqGKLnsKlMs8nV5XzkPC3rbvydIMLJHgqBG/2IDehOQnPy4hFrIy6+Wy64DubGN0LaETd8W82yiIrwSFj5kp+SwJ+GgbVwpX7gRqbvH/bjtKB6fjn8D0dC+k5USKxyki3nMd9u6+/gmv6Gbo14uRcKK1aXtTVCO8XdtUvDxPxutlFpxl3T1AyHDq8ZXPQoUEJYMRYwbSvSrfbpupg4P64xTlb9Vw1t/Ai3BqDGu3YE+eahHo9Bw6r6nQCq6sJsoj5+Kx0Vlg8977Wqyyy35IpQ1C9Fm5rfypZNxmRB+7zTsGJis74Nh/ZJSEHb/uZtOBr1Ig8GTJKKw4Sfy9OkNH3WD55v1L1eD/1kwuy7kDHY7897FFrwuskkRfcaYzgSE7eq04fhSsOQ+2er6ngVCwCF67XYX0EieBSLUOmH6uuloVsQDMD6Lq2aIDUBXwV4NL/xQw/M66MU/1gtDNz6avNvqQGkx4xEYvwlO9VkoJahQ4xx+61bS+Db8er2Vd/dAOJh4c3SxXpvDXWpUT69x/cDxSy9j7Xi2cOPOz1EZ7Agft3sXK+lAh8JRw5tsvFGDJrBR/JkOHF0IW0zFHRlB2hn85bG0YWXX+NJai9oGVGbu/5jgNDoQEha5s0vD1/OlH3nxDWEhtXxCpGwBb91QZzt2TGN2q7cvqQwJFUyHXlYcjuLrel6kSPIQ/+7aV3hN+CGdWnqSptjVB9FP5PWd7GPAqYVQs3T8JhOsjDyay0lBDREE97dDvfmOV/dd9tgYusD8PEyV3g5F6urxsWxd6dfLFnd3dgR4r2vKOJzsx+ebIYLkGEfpw42OCQRfW7T3s6C+dDBPzyo8WvpPgGZey/4RSCewI1ObpEOoA0x9eKQYmQ0jRsGUJiM8FBmdGSoVEHXAeez1YRu1C51Zl65ITLZjpqb0z35YJqmkHswzUJ7F5bt+9/cLTUHp1zsI5agjmWD+yVIg04YTqwbtRkUzwKdvF66HajbtNzt5ZGmwFXzn1feYNI+jtOGD0aGQYjhE00qxTSWjj4GPzYqQTNi2mDx0RLwYR/Wt7Evhq0E0pkqU1lIR6xpyGsuazIHEzrGmvPQUPEIznFUWrgIdstHas9LdPPE/yCjdo8GE8n42njAEKRw95uhHp6BAa0/cPsQZa6SL3BJY6wKpOSvTG20q86HezpViiAU8yE2r+iiZjR4OTe3VrAfJU/7vda2EA6T3/CQ/8EYYlrl0fKlbb4d/JB0+5YpuALYy4QWc0w+LJHJvbQVSUvLteIUkcwbVwNaf5w+WwZeeVBOOkdiQ07lOZutcIlPDU3Mp1BgisPg7UWX4Dtebc95X6s7BWSihxM52CDYF83SZ23RjQpWmqt5cBfemFIRwSs2inldp5eKIaD6rnG5pXDkDZRxKNWUxDAr+5kf3pGNxcdBnSolajeQrnBj+1CWx/SBnuzmGCraphBTuzGZe7ighHhvrRat+eW8EMMr5QXmPNs52E8Kzg85N2k7BAkeFpfNoByfkBTjsJtWC53egKLZCMQxmjapZhnXBceqGv6HkpZjYa8W/V70TR2aOR7vdzoR5z32qXVmN+06RptnsR+N56It1qFY/ZczwLn45XgSmPfOqeoCTQz5i8SKDPQtDpMvuGYirc+iXw9wClEUkrKz9ihEjAvKek5Eb5/Z8aK4T/2UkETb2IKVmubhTWiuAUkR/AsUvkEzpzofAtXaTOUpuBK50Pyg+Y5YLpGb+W7YdrcOuqbtKIZQ6mG30N0BdvB7Pv6//Onu8D00PT7/V0aoHLb8V1w7YPpS3/2eX7gApAfZO3osOE8alfGkWvcqHnSedoQeEIijbsyvzhP4q7xH/+uEsoh+5KiRrmziZc41ppPKY7A38OiXoWFZGw6q/2suIDxbipss94g9YM+cf+2JoWNIM3yHf6J8e6IDQ1YGjDpBijexVleU8w8H7c68jtitmwa9Wr7OZsH4hudl5Xdv8HtsXrlv7UXMRhvZGiSHItBJY75PgZV6Aen9sEu34VEAQ8qwUdGbh+4MTDAgoVLCITlmozu8Ge12uPi3IOjOj5fx4PJqDZk51CGYdo8Ef+1U+nVusgMc/pmuiJfJQXejHOP1yE3hUf0i8P58GFQd08oR0T8DjZyPi9ST3ejs2+9adfC748LkwWfPJ7F58FfTniTUVHj5tS06IDWGxdrKNT04OdqODqHDgMrBOt4QmXO1EwNeH+0pITirO7PXaSHMR+Adf1N5L++MZ4n8vWiAZ8NJ8bPmOQgCIEopOIdgpy64ZVjq7GgRzfDjvL6SpcPG3DlkVsQC4soNxQzscTnUGP/yRW4hnzDy17lzth9+cVg0jrLLzCdlmlanQMRhnfkx1z6/GlfgufemAzqvkG+5kp9MHV4VKKA+EDcnj4DWYMF6Nl6IXrGeF1ePIr69jatUGws+YGd5dyVEs+9/oobxdcCDecOhPTA5fUfli6yTaBHmfurWreapRwc527aNcCazps9wbMRuB/UEsDBC0AAAAIAAAAIQDZ6NYW//////////8GABQAYjEubnB5AQAQAAABAAAAAAAAzAAAAAAAAACb7BfqGxDJyFDGUK2eklqcXKRupaBuk2airqOgnpZfVFKUmBefX5SSChJ3S8wpTgWKF2ckFqQC+RrGRjqaOgq1CuQDrt7LzXuvfK3eO3eN595lAZ27a+sX7ykxTbfJ+L5mz8nfprsWn5Tby17bs7e7daFtn8aPvRHRbLYym0/uWuudvqcju2XvkfV9ewL2H7SNPX7XWkKU1zYn9NiOUMZ6m0tSi22/tonb/jmkbhWyeqFNBLOprVWz+j5VVi5btd2/bOVr9PatDIy1AwBQSwMELQAAAAgAAAAhAAZ8Lj7//////////wYAFABXMi5ucHkBABAAgBAAAAAAAADDDwAAAAAAAJ2X9yMVjvfGRYUko7JnKYS3Fal3nCSphFJSZjKiJCEapDJS71BIRkZkz2vc7MPlWte4l4twzSQpGSkj4+P7L3zPb+f56fnhnNdzTrihicG5K5uYPJkeStvZu9u6SR+RkD7qoCEtLyHtcNvNw83Gxfq2m539/+knbZzd7Td0d0cbV/uNXkZVRV5CWV1WXsJH4v9Z255ZpFXe/9QMc6HeGjz3soDc5Vq3tL0Gg1mPfQo5RgHaq22OPpsH8Hl39DT7zg5ItlXyDpbrhreR3vKP1Vrw18OUzRoJ4eC7xdhoW+sgHjDVN7nJF4Pf8vOSp4Tq8HnJDrLcKzpeq8oYHj9RAL6hBmtKV7tBVr30bOR8M4TWntFonXqD+41dTmnE0SF1SDQviI8G5/Ujmz8tD0F4zxJp9X4p3nlDuFFkRoPjpxS6ih70wtM7q45NiwMoeEo5by6pEfrVHl29v07Fo5nFQWMhNchV+KhXRCgO2E0NXwamfYQVfWsz7sBeyFgXdBypQ7AfuBVd8DIO2T+ujEl+SAJT0+Aj+radOGbIL6vu0oDVyotzl381AOeF5esfKK2Y8fSCzYe0AXitM/w2rzkfPtIj1ZnrOoHIZ36wmS0FswmfONOE+mF71139D9o5KJfhuua0nAU6OVrKfXe68Y9cgsjNZz2ommTxrNO9EPIkeLUllt6DB81sUVSkBgRjrUs/eNeDwdSDLTsN8kH/tNbkmSv9KCfqkibe8xEexJgctTQrRZXomOxbq83wgSU27h+PZlA8Vt506EUDxjy9qbQq1ovnRlufRCiUQx6jQIp3thNCb4hnhfv1gK0Kn+XJXSk4RM4KYDEuxdYgQy19bxL+Ry6WDzfpgJFZwVHXomRkCk15e2YXGQLjPbi3LN4AT6dXo9tL26FJYd1qs0MvlPNyG5e7hoB97KVzTS/yIPao0LODlFeYXezrp16Rh6oxTNeISEaO5Lomj5td+J6+aitT9hnHVc8GKd+Oh1b8PU8oycV3QrrEnRJNkLU5b4g3qRJT55j1/11kIOnqmhGhqREoKTyeb/hHofbic0HJdy1Yxer0fuZkMwyo9zlL1zVDvyJrg/4VGupx3bkaFtyGUVFiXQ0X68Ft4Yl7wbN6PDibp/K9pgf3v5EW19hJAD5umajHl4dhK/PxoawnffhWPn/VJ6UVBS1ytQMZ8XDjeQSrWGQtPhayTJ8orMYId2n56ce5KKZyVnbuSyZ8sJySqCiqxvPcpHaf7+XwvSq8sSGJAv7x+VedEqpxT5jwi8nrbTjJTi6ZSc+C5psdVlfaCgAnOcb5NcqgVfLhdguDNojdw7FvM1c6KJifUFFVHUFbY58bnjEduH7J66pFQztqii19yXragf5sNf92cjyC6da5S4vzBFiIIM1bHKGB8zuCxm1KKdxTqwoT9erE6Bt6NtvNeiDGqJVZ6msn8HBWffZlLQDVYvfuZ3p9wJWUuJ2F+hWazT7E9apXIWO+4dCYdjPapeh87o+ngbV4JbdnwAsUOPU1VkaGAnM8UkHOjZ1QLfxgfJpWg+UBGVKdyQ3AqmDINpbcDPyBz5vW1GtRZi4lgft8B6Qp+tvZdEyAh6tdpZkSFayl/jwSNaKjiBRZaeVHMQ7M8/EXT5RhjFxz3s83rWinU7Wcz9QClFtnCbwRDOjqsgypsk1G2WjHkJOWbbgi7XGdKFACEdPjT82JHVgeH2VWwNwHooM5+/7mJ4HFc8F/jMuTof9vtsL65wbUHn4bIyRcBkHCThXLn2nAtPn8UR/nLtBK+jSnN/0QfeapD9Omy0DXYU6Jxp0I37h0zTN+UFHdZDzo4gQJLWZ+hgr0jUBSSLDrKpGKW7oalTP5hyE3bOjE7+p6HOs5txBo0o3rI6bvZ1gI+FD31ablhOfwicewI2spF9cyQ9lauWogtNPDNmF6FO7yTLq0OFaBe+6sgtJUBnyPJvxNu1qF5rE5QusXSpFbQzVj7PcYdE5tAmpEAxiFPBkK0hyARjH/8lliPni+/9WwRb4atxXVfxrX8IXTwdkxu3KjkIkUITG+6xOE8MskEr3IcGrTnSQSyyBuZvy6YWDbgamGDDGJ5WJ8QZTRctFngN2mBd0M/zoc9cyijv7JAPB86KvmkgMTs/JV9ndaQNvv/VTmxhyZXfap5/SuRn3uYm5yZBs8EirYFkWsw0CP6vrX2hQYKii1c+ItwLMTRo43AyuxJda0/kRLNNhJzBlbzzbhl2ITN2b3cvgiud1bsHgYdA7HFv/MGsEDTLmaXpPZINtXzVFkPorIHLmPcrgMpnF7Q+bMMN6JyzD787sG1e5VaB0qLUCbkeFAnQk6alzimou5G41HnVTPlZnVgcZrOdv5mj7I01PiWz3cjTE0kWi3+V6Yunq8tXJHNd4y4P4tu8Hz0+E2bWtqFAhi8LlMCtSis3bpy2mVYtB1LjOg3q1H5Qs62aNhjRu5Nnfxn856cPd8d+5FHx1jrxofjGNQIerKbgXc1wZ7436tXUrqwLfblM5nj5Mw4ebPkRFCCarE3dxZTqBj7l4Yv2v6Cut3v62j+JIwKPHgbFdVIdLDMt5X02l4nc8rKyOThuvnVA/E3azEDs//tirtQKiWUZP+GkWGr9x1iuSKIayKJ5EHmd9t8ObI7inmYfB2IsSd/EmA4IFE25Oh3XhhLvm+waN6/Bq1cyH4BxEErQu/XHnWDKYkcwehuC7wkrsY8Nh1AIS2Utx2+pZBjZseoda8AdKvrnQ2N/cD92HuHjbJIUi2I3FwOTwEn/AFboPFQjCx/8HCcrQf2Ccs1OV2fATHoP5Cxt9ylBuZn2MrLwPS3VCDy/7ZaCvtamRv2wp5ycR250vVyHXksR+v/gjE3C53MxbNwdXGufuu/sfggsTKbKtUIeSyi9rXxdJxP0d+q9gMGZ4vvIqS66WBoFrPNtfIMVzYlCxlfYiANMFztzQsCaB/8Z5WR2EOJvqpzHwVJsGK4INTP01KcJseR7JHYi6OWyhWork7+NtbWUqu9oPpiDfnAHYgV5rgji9FDEh4JfF3v0Iz3rhjKBrZ3Qhh6j9XLh0mYWqrRbWfBQNzfVOL/DRC0KGTfCFFIQMzOVkfcL6mA4nMszVCKBeXD1CrG6V6IDLDXMb1LwXaKhW7X8m3QdFNIll/Uyd0DIrR3d1pwGmd5rDLpB+hd2vdmDQFJEUqiU2bPkGpEJtVtiwJ5aZ46TZVtaB4c5NFWWwvKIrPMDweN8PhtdmMcdM6FBE2xkOOH9CwSyxcsKEDgtSktzqFFWGS6MMmf/5m0K1xkifsaoeZXq/lsf5SOGQ7IX/FmQwnUmI0fZhSQe96vOfn7XVgFSxblvG1EAYac4pmboThofKJrkMz3aj5OmKP/+kkeLr1vWhEXDNcEzr364nURcwNO61eHVaFypZIup1eC1mPj4SWPerCYCZCqU3nMFaZYOl0QALck7pot9RLxGUd1vd2zV2oXJ3+2DZOFQZmo0aG5IqxYq7ST7mNAkcaTlsyeSRANjfptJxaA2zek877obER/qtzqZJ1KIYY3kT77rg6GOiSMkrqLMSFxaaz343KcVj/XN7ewRL4tuzrYfk9GvgXf/QZ9k6B7NR53pDeWrA8qp5pfqsR+xPk6ZEHaajh+1HvvXgP7kp9u9LA0wPa8nFCpXvISHp/c8JOsAkyBXRdvpzpgE8v3vj4CzdhyiH1y/L9ZSBe2vilSaMVtin+ONlUzsBrhJwrC341UJ68qGquTIddf4YPFgi5wVGvWM97dxpRfpZGtD5cjvhuX66czWcM7bzwRX6tEeNJ4/dvWFXDZnYnllTeLoxiWTruZ5GGLH79SQPUJtiSxlgUsXbAO5IHRiCeAsUhzLm/WDvx2JHopFcCROSbRr0Ath54Oq0+K0CgomPH6XOjmZF4/Wx48uuvUxCXMvYofWctNIw9OTp6OwEUziL3r7hefFwUR9I8UY29jefF6rs+YkvVhB1GdqKz52WTXwIUnCy08f1HqRyECbN69l4bHLsho7OUSIArqWHqNO8+lKXyl1yWpSPhxbnDAo69kCvCKrWEjfBL2OJ0kEodDF4T7KsUroN/DMlnJcnlaLTrzIfYrVRw2KQo+d/FMpxRXEqIWK6HxbwrYl6HivABz4/7Nty14C7YHlVDokFSTF5sYAAJdFUfFRAe0fH2ydVF21MULNbcd1ersR22+XoFronnoJdZNKt2TzyuGGga/xXJRjc/d/EELSrYseSlCeYmw4zcUmIJkyeET0pl/LuFhndzE/6Qk7PAXtHC9e2JClx1E75epNINRhca/oqeCoc1rxqeudckdPG1XHJU+4EClelPGJpVaK375evqoxSQejvTWcnZhSbtnJ+VfelwgmXco91y4x5+eKBzcp6K9Mz9hpmaNBz6KMNCDO1AdtFQe1JOJlQGaB4zKGlHNo651QqrPLynGaLX1o7YYsgNgwQStnqntieMj6DC/RuURuNaQI1r+5S0C2FCfGAH9VoPUNkN7BYc2/FbHedy8bU6iHZMZwidtIJvmkzeL8Xp0MFoz0+HBpjRZTTtvUcHvt/JPmzLheB7zEVbhBqF8pzEVTViPUSGbXn7wHIIgpfHs4r3GOP+g6plv1NT8fM8e62NABFm6r2Kq4wRzSLlzxwzakd2DtdSj5he5DncE1TLVo0Lv+MEm1ZK8IDnKeNNhWTgF8wZ+L3xRwhfr+Dxc25AtjuK5c4TVBTnalOeMOpDXvExESXWeEgbNgudMSxAO59FrWvfW2GybHiiySkRpHdarJfbVEDVut+pGY4urNKh1PaL0CCbeUfLqnYJ+AoFsHgfLIWfgj8Sigej8U3M8GF3q2IQSpZrEav2g4uuBbTxxGjkj79cr31wI6eSVVssBypxpvK0hX9wFgz1uxLZchELs/8kJ2sVQ9n5BqtsvY84/8bsmI1YNuh8G5/SXI0FRUuXccYOKhJfFM0TWcegMk7lpdu1HNzCnL71TWwquMUpBUtfqoXvZA6TDodO7M52uKVd8RFk2wtXA+g1+K/VRiiyNuGc8C76QatKZDxl3eu/+h2CAzbf5dhdD8XK7h8vZFPw5BfteK2v6Rj3bX2QxYsCLcIrxOdmdHCfJUmFFJQB4d6Ry6P3k/Ew4/kWUng1XAlivx+WusF908RucgAVdzf+azEk2gtGQeuZHX+oqPPXi8YWVwSK+6///Md/CJ4pGkWvibVDcBGXn8PGnt4OGVab20wCb/njfLs5aBjlFrZXsrcd30uNBvN7UAEoTarUW+1AibZLfnq7DcwmdSXbTm/4fvmZW/IZHRSijX/uruiDuSM/lutFw8D8uIULv2kTVPpXkyZrBsGu8AnPNgeElheMok6JfBTwva2V+x8N891dDc1SMmHvNG/4oHkj7G9KWw/06Yb/AVBLAwQtAAAACAAAACEAkmku8f//////////BgAUAGIyLm5weQEAEADAAAAAAAAAAIkAAAAAAAAAm+wX6hsQychQxlCtnpJanFykbqWgbpNmoq6joJ6WX1RSlJgXn1+UkgoSd0vMKU4FihdnJBakAvkahmY6mjoKtQrkA67Q+dL7jNU/2HgdmbQ3Y4PBboZvKnb72WT3Xtg3wy7xv5R1yO2yPdXHV+x99l9gb+e24r0RswJthJ49t70v0Lev5d7F3QBQSwMELQAAAAgAAAAhALKCAuv//////////wYAFABXMy5ucHkBABAAAAEAAAAAAADQAAAAAAAAAJvsF+obEMnIUMZQrZ6SWpxcpG6loG6TZqGuo6Cell9UUpSYF59flJIKEndLzClOBYoXZyQWpAL5GoZmOgqGmjoKtQrkAq7YfS5yTX8f2/doPNpx6/LZ/Q2vPx11PHLNXj0+ads288P7fW/47ubn/bR//Z+ft546nra/WrDJvLLz7X6PG60ut7/v2l9w63+VkcXm/ewsZ3pz91+3Zwtas0t77jb76MNdDTzLTtkH+4aWBjtd2B8yIXpva+zl/ed8l3DtaX1rv+mIx/Kdfvf3AwBQSwMELQAAAAgAAAAhALltxnH//////////wYAFABiMy5ucHkBABAAhAAAAAAAAABJAAAAAAAAAJvsF+obEMnIUMZQrZ6SWpxcpG6loG6TZqKuo6Cell9UUpSYF59flJIKEndLzClOBYoXZyQWpAL5GoY6mjoKtQoUAC6tSbP3AQBQSwMELQAAAAgAAAAhAJTv/iX//////////wgAFABtZWFuLm5weQEAEAC8AAAAAAAAAIMAAAAAAAAAm+wX6hsQychQxlCtnpJanFykbqWgbpNmoq6joJ6WX1RSlJgXn1+UkgoSd0vMKU4FihdnJBakAvkahqY6mjoKtQrkAy4XZXUXIb8pjkcm3nXw0D/p4sOv6RQ5s8Ix7kax86c/Lx1iNkU5a/vOczRJtnNKXFJsl6G6xO6ff4FdbVeHHQBQSwMELQAAAAgAAAAhAI2zq/P//////////wcAFABzdGQubnB5AQAQALwAAAAAAAAAhAAAAAAAAACb7BfqGxDJyFDGUK2eklqcXKRupaBuk2airqOgnpZfVFKUmBefX5SSChJ3S8wpTgWKF2ckFqQC+RqGpjqaOgq1CuQDrj3fT7hYfFnlqHjiv0PiRH3XkNUPHBeuVHAM/dbt7DaRz1Eh7Yiz4hMGp9kb4py8T7fb/VnaYxe1q8OuZmWoHQBQSwECLQAtAAAACAAAACEAENGYEc4OAACADwAABgAAAAAAAAAAAAAAgAEAAAAAVzEubnB5UEsBAi0ALQAAAAgAAAAhANno1hbMAAAAAAEAAAYAAAAAAAAAAAAAAIABBg8AAGIxLm5weVBLAQItAC0AAAAIAAAAIQAGfC4+ww8AAIAQAAAGAAAAAAAAAAAAAACAAQoQAABXMi5ucHlQSwECLQAtAAAACAAAACEAkmku8YkAAADAAAAABgAAAAAAAAAAAAAAgAEFIAAAYjIubnB5UEsBAi0ALQAAAAgAAAAhALKCAuvQAAAAAAEAAAYAAAAAAAAAAAAAAIABxiAAAFczLm5weVBLAQItAC0AAAAIAAAAIQC5bcZxSQAAAIQAAAAGAAAAAAAAAAAAAACAAc4hAABiMy5ucHlQSwECLQAtAAAACAAAACEAlO/+JYMAAAC8AAAACAAAAAAAAAAAAAAAgAFPIgAAbWVhbi5ucHlQSwECLQAtAAAACAAAACEAjbOr84QAAAC8AAAABwAAAAAAAAAAAAAAgAEMIwAAc3RkLm5weVBLBQYAAAAACAAIAKMBAADJIwAAAAA="
